/**
  ******************************************************************************
  * @file    tinyfallnet_6axis_qat_data_params.c
  * @author  AST Embedded Analytics Research Platform
  * @date    Sat Dec 16 05:57:55 2023
  * @brief   AI Tool Automatic Code Generator for Embedded NN computing
  ******************************************************************************
  * Copyright (c) 2023 STMicroelectronics.
  * All rights reserved.
  *
  * This software is licensed under terms that can be found in the LICENSE file
  * in the root directory of this software component.
  * If no LICENSE file comes with this software, it is provided AS-IS.
  ******************************************************************************
  */

#include "tinyfallnet_6axis_qat_data_params.h"


/**  Activations Section  ****************************************************/
ai_handle g_tinyfallnet_6axis_qat_activations_table[1 + 2] = {
  AI_HANDLE_PTR(AI_MAGIC_MARKER),
  AI_HANDLE_PTR(NULL),
  AI_HANDLE_PTR(AI_MAGIC_MARKER),
};




/**  Weights Section  ********************************************************/
AI_ALIGNED(32)
const ai_u64 s_tinyfallnet_6axis_qat_weights_array_u64[4145] = {
  0x495f5022431ab965U, 0x9bee29fddd04ec53U, 0x3d3c9bd5ec78aeb7U, 0xf593cbf6f0cc06cdU,
  0x7cae926f130ab81U, 0xb219491f0bc2ab44U, 0x3adf971955f4e05dU, 0x3bd816abd340937U,
  0xcea01cc853a9c2deU, 0x126a1ef7a341b011U, 0x3fd929220df421ebU, 0x385c9ed811d5b343U,
  0xf84e60405fffeb25U, 0xc628350263fa5708U, 0x1021dcc859de791dU, 0x24fecfe4bdbbf107U,
  0xeb17e4d7ce7f18d4U, 0xd4303d9657b123f2U, 0x13c7deac57cdfa81U, 0xd08dea31d69f1fc1U,
  0xf9ed2db31f205ef1U, 0xd4d5a7245b03dffdU, 0x2cf415fefdb101a5U, 0xcb606c1e806ad2eU,
  0xc743dae0b907da0dU, 0x22d5cc330fcd71f9U, 0x38edee250729afd2U, 0xe6ae3024feb126d3U,
  0xddcedf81f2b1d0f5U, 0xabf8e8e9c2d4dee8U, 0x7f531b22c60c39e7U, 0xb3f0af45d720ae69U,
  0xc6f0172528a7f5b3U, 0xcf552fe42518a5b9U, 0x5d17ee8675d3051cU, 0x51e4f6c6d905bf2bU,
  0xeeb4b0e70218388eU, 0x4cd22c3ade81ab09U, 0xd4f5a1d2280dcfc3U, 0xe0e9f6dda61e06deU,
  0xba5cd971358a2dbU, 0xe0d1a500bcb4e14eU, 0x1dbdd8dd3103d42aU, 0xa174c730d39ab925U,
  0x200e96b323df807U, 0x33f55233a84839bbU, 0xee2df97f0db92414U, 0xd49a4a944a5e369aU,
  0xbb4123dea8fbf19bU, 0x4af08e1d88155e6U, 0x209d2ce05bcba9edU, 0x1744a59a5f05ec04U,
  0xe80c65b2b6bf8e56U, 0xe5cff6f3feed57fcU, 0x24baccb467e7106dU, 0xee3f1a0f2002dcd6U,
  0xb32d7f517267fa1bU, 0xd249fb3c45ec2708U, 0xc14e0ec8b673ccdbU, 0x15a9ebe2ed736e07U,
  0xe7acbfd724ca40d0U, 0x1c05ac9cbebca65dU, 0x866b717f535e5d07U, 0x497f5d99f10449aeU,
  0x6a954b766c5e49b7U, 0x1f146f68d4229c26U, 0xc9c629135fd598b3U, 0x87b0a6c80ef9cb6cU,
  0x870408154ba1637cU, 0xe4b3d55ccc9f87fU, 0xf0082eb215bcbe74U, 0xc05ebb59460dd1e1U,
  0xe832e0c84235b3eeU, 0x6cca2e076012e7c2U, 0x1eb15a5dca0e2233U, 0xed5fe17df1657f08U,
  0x91382336630ba3c6U, 0x94a304dec4c9a12dU, 0xcde4ffbc3d5c38dbU, 0x8af5456603c729dcU,
  0x28e6bcd6181cc9a5U, 0xb212303218e5a856U, 0x97a52233094c40f7U, 0xb018c64bb5a981eeU,
  0xdeeb9ed5d7fc11c7U, 0xac2527affe7dbe9eU, 0xc84932f16b61e699U, 0x292eca4202aa0090U,
  0xc819453b5f132ed5U, 0x5a16427ff4a801f4U, 0xad1da4d993bace5fU, 0x99e83bb718a1418aU,
  0x7fa0d1410478c0e5U, 0xaf11f42d5571cd1eU, 0xc63d4a8fd9b7d044U, 0x4bf6b998e9f8251U,
  0x2de00000aa3U, 0x1834fffff3f4U, 0x6a00001a28U, 0xfffffa6e000026afU,
  0xffffe953000013bdU, 0x1c5ffffeb51U, 0xb41fffff844U, 0x16200000004dU,
  0xb5002c55fee643a9U, 0x8dd346422d0781dbU, 0xd1f9a253af15c081U, 0x14a1e841b6ffd630U,
  0x4c58e30dfb397ffbU, 0xc511dec7d3bcf951U, 0x1c81c60c654d0961U, 0xeac99d8e34683dbeU,
  0x5d0e359f7681c2e2U, 0x5a5866c6fc661f22U, 0xd80ed633e32b5c33U, 0x428122bef1cb5199U,
  0xfe865cc533f95259U, 0xc1b5b30a1bd5df81U, 0xbda37f133f4bc5e2U, 0xfe34aa0a1dd268bfU,
  0x64d0d0ce2cefb8bdU, 0x99fc737193ef81U, 0x7f82d828facf5c1aU, 0xdbe5d9c308225d96U,
  0x25fd50691a9de147U, 0x50a81edf81500fa0U, 0x193cf415d47f09b8U, 0x1cbec53030f3c24U,
  0xc4db28d776f3d0d2U, 0x112ac79a7d9f2c7fU, 0xacb44af0efc32481U, 0xf2e7a60d5e2bb399U,
  0x34a10736b6814bd5U, 0x2d73f1d65e9536cfU, 0xdd3b1b5481d52538U, 0xdab95df22fe8cca0U,
  0x7f7c8a6777645b2cU, 0xf3cc984499925269U, 0x81510914f12d339aU, 0x1b64c703ead433d8U,
  0x66fb7f334f0c496fU, 0xb2ff4fa911ff5222U, 0x39a9e7a91c040e5bU, 0x82edac1e81a20ff3U,
  0xdc6106647fb2a5afU, 0xcdeb7b0ecab2d902U, 0x7f45f901f2c8370aU, 0x4f63a20cbd656628U,
  0xa747f2359bd24edU, 0x8771ab9dae844c76U, 0x16dbe456b8db6bdaU, 0xabb8e58139a049ddU,
  0x8142b713fbd7100fU, 0x93c6131fffb0431U, 0x2831d112d0882d7dU, 0x7f2ab9a23e310a02U,
  0xed21fda81113dd4U, 0x12c437f816e610e8U, 0x38fbcf35b5f0ddf4U, 0xaeb2f57f1117a5dcU,
  0x30f6bc7f48e5d92fU, 0x1db923f9e304fb2aU, 0x8b2998211ae1858eU, 0xa4c0cf0107f7413U,
  0x2443c598cd2a4040U, 0xb3a87f1b3d4da5a9U, 0xb246cfcbbd07215aU, 0x9d3f64b07f23c0c0U,
  0x8b0e34c0703bce28U, 0xd811d7a58c02866U, 0xda8e4e436f84ce98U, 0x197f2ce161eea561U,
  0x8adc4481c5bcf6cdU, 0x69558ef84fd0c3b8U, 0xd57ffd663c36d0b8U, 0x9605bf721aedd20cU,
  0xaeb6b57ce8285851U, 0x3812b19b0629b281U, 0x1b9a81c6dbfc51c3U, 0xd04c2de011310f4aU,
  0xe0d83c8107090944U, 0xf91257ccf1efed04U, 0xa998bdcc39656164U, 0xaa7f6c1b40c36d6eU,
  0xab0cc4ea0719f705U, 0x7f4da0b7eb612b1eU, 0x3cfdae63351c7163U, 0x81ccb32348d7d0e2U,
  0x5f013f813bce1be7U, 0xa4565f245ae79caaU, 0xae7fd7a824b8cc22U, 0x1561d0e977932699U,
  0x8c0665cecc1f447fU, 0xca30ebabcbb8d4dfU, 0xf213558713c0f885U, 0xbe2318e9052cad7fU,
  0xada00ec49b2a1865U, 0x7fbd4c64abc2330fU, 0xf47fbc2562b2e4fcU, 0x8173ede3705e00aU,
  0xdc81d2b9b80c1204U, 0x33113102b72d2bfeU, 0x61c59a51c0e28122U, 0x1bcf3305390c40a6U,
  0x2f35153ab0c8106U, 0xe81c81c54f1667deU, 0x17cdafc4bcba0396U, 0xbae6111e45288158U,
  0x662e2ec2d4c3f77fU, 0xc1ef7dc18dfc0498U, 0x20245ab8810f889dU, 0xefd8a409c77d424aU,
  0xe49f08d15908ec24U, 0xe6387f3fc72a574dU, 0xc0a31b944ca77fcfU, 0x69ebebe3dcb26e02U,
  0x905db61581fb6bdbU, 0x2191aac33c294e49U, 0x64effcfb1de3012dU, 0xacd2f8cbd581fcb8U,
  0x25c25ef6e5dc15c3U, 0xcd7fa12a504bbe29U, 0xd20a0dd320563a7fU, 0x3d0dcd6704de3de8U,
  0xfbd07f313ea8ca06U, 0x3ca83e3fffc34bf1U, 0x4062ee2e3a81f50fU, 0x9182c1afb22a5a6U,
  0xe3fe1be16d9a2137U, 0x7fa99c515ab540cdU, 0x1d60405b7f35c5f5U, 0x17b2d5eac29f24d7U,
  0xf6500000244U, 0xfffffda5fffffa06U, 0x192fffff5cbU, 0xfffffe42000004e7U,
  0xd5000006bbU, 0xfffff9cdfffffe6fU, 0xba800000080U, 0x4000000175U,
  0x55fffff220U, 0x941ffffed72U, 0xfffff31000000173U, 0x7dbfffffb8aU,
  0xfffffa56fffffe8aU, 0x50100000547U, 0x35ffffffcf4U, 0x69fffffe3eU,
  0xfffffd9efffffbaeU, 0xfffffbaf00000cefU, 0x51d00000345U, 0xfffff6eb000001a6U,
  0xfffffa5d00000038U, 0x2a8fffffb74U, 0x42b00000542U, 0xfffff95e0000046fU,
  0x292000008a7U, 0xad9000000a9U, 0x66f000000ffU, 0x514fffff8feU,
  0x67600000583U, 0xfffff47efffffcb4U, 0xfffffc80fffffc64U, 0xfffffbd5fffffd15U,
  0x3af4e5e460d6f149U, 0xd426b8513e1d4e51U, 0xb32ae773b365e0a3U, 0xba11301b98d3575dU,
  0xc00533e5d02d68b4U, 0xd7bcec53bb003a34U, 0xce022bfffc511030U, 0xf3e7a55d307f1ccaU,
  0xe6cf336a11ce5cddU, 0xa07ef40a81c91ff4U, 0xd77d3bb364fe4957U, 0x1fe917edc9b062ddU,
  0xe9b4b087c6baba92U, 0x9adc2c9f07031b0cU, 0xba1252b1ab00bf22U, 0x74ff2ca7a48b4a4eU,
  0xd7f30ce51e08bdcbU, 0xe5bcf6b5e3070807U, 0xcd523cd040d53d28U, 0xbd0fcf85ffff9e2aU,
  0xb40321dcdb05c03cU, 0xbe4237e6dae342e5U, 0xb8d5dcb84e12f534U, 0xa520fa9fc913067fU,
  0xf92cfeb8a2b01f46U, 0x97609d18b67ff192U, 0x14d760b74616dc3dU, 0x47aab009c8b9a798U,
  0xb022f6dcb5325429U, 0x4f52351e1ab61b42U, 0xa5c81344a73fb302U, 0xa502e52b583c00afU,
  0x51c752ca3645301cU, 0x4e59fa7d7d322d1U, 0x2541aaf4a94aaef9U, 0xf9daf818d4e7dbabU,
  0xa01adec3d805486bU, 0xa7b3b63143221bc3U, 0xaeef27a704a425b3U, 0x9e22c17f599a60a6U,
  0x13cd9d694656d41cU, 0xd5c12ba51140300dU, 0xab380f4fa334aaa7U, 0x97cfdecd2ebea4a1U,
  0xc84ea3316a9fdeeU, 0xce5d81101857d8b6U, 0xd3c835e304aeed32U, 0x2a1e5a051f40f9U,
  0x193258bf46352d52U, 0x90a7fd92eebdb39U, 0xd03a13ce668717d5U, 0x22e15406e7ca9454U,
  0xf830e18f3e51455dU, 0xd50a2a0ca5274d9eU, 0x7b082848f4ab2e60U, 0xf6531397311205acU,
  0x7f9c1c17f7675144U, 0xecd7056956dd1a64U, 0xc9fd3d3e666e48aeU, 0xdc686ecd4fc45e0U,
  0xcb4c985555c6143eU, 0xd9b7f1e3569001e3U, 0xd40b06cad2bd97eaU, 0xcd3dde63762ce032U,
  0xe5813dfe4dde1ec5U, 0xd0d323c7f1b06709U, 0xba0708d451c4e44fU, 0x39ee3b51e498a7eeU,
  0x9bcfc504cffde2e7U, 0x56bf92a337db1d97U, 0xe422dacb53ca2312U, 0xff6c01be459dce0bU,
  0xd099d0118124c4f4U, 0xfd4e0c0f00fdee3cU, 0x2bdcf02d0ec7fac6U, 0xc2562037f51adb04U,
  0xe9acd470b75dfd17U, 0xa43afbb5f5b1d80aU, 0x16eca002b322dfc8U, 0xbf11bedaf41924f7U,
  0x3e312ae053e15c50U, 0xb113d13d2240ac0U, 0xdfd4ac8e0af103aU, 0xbec636fc1ab92cf9U,
  0xc500114ff0f3eed4U, 0xe14952ddfaf41f7fU, 0xa1485207dce03758U, 0x453744d523e16021U,
  0x973d592cd66881c2U, 0x53ccf8493886da40U, 0x52df77cdb4b6d59dU, 0x2bd559be1bc916cdU,
  0xeb9e85c1ace5e226U, 0x45c2f9cef2d7e209U, 0x196b1854131902ebU, 0x9d5f19c94ae9139U,
  0x26c7ed3aa8a9e447U, 0xadfefd45341225f9U, 0x814e343ff00c400bU, 0x2b28f951d6bec6e6U,
  0x47e1fa32ebb827b1U, 0x300c48bf30b7de3fU, 0x54c3c7c9aff70ca6U, 0xcf5d12ae412af40U,
  0xb9aa172fa2aa9bddU, 0xc1d9f4fb7b600a7U, 0x6d099e5022d24bf2U, 0x2766bdeb4dc5fd9eU,
  0x93bd30353b7fec5eU, 0xb356fa0746faca3eU, 0x74bfb08e08a34fcU, 0xae22c50511af1ef6U,
  0x27c2a4b1bb1ee597U, 0x4cf781e1ee4e9edeU, 0xb276c80b3a9f0dc8U, 0x9f8fee80cd76d41U,
  0xb4ea0a52b53e4dcdU, 0xa045d3d80ac20641U, 0x2ee714d5acbb4b50U, 0x317fe2d9866df5cU,
  0xd18b83a3de012adU, 0xa13449dc273af024U, 0xb0db47a451f1bfc0U, 0x25c5f1d40be7b9a5U,
  0xc9c87f8c41d84b1aU, 0xca13b3084bd51304U, 0x89aabc085e11a84bU, 0xa9ffc007c34829b6U,
  0x1ee1fffff1bdU, 0x5fb00001635U, 0xfffffc98000002dbU, 0xfffff4affffff531U,
  0x12c500000f49U, 0x158bfffffc17U, 0xa5900000945U, 0x9b900000f3bU,
  0xf81c6136bac0581aU, 0x36e17ea9bbf75965U, 0x15dbcf31b0e2a12fU, 0xd4ebcf858f6e428fU,
  0x11d18152e4a8c0acU, 0x63f81dbcbff5a9d0U, 0x22c5e621c6b43922U, 0x38c28df1bab7f758U,
  0x28f65e08f649013fU, 0xf41957cd1e4bb71cU, 0x4957c2f5bfcd127fU, 0xcc0d2e36711928U,
  0xdde603b7c446c529U, 0xf9be4acc6bf051c2U, 0x44083e111d531cb3U, 0xbe3e0430dbcb173eU,
  0x61381a1f2f7f60c2U, 0x4d91c046ed769d4U, 0x38dead1a1eead605U, 0x9e359e2e3b2e1728U,
  0xbe35c2bc27dfb781U, 0xb316ad6ba2119015U, 0x112a2b8df4375acaU, 0xfcbb9b57e908f8c5U,
  0xb3c855e4811cf716U, 0xe331ca93d1d21b3bU, 0xf8e419ba43b226acU, 0xc5b7a66541112667U,
  0xf5af9cac48a29567U, 0x75a47f8d646e6dfU, 0x642cf6e5f430145dU, 0x7f47043f1c1ca5d6U,
  0xf1267b05c15dd49U, 0xfce3ab06e0a529cbU, 0x5ccc8b0e66e3910U, 0xfb57dcbe6c1fc13fU,
  0x2d02c3c8f3ae8dc9U, 0x310251f34b202620U, 0xe050155e468f0b01U, 0x72212cfcd2b429fU,
  0xc50553e5011a8152U, 0x53a07c611ff19a2U, 0xb0095c8806ba0ce5U, 0x9403cd7060f43a01U,
  0xca211e67df311cfcU, 0xb1c04e7f16a4103fU, 0x593b2e0ffa5aea8U, 0x8d1fac061dd1c81aU,
  0x3d46289c5e25a85aU, 0xcd17a34a623f73c9U, 0xe28525b690e6a830U, 0x81571b66c140fcc6U,
  0x90d29b25b27c3d23U, 0xa32852dce8d66cd4U, 0x1e39cfaccf104df2U, 0xc76efb24073c5826U,
  0xd9341406bb5394c7U, 0x78f84c9c122a1ef6U, 0x29ea3e6f7fcf2160U, 0xc74beee5ead99fcaU,
  0xb6e0c7293c57d2d9U, 0x3bc36d06b040c67fU, 0x3639b8f6d74a6dcfU, 0x6874233d38ef0806U,
  0x5000b6e7ab57482eU, 0x679fed65c9a81be8U, 0xd845ff10dc66b2fdU, 0x62cd84725687a2bU,
  0x3a7e90f7fd8119dU, 0xc63363acae922599U, 0xdc7b962011e2bb6U, 0xe6af40b41035e2ffU,
  0x2c4365d2dfed476bU, 0xe63e004d1777c3aaU, 0x17355fb45e385f7fU, 0xed35b71a423124c0U,
  0xfef634f7a6fba56aU, 0xd60ef3d70ff20005U, 0x5205aca98aef7fbaU, 0x1c5746ba4634664cU,
  0xb3f03c151e05eb2bU, 0xcc96dc60d4214b34U, 0x2b21352b4c286b50U, 0x6d189d1ba30d61f3U,
  0xa8cd3df1f5133ce1U, 0x194cc1c7c4e17f1cU, 0xf111900c0e5428d3U, 0xa4dfe100fcda7b30U,
  0xdb992618b1cdb213U, 0xf7f5bd261ac03b6cU, 0xbdaa58423ca8f6d8U, 0x48da2041d61b2fb7U,
  0x41b253fa5131f7b0U, 0xe848482e22d4d306U, 0x8133f9abf2e34c38U, 0x22382daa08e4ec33U,
  0xfffff31400001324U, 0xff1ffffe5cfU, 0xfffff29a00001105U, 0xf2c0000055aU,
  0xfffff103fffffe9cU, 0xfffffe09ffffe96dU, 0xffffe09effffe819U, 0xfffffb16000002b6U,
  0xfacfff6b58c80534U, 0x3d47451d812b21d8U, 0xe1b809d5ed003008U, 0x356a18cb0d7f1dd6U,
  0xadfc342f3ad47f4bU, 0x4dde1b2b551f0bcdU, 0xafbadb2b04ab8106U, 0x296df6533c14607eU,
  0xa2cc69f9739d4f87U, 0x1c5bbf816661ad56U, 0x7ff0f42bc7c433ceU, 0xc33e11dee244a6eaU,
  0xfaacadf6212b018dU, 0x7fc6c33fd708a1a5U, 0x2887457ca7a88dc5U, 0x6cd206bdc67ff396U,
  0x1ba4517f1e04b669U, 0xcae5d2a5c8671149U, 0xda2bb0871b7fb78aU, 0x8b91ddd718c58ec2U,
  0x7096f534c9613bf8U, 0xee7f9c97129bc225U, 0xe2d60e4dd34e3bcU, 0xb1f57811c48b9bcU,
  0xb48611d93a0c5703U, 0x7f2ec32edca22112U, 0xbfca19b07f1ca92bU, 0xd38d39c3c0a0f86eU,
  0x2c04347f1da203c7U, 0x54fd41cbb3e8d66aU, 0x1f6d2ec63b11784U, 0x25fc818c42fe4529U,
  0x7f0421e9f5fceae3U, 0x3b1b77825b459113U, 0x32e30430e9f826dfU, 0xb67f26cb24df2eaaU,
  0xcd9de8fd1c2100fU, 0xddefc78beb81e67fU, 0xb04a45daf59bb7a8U, 0x7a10814a53f33bebU,
  0x473728e0d33ddd62U, 0x7fdec8bbcdda22fcU, 0x28b0b37f0cc358cbU, 0xd6ef01ccaec9e5bbU,
  0x818a2435c41ae41fU, 0xb7a692a7865831aaU, 0x2d1e3f2aac9d1a38U, 0xe4a90433ad81c91bU,
  0x811a92eab916dda8U, 0x15e71b4394f61c3U, 0xfe447e25af0c0fb4U, 0x385f060494a77f55U,
  0x799fefbf1b2ef1d6U, 0x277fde27b9d60031U, 0xc025ca35271b813dU, 0x204de5df6fcb2a32U,
  0xabbf3bfbfa5bccd1U, 0x99bb29b17fdd456fU, 0xf2aad3ba0481381aU, 0xcdc3bcf9b50fd33aU,
  0xef8103b3969a92ffU, 0x8f275024c0fc0b23U, 0x81e8a3bc0c40484cU, 0x42c8b230e911a790U,
  0xd82684e8fcfc4d81U, 0xbd983c742b61caaU, 0xb30c7478d5b8e8d8U, 0xcced7f4edf6dd52bU,
  0xddbbf3b3169df84eU, 0x7099e45d2f13e681U, 0x2e8710f38d7fc54dU, 0x6c035062918e404U,
  0xad692a7d6954be6U, 0x6c81122f83c620e7U, 0xb701f4601a1ce026U, 0x77235d0f537f0fe8U,
  0xe00314d72a66b1b1U, 0xa8163cecd8477f1eU, 0xfa07b0c494b44c33U, 0x4741ac81a155b9b5U,
  0x3881ac9a49d7e3deU, 0x2940c54cabfcc7cfU, 0x8130fbb3cc0fb627U, 0x7c323c0ecfeadac6U,
  0x6c3838ef2dafc62dU, 0x348119aafecaa44bU, 0xacf893fb051ce5fdU, 0x47290e697f3dbc5dU,
  0x2c8115e9fbdedb45U, 0xf5f001dbd0bba9c3U, 0x816c37cb505d2809U, 0x24655db79f909adfU,
  0x189def7fc54e4a33U, 0xc7b86cf0df447002U, 0x9fa6576102dedfa0U, 0x7fcaa5f3c7644f3dU,
  0x1abd27f98be37eeU, 0x367c231d449f15d7U, 0x9accbd1bf13bb7daU, 0xdeda6837f6f47fbfU,
  0x23429eca4f584bf3U, 0x814046d7f2a236c0U, 0x38549bffb417b6d4U, 0xf32333818d30fcc4U,
  0x8a28bd4aa3ef2427U, 0xd4d28dbe81cece30U, 0xaa203cc1f05d2d37U, 0x556ed6817eace866U,
  0x2d30cd6b1ebf81f0U, 0xc064ecf469b5f1bU, 0x1c72cfc224aeb9f3U, 0x639f45bec6c1810eU,
  0x38fec9ee213d4c2aU, 0x5ed05e227f67fb39U, 0xd1c19d5f81a93e1dU, 0xdd96cb92d6fef38eU,
  0x1022453807c02ed6U, 0xd8ca06c881f14c35U, 0xedb7813de999fcf0U, 0x9eb4b00753d1e3e0U,
  0x64158127cdd0e8efU, 0x14f219b013360401U, 0xd0fa4d117f14f445U, 0x8dd81e3ac501c10fU,
  0x43a3d2e2e5dab065U, 0xd34c3b957f9c3e15U, 0x89927375398e322U, 0x14ef2b33128115f6U,
  0xfffff8a6fffff99dU, 0xfffffa78fffff133U, 0x80fffffb4cU, 0x68600000d99U,
  0x16f8fffffc54U, 0xfffffcbc00000379U, 0xe2e000002ffU, 0x719fffffb28U,
  0xfffffd49fffff43eU, 0xffffffc80000130fU, 0xe3cfffffb6eU, 0xa63000016a6U,
  0xfffff9b3ffffff08U, 0xfffff84400000044U, 0x128a000001dbU, 0xb6e000013c2U,
  0xfffff7a8000010edU, 0xfffffed70000097fU, 0xffffe9bc00001302U, 0xb6cfffffa7eU,
  0x2d800000d73U, 0xfffff387000000c5U, 0x630000101fU, 0x128fffff70bU,
  0x58bfffffee2U, 0x72a0000008aU, 0xfffff5130000130dU, 0xb53fffffcc9U,
  0x179effffe5bfU, 0x150d000003d5U, 0x4000000010U, 0x60000000182U,
  0xb320442b8a386733U, 0x1cfdbf3ef3e80b31U, 0x3b5cb9b2ced75d34U, 0x3f263fa122e1218U,
  0xfe0b7fb3e0e8c634U, 0x270d5a2abcf23284U, 0x2df6ea17f5f4fafbU, 0x3665e994bcf393b4U,
  0xb4bcdd7fc11b6dd5U, 0x30040831b90e4ecbU, 0xdbe6f243032bfc3fU, 0xb5f5d4d53ef5aeecU,
  0xb7184c9aefe61de7U, 0xc7153fac30e2e031U, 0x11c936a0cf2ef7f9U, 0xc1d521fccfca992bU,
  0x1ff4581f694d12aU, 0x13eec58efadd73a5U, 0xdaae1c2423d430aaU, 0xbe21dd0ee4bedcefU,
  0x9dc0f9218c08aacdU, 0x25f6a4ce68fe3bd1U, 0xd6ad5228da490af0U, 0x2291f0fa8d4e173eU,
  0xc90e54bae6115c42U, 0xbcad015e3826c2dbU, 0x9ec0f48e3bd119e8U, 0xad161ac80b34291dU,
  0xdf1584d8d45e821U, 0x59accaeedc894d23U, 0xe0049c8142c99badU, 0x6f00c78c3a366cdbU,
  0x3850fc93f76ef6a5U, 0xa3922032d1ba9ab3U, 0xbd1f223f62e130cbU, 0x3aa4d2e79fdb06bdU,
  0x390541f4398127cbU, 0x8fd21c3444131329U, 0x1a02871d380d430cU, 0x1a24a34cd6d39ccdU,
  0xe003293dd7da7ab5U, 0x3bfa19c3f567641eU, 0x9b0859d1cec13e14U, 0x22f84937eb16bf06U,
  0xf8395ed7019dca54U, 0xe1f53ef6fea4bb4dU, 0xf60211942ac70071U, 0x197f73ddb15ab6e1U,
  0x18dec3fdf5e45badU, 0x9823f748a73c7f24U, 0xf5f266296abbe0eU, 0x9490f1c909e10ea5U,
  0xb0124dce2f540327U, 0x22250d6f2483a42U, 0x4da8e030a09627c2U, 0xd752d2d0f216f956U,
  0xc6b9d0e012bdd1eaU, 0xc4faca9aa7b11d3bU, 0x400a3dd27f0f2823U, 0x1f974627fdf43316U,
  0xc354e834273c2747U, 0x22442fce416306f5U, 0xc2955bcab5f4f400U, 0xdde888ed56af08e2U,
  0xf9a7aa42b86704c6U, 0xf2f5d9bebf4e082aU, 0x2241eec148e429f8U, 0x38edf6ca56054bf3U,
  0xdadabbea81fef9bfU, 0x5bf1282eb2c935f4U, 0x392047d9c92937d2U, 0xbffd0bf31b3bcfebU,
  0x2b9e188f0dbba512U, 0x66bee86b5d98b5f7U, 0xc2895845f2f841d9U, 0xe5b140ea123ed7cbU,
  0x3c5492b3f2681a7fU, 0x28b495881c8326a6U, 0xce26dbacf355fa0bU, 0xa84c2c9b257457b6U,
  0xe616f50c4013024dU, 0x8fc5a5c0e9bec01bU, 0x60c6051e1cc2acd9U, 0x2781e5492c2f5f5dU,
  0xe215c18f1a6921ddU, 0x2ddae0eac83cd6b5U, 0xefddb3e2298a5692U, 0x136e2db11004901eU,
  0xdafa2c9cdacfedd7U, 0x81095f5abd1ada36U, 0xef4b223235484e13U, 0x28e53339ec4ba8faU,
  0xf74455e726d6bf09U, 0xfa395cc1c6e184e8U, 0x1b39cfabb494e07fU, 0xfb033c99df243779U,
  0x3c2a400aa1cc8162U, 0xc0b1e3580c463c01U, 0x436ea1e9efd9e2fdU, 0xa5daf997dc868ca2U,
  0x2756aef9fb00dcb4U, 0xab93c40bdbcb85fU, 0x4f35f6de1cb727ecU, 0x509925d6bbf93aebU,
  0x398bd4b1df0171cU, 0xe7a43acb291d810dU, 0xd503defed1f3b508U, 0xd3d0d4f75107cbfdU,
  0xe4db05c3e8b0d7faU, 0xa9274e08ff0b3fddU, 0x34ef470256dab215U, 0x193104fcf625b916U,
  0x4aebfa26c1ee67c7U, 0x15c4930eef4cd019U, 0xb044e1ee2ce6948eU, 0xaffa63c565d76a3dU,
  0x1c8714e8c8c581b4U, 0x3af8c99e05d5aaa4U, 0xd7ae39d3425c9a20U, 0x19d7d1e5a6b66fb5U,
  0x1c1bdcdaf2b674a5U, 0x9d6c3724c4abb6fbU, 0xfde7862b81d75a7aU, 0xa642914bb60f2682U,
  0xba386d2644e7231eU, 0x6b387f8a9c339d29U, 0x6d71f31b21f893b2U, 0xad236f6e0a5135cbU,
  0xdf08c7fd2256df19U, 0xd51cee3bc91e183bU, 0x23dad433bcfc0702U, 0xf1dfee440cc051bU,
  0xbfbf81dd0e264acdU, 0x35bb07cb01d2e221U, 0xe112fbf2c5082b01U, 0xef1db6eac0f24411U,
  0x1e44b3d5d53a0ad6U, 0x27dd9b8f81d85d1cU, 0xc7f8bc3fc432e2f5U, 0xa8b79abd412cd8e5U,
  0x4fd334f4c1b8b6baU, 0x99123e02160f1bfdU, 0xaf4cbd2a2719d9f1U, 0xf5d425d410052735U,
  0x4c5dc817c6ececfdU, 0x2a8c81890945e664U, 0x2402fa65643c3eeaU, 0x4c522859be5642c8U,
  0xf7d3c5d086f72bb0U, 0x5f5f208b243ee625U, 0xd38d3d003305cb38U, 0xdbfc491a4b03e914U,
  0xb1584abb18ec2b0aU, 0xc3bfd327f32f0749U, 0x4ed83affdae438a5U, 0x46c4be3e05f7a434U,
  0x3213093238b3b59cU, 0x1b25db10c704b65aU, 0x4e1a4f0c21ac1ffdU, 0x89818834331ed636U,
  0xa7f4719e5d8c7ffU, 0x980a2a5cd5ae6a85U, 0xb1024a40d7140ce2U, 0x6f0e4f90a9e6119U,
  0xc32f4a90d7eff6dcU, 0x2bb3575767055addU, 0x60dbb3db3df6c72eU, 0xcecc24208ccccb4fU,
  0xc8dd3eefbfb43f16U, 0xe13bdb53b7656ba9U, 0xde26261fbbef87aU, 0xcdeae95f57e06118U,
  0xdee626b106bbcc6fU, 0xf0c0adca4ccd4cbdU, 0xa5f74df5c009c8deU, 0x52db7f8be6db0c88U,
  0xe636d926a7e8fddfU, 0xe25725f0c82a2d39U, 0x40527dee51ffd7fU, 0xea152a4d28ffb439U,
  0x1c1d451fdb20ea9fU, 0xa9c70d091bce9c1fU, 0xd3442bcad8f2c9f9U, 0xf3df0cddf3e21ceeU,
  0xdef1cf461dd6d024U, 0x2efed11528d3dfb5U, 0x140846085c1fb77fU, 0xf3b1b15e9a3442e1U,
  0x32f2380633ee57d6U, 0x9e3cb7c9e8aec825U, 0xf41cc1b44d47fdbfU, 0xd1b8c4dd912323f0U,
  0xdc25eb018ef80eebU, 0x9ce9374f9d2b22f4U, 0xb0a55cad09cc277aU, 0xdbddd51ac61750faU,
  0xc4361bb292d648b4U, 0xc7360df1a813c1e4U, 0xb481bdfd240b245dU, 0x3f8a7203526fd465U,
  0x8b717fa46353439U, 0x85c4f08ccded06afU, 0x40f4fdee1712f78fU, 0xb1a0d45ac1bf49f2U,
  0x192cb036ac9af3eU, 0x47a786fdd5a9240bU, 0xd3c5f1835fe2b4bbU, 0x146d81bfbbe8bfe0U,
  0xb039ccdc03685a01U, 0xe0633b37dd306cfdU, 0x3f512918d3bdf013U, 0xf9a6bf08eb18e6e7U,
  0x9bbe812bc64427b4U, 0x9dfb46bc2ad83c2fU, 0xe33cc130df2b04d3U, 0xf9211666e348feceU,
  0xb1f2c4452824d2fbU, 0x2081111044f4f4U, 0xbf5c23ff3be5191eU, 0xd8f99ef3daaefad3U,
  0xb12fb1e5db62d9fdU, 0x222adfcafb97f42fU, 0x210e2431f03e32d6U, 0xc11eef2a1033c1f4U,
  0xd3bad8da3bc4fa43U, 0xe90ed2e31b1b16d3U, 0x1d005b365ad115c6U, 0xa6b8315f6c2a56f5U,
  0xc639fee1c324d5efU, 0xf3af48153081a4e5U, 0x63da1a8ba8ad5f2cU, 0x6ef4942a3bcd79b8U,
  0xcfdb4abf813504e7U, 0x37bc112ac249d31aU, 0x4e16dadf4e294cc9U, 0x506dd2b29e022dcU,
  0xf308d90bf334cad2U, 0xb22c54c0aeff1ea0U, 0x413f9d4bbd84e82U, 0xad5d31d738a4f4ecU,
  0xaa4eaf2fb3000430U, 0xb17a0748d0fbd9d7U, 0x5dfdaa31bc042b26U, 0x57b5c5480bdfa649U,
  0x222031272aae201aU, 0xaeab1c4df3b01d06U, 0x2cf3813d229800aeU, 0xfe6b09a102fd53b1U,
  0x50c803ea1ecf48cfU, 0x38e94dbaf005d3baU, 0xf11cd35725c7c314U, 0xd667fb41370cf8b2U,
  0x45417f0319a90b46U, 0x11be2b38ddeab73fU, 0x4e2e17cccfd2542cU, 0x57bd7bd1b715c846U,
  0xe3c7c3610e2c2fe3U, 0xee4f28dfcc56baf7U, 0xe1abb12bb83104d5U, 0xb60d0ae9dcbcb61fU,
  0xd0c84ffec5ddbb44U, 0x3bee4d264a06d5e4U, 0x6444daa931df23ebU, 0xbe3a7f00fb43d4a9U,
  0xe5e6be47e6e89439U, 0xd933ce3faa95def2U, 0x159cc6673b0fcf9eU, 0x2cd1ab30c3a7b702U,
  0x152d8125ee1e4b00U, 0xc58fc2e5f53db2a9U, 0x2cb821983e27000eU, 0xc450e153e40b1386U,
  0xe6cddb5b2fe96b11U, 0xf3c79540032933b9U, 0xd5f609ca0e321366U, 0x1f30c8d8bb0e510fU,
  0xf9bbe115f1c4b044U, 0xbf067558481e0e81U, 0xb1ebc6c571ac4c96U, 0xe28e6e43e1aeb656U,
  0x1e4d1d0b1a6ce3aU, 0xca54b85be6c566ddU, 0x7d0ad833d6f39bcbU, 0x218be0ea04b5f7b1U,
  0x960d07ca815753e7U, 0x695aad069b2b01feU, 0x15a9051345c9131cU, 0xd293b4df48cb6d1fU,
  0x2c38e0f010120116U, 0x40ef67810abe36ffU, 0xebd60a3b3292353bU, 0xa9dd349d2ecae2ffU,
  0xfcc272f10ad967fbU, 0x914b3dffbda5e954U, 0xba13c6ce1ceba74eU, 0xe2f90b39efc42a02U,
  0xea50ea13229e18d1U, 0x4826816418d1cd24U, 0x931a0cc7e8b04c16U, 0xbe3bacc02bfa2311U,
  0xee2df8f6d2e157c3U, 0x4cebfeaf3ce761aaU, 0x34c4eac5d218e1d3U, 0xb11c2010b14ddb07U,
  0x6acf21d2f17044bU, 0xd19ff5554ad55339U, 0x25a33dfb134781f5U, 0xf5edfd56501d0cdcU,
  0xcfa90bcff20f3e08U, 0x3df554afba2f8419U, 0x9624aafdec86caaaU, 0x12b6fc161e24100dU,
  0xfe005cf233b41bbfU, 0xf3d1bdaee32f5d99U, 0x2f170848332f6fcfU, 0xb91df7e2a186aaa8U,
  0x9e14d010facf6ae9U, 0xc5df2150f932df1cU, 0x1887bb4a36bc06bcU, 0x7f74cbd2d9669d9cU,
  0xfc2d1fe5d1257f2aU, 0xf43ce9f3fbf13234U, 0xcd3643d50522af15U, 0xcec0bb0ff9c30ad5U,
  0x3c1f3fb6df0e062cU, 0xf2572e0ad70807feU, 0x213554b2c8c7ceb0U, 0xd814fdf4220ecafdU,
  0x2dc3b244c1d46eeU, 0xd035e25a49cea6c7U, 0x1b132de536d54a73U, 0xf3b7d9d88bea22a0U,
  0xe157441735983149U, 0xeccf05dae6b281ddU, 0x3b96449f1942b691U, 0xc409be2c11fc25b6U,
  0xf25c1732fb2797c5U, 0x7128ec0d4df360bU, 0xff39814e14e20f9cU, 0x595806fdd93ac011U,
  0xf5b06868a94cf1d9U, 0xc445e151bc91e732U, 0x6ddace1db4b1260cU, 0xa1d9a9a5851f42f4U,
  0x1307c6944dbde9b1U, 0x4d047f17610532c1U, 0x3a539de8e82608c0U, 0xe83c352a93c41324U,
  0xabcadaa5d28fa4b9U, 0x2707a856e4fd8b28U, 0xc93346f6c742d705U, 0x531a093f8cb8ec26U,
  0xaee3e0030d1ddc02U, 0x3018c73ab4e681f7U, 0xd72dd733fb263832U, 0x132eb30c1e1aef0cU,
  0x3cadf021128ce704U, 0xe515d7fa183d0d30U, 0xcbb8c6fb5ce7a9cbU, 0x39be18eacced0cd4U,
  0xc968e100950e2d38U, 0xf2e7572ffe4a21a1U, 0xedf1590f96885a21U, 0xb74747637f029b5eU,
  0x148d2adefae1ac3eU, 0xc8c5a9bfdd85e4daU, 0x214e4eb012585c7U, 0x7c2fb85bc225c8b1U,
  0xc4b3b5c7563e6a99U, 0x512e5e02a795dde6U, 0xf921e1a9adb6275dU, 0x48af3f7fc9cdfe0fU,
  0x1fe72aeeb82bd2ccU, 0x91e3f2060f7a6c6U, 0x18a2cea82793abf9U, 0x392143c248e2b501U,
  0xe9f8162cfb32add8U, 0xa7dd59f4d42611bcU, 0xad2dc245ee5a0db9U, 0xb9b0a39581baf422U,
  0xba20be3832d3bcbcU, 0xf849ed3da8f9485cU, 0x112864ac1821289eU, 0xb63db50c1408bdf9U,
  0xae580222b4b3ff04U, 0x1e390efbc2ad37e9U, 0x5f4bd341e2ed19fbU, 0x31b2c7d2f914ecceU,
  0xd4f8c7ee8145e217U, 0xc530220b00fb2f4U, 0x18372f1601a8d91fU, 0x182023a82acc44b4U,
  0xa1ca67af00dac03bU, 0xe6749c8f1e1fcf7U, 0x2fec06dcb00d8ddfU, 0x1113c65c07294733U,
  0x3ac6d14843be7fc2U, 0xbdd90eede9afafa1U, 0x410bb4e05ee74796U, 0xcb2c02d523d564d3U,
  0xcf0f811348b9ebbdU, 0x4cbb6e8e8c91eccU, 0x20ce96214ecb771aU, 0x99c60b8fcdd150edU,
  0x1940da959ba9bcecU, 0xac9f305f59ceeeb0U, 0x2f2af0b021da3323U, 0x5f46e05298cb4338U,
  0xf7365b3ffcfcf0c9U, 0x1b92be3ef902603aU, 0xd4d1c02732b11454U, 0x49b9c4ded5c024ddU,
  0x1d0c293c402d59e1U, 0x37af252c282df8c4U, 0x1fd8b8a82c23ffc7U, 0xe5f1faf40147810fU,
  0x6ffec2e3e30d2a18U, 0x5930d15dc5da2ed9U, 0x11a1392bc55e0f43U, 0x43f7e9ea5c9e9a5cU,
  0x341c3acc1ab38113U, 0xc245112339da5bddU, 0xca6a12a9b742e5b4U, 0x6d75200a4d7a6f3U,
  0xdcdce9dab7c325a7U, 0x4c206503ae22a80cU, 0x4e18eee42bd0f825U, 0x561d3e4eb6362651U,
  0x4638073fe7c9fd07U, 0x85d0dc8d4ab3b16U, 0xda38880f0dd347b9U, 0xfe6ba5030e81f53cU,
  0x38b341eec9c8beb7U, 0xa4aa331faeeb2821U, 0x4e1e2e5b3ff399bU, 0x981db44676c34f37U,
  0xc629ae3ae0c33512U, 0xfdad3b1d9b1d0d42U, 0x9131811e5629e514U, 0xb040172624985d93U,
  0xd130101650241b02U, 0xbf2b124cc0aa3e43U, 0xb9b4bcfe3e4ab0c5U, 0xdbdfba1cd0b04903U,
  0x444bb24072ccb21U, 0x2dadf2b4113361f6U, 0x434cf8a23e26edbeU, 0x25a97f13ca40bedbU,
  0x2a0e15e329f5d4f0U, 0x6e2ed08fb26991dU, 0x130cbf1ab12c1d81U, 0x2223deb59c04c03aU,
  0xd5250c38e1d54ff0U, 0x161ff5c81913bae4U, 0x18d74510a674c799U, 0x67d1adf4fb2f19e5U,
  0x25fca819021e4bb3U, 0xeaec48273b499a17U, 0xf2c95888d181373eU, 0xbd49d626d1a4c113U,
  0x9044f9e895e3c2ddU, 0xe1e426c724dd1bf2U, 0xb3ecfdd9250d1a46U, 0x14e7b4b1c2090533U,
  0x2998bc34b2fb0081U, 0x28593919c29efb0dU, 0x8730142f118bac7dU, 0x14372bcdb514d03fU,
  0x84553a118a43217U, 0x9e4086d611079fcaU, 0x4cefe6d434addfb3U, 0xdfc06fce03f30099U,
  0x56efa8d8f10dd9c0U, 0xef6a7a9bbdec7edU, 0x167b41012191635dU, 0x22f6ca6f0b8f322eU,
  0x3ae436e0ece4a850U, 0x65f5a2134a629012U, 0xff1add7b2e281efU, 0x472e6ca7570f57eaU,
  0x135d1196bf085bb4U, 0xb30c1dc759e465ebU, 0x96c37f614750445dU, 0x7bb547211034aa47U,
  0x443df515a74f1cdfU, 0x2f0f235a3c10b3b4U, 0x123158a1c5097b4U, 0x1eb25423e8d71eefU,
  0x353fc0fcfa2ec1b7U, 0xd1d3e7532240150cU, 0xcfd74fe6b3c169f5U, 0xeff030ce8101eb5dU,
  0x906eac13e1af7c5U, 0xec20253ba5550422U, 0x10e3b7a7540fd5bbU, 0xeb8e4eb4b7392d3aU,
  0xc8e4a5e4813c04b0U, 0x39ad2d00051e09cfU, 0xcf0942a5e2e9b2c7U, 0xea0be7a2e01ce40bU,
  0x3d1e1f1a216b1007U, 0x42519cf0823eea8U, 0xbe29042597d3f714U, 0x9e1b43bee02d1600U,
  0x5ecd34e4bcd6fda4U, 0x2b54c2f00a06baedU, 0x2dc164ee7f97bd2eU, 0x3fef3504f0b7c9f7U,
  0xf029e7d3b442c127U, 0x44cf56e0ab14ed33U, 0xa56993e24ed28f2U, 0xf7cf255463d50a16U,
  0x6000000bbU, 0x1cfffffedeU, 0xa7fffffee9U, 0xffffff91000000b1U,
  0xffffff9f00000069U, 0x7f00000151U, 0xfffffffcffffffacU, 0xfffffff0ffffff75U,
  0xffffff8000000004U, 0xffffff65ffffffbbU, 0x2b00000017U, 0xffffffef0000002bU,
  0x65ffffffb8U, 0xffffffb400000148U, 0xffffffaaffffffa8U, 0x55000000f2U,
  0xffffff5600000090U, 0x5d0000008dU, 0xffffff4fffffffe3U, 0x6fffffef0U,
  0xffffff6d00000023U, 0xffffff0affffff05U, 0xffffffb50000001aU, 0xffffff86ffffffd1U,
  0xffffffae00000080U, 0x2fffffff5U, 0xffffffc7ffffff8dU, 0x5400000008U,
  0xffffffb1fffffeafU, 0x6fffffffc7U, 0xffffffc700000020U, 0x86ffffffd2U,
  0xf0df32080ff42219U, 0x2dfd1bc104ea1b19U, 0x1a283bece60a34d7U, 0x1a1ae7f6dde61324U,
  0x2f15ef070424fa47U, 0xb2c20fee5d72222U, 0x2402f82404460ff7U, 0xfbe121e6f2061e0fU,
  0x3722030ae1ed46e4U, 0x11171b0124e4fce1U, 0x62d270d22150d1fU, 0x10eb28eceedbd518U,
  0xf83be2240f121418U, 0xadcd4ff0af8f319U, 0x2c12da25ff0d10deU, 0x1bedf3110505e6d8U,
  0x11e3fe06dcf51116U, 0xafaeee4e32b1419U, 0x160517e9142ee5eeU, 0xf8f109101beb1512U,
  0xebda232414f4dd21U, 0x21d2110bfbe0f5feU, 0xdde3f4fdde33ea26U, 0x22f5fb1e17db28f2U,
  0xeb171a12e9f73b16U, 0x1f412dc1fef3009U, 0xe4150be9e2f1dfe4U, 0x151a14dffa08df17U,
  0x18e9ffdcf604fd02U, 0xf0fffff101fbf4e1U, 0x30ee12df21101af9U, 0x9ca1a121933ff07U,
  0x161442f2f102170fU, 0x1cf317ff26e71bfdU, 0x19122cfaea15f0ddU, 0x1afa09d4e5fff80eU,
  0xe40aec170a10e1edU, 0xe1e32004123c1be6U, 0xf42dd2ef13eef80aU, 0xcdff806ffffe8d3U,
  0x11d818e4fbed2503U, 0xd11e0ad9181cf522U, 0xf81909191e12fbf7U, 0xeaea0c14efc4fde3U,
  0xf3eb11160716250eU, 0x317171de4fde104U, 0xee1f0bee0302f313U, 0xf611eeed00c623deU,
  0x1eef24f504e300e7U, 0x14d42ee2fd02ea0eU, 0xf23e1fe1131bd509U, 0x1e0715fa18d3e2d8U,
  0x8e2e7e5edeff3e8U, 0xeff1e20602d6e7f7U, 0x1804d3ed0b01f9d1U, 0x6161a1e1ee62ee9U,
  0xfd103a24fdeb49fcU, 0x27040d1eeb27ecfcU, 0xffee49fdf3e101e3U, 0x14d309d61e0bff15U,
  0xf9eb19f016080cebU, 0xfce506e0060c0001U, 0xeedf024fd20d7eeU, 0x291111f911fbf5ccU,
  0xe3e52214ffec2be6U, 0x1b04eae209e801e0U, 0xec24eb2600f516f5U, 0x20ffced2c10f51fU,
  0xe7fb03efeadd01U, 0xd1efe9120d20ed23U, 0xd9dd1c01e012f2U, 0x17e6eb24170fdf0fU,
  0xdd3549f9deda19fbU, 0xedf6f9f11f031f06U, 0x271f120d01f801f6U, 0xf20a01d7f41235f4U,
  0x16f31722fd001923U, 0xebf3f60d040efd25U, 0xf91315002e14ddU, 0xf5d0f60fe717f0f4U,
  0x111d39eefa0e5711U, 0x13ff10f41f3fe6e9U, 0xe41838d6f8d6e8f9U, 0x26f905f0ee250008U,
  0xe102f2ef2aecf3f7U, 0xf804e10dfeeef3eeU, 0xe4f0f7cfeae3f827U, 0xf603e0ee0718f3f6U,
  0xc247fd903d53003U, 0x4400503f3330a2aU, 0x133556e5d8f22116U, 0xd21df6dd072af0f6U,
  0x17e528d9e4f0f7f6U, 0xf7d2e805dbe6e8f8U, 0xf7ef15051d0be41eU, 0xfef3fc1ffdddff17U,
  0x7eaf7daffe1f1f0U, 0xe4f2e607ef14fffdU, 0x20e6c511fb0df527U, 0xf4fe160d0e24f9edU,
  0xf4e80fdaf7d7d9c7U, 0xf89eee101e1fe4dcU, 0xed0bf9ddf2dad0dfU, 0x251de3f7e5cfe82cU,
  0xd0ed20dae1edaf1cU, 0xf9e9e5e9e605e2f0U, 0x1ad2d8d2de0a070bU, 0x4f6f7eae901e9e9U,
  0x202f01109e8170dU, 0x13091ffa11cbecf1U, 0xd6fd0fe20e150a16U, 0xf0f403ee1af412faU,
  0x1e0d1404ee1be713U, 0xe51ee61e01f700d1U, 0xfd08e4f61ee0fa00U, 0xf91fd714e106e4d4U,
  0xe23e31109eae6d9U, 0x42d1ae7090de9e6U, 0x14f3eeea06eefdceU, 0xf4fe1ceafbeb0407U,
  0x51cd822e703d7edU, 0x270eecfb06fd0809U, 0xf726dbe6f41e10e6U, 0x1111bee0b2308ffU,
  0xecf6f9f5fae7d5f8U, 0x28e116d90aedf60dU, 0xd9fd231917f4fde5U, 0xc32de30be7f5fde3U,
  0x151db31b0911d0ecU, 0xebcc2731eff70808U, 0xe504d016ee0b02f8U, 0xe0e01a18e12f3df9U,
  0xef030ce923071e1fU, 0x5070cf0f6f117f9U, 0x18e90cfe03d50d32U, 0xec020409ee09ee1cU,
  0xec04e81b1debdbe9U, 0xedc1a062e1f0800U, 0x5d5c9f808f2eb25U, 0x181bfffaf312eb21U,
  0x2409150a2dfa1b04U, 0x211fe9d90cf71f1aU, 0xe31624ef0ff0f926U, 0x18171cf6e830f7e7U,
  0xfc43e4edfb1ecaf3U, 0xea30e72cf3e8fa1cU, 0x2ef0bf201cf30013U, 0xaefe50f1df9e200U,
  0x12f4eef1f8f0f8ecU, 0x2c111cee141cfb1dU, 0x1f60fdafc180b13U, 0xec1beb1208d5f515U,
  0x150bd01be014ddf0U, 0x14fe22e11d1906f0U, 0xf7e2caecddf2f301U, 0x22fedaffdb150418U,
  0xce2dfed241a03dfU, 0x17efde1822e511e7U, 0xffe2f211ede820fdU, 0xaed1f11ed0a1804U,
  0xee17be03fddfcafcU, 0x1f03ecdee716dc1bU, 0x1d011eefefef01efU, 0x10e026ef060d2c19U,
  0xfceae5fe25e91be6U, 0xf31e1010308ece3U, 0xeb201b26ef0e1007U, 0x23effddf1406de2aU,
  0x900e00423e9bc0bU, 0x2040114eddbecfeU, 0xebe1e20b0ef9dde3U, 0xeeeafffc13ca0efcU,
  0xffea1317f204f80cU, 0xf3eddfe017e30218U, 0xce22eb15ebf1150bU, 0x1303f31afde90d21U,
  0x9dee7f4142bc31dU, 0xef0cffe7f1f12eeaU, 0x10ccbd15fef8fef9U, 0x14d507f30be117f9U,
  0x1de0ecfadc0a25feU, 0xdf3f5faf9ddff0fU, 0xdf5251105050304U, 0xf20e0615f31ae608U,
  0xdbd6c515d513acebU, 0x8d9f520cec81fd7U, 0x30eacbdd2312fed0U, 0x8e7040713d1ecf1U,
  0xe08d8eefcf81b28U, 0xe629f2d82a1ef3ecU, 0xcf516f6141f2ef8U, 0xd9fe0a04e407eb29U,
  0xfffffe7f00000181U, 0x2127104668ff9a24U, 0x9b37adcc3144531dU, 0xc95a18d6997c81U,
  0xe9a06839ba7f90adU, 0x67b0d6146afb2f28U, 0xa6c0081822409a57U, 0x74c25cdbb58106e6U,
  0x2239143048542a4bU, 0x30ddf4befd7f0e10U, 0x7fbb020b138b62f5U, 0xf9fe200fc623ea9aU,
  0xa1fafc62a0733d1U, 0x15f7482f2a814910U, 0x96a092c0e7e326aeU, 0xea2639ffff0ae25fU,
  0xdf22e88135a9f33aU, 0xcd7f0c28b1f0cc7dU, 0x8be250019f00b3eU, 0xf9a32e1eea77cd81U,
  0xb7eeeaaba9415b30U, 0x44b73743ba01d7ecU, 0x8198123824d397c2U, 0xfb2af493d766109dU,
  0xfd5cc0d0f3ca2c59U, 0x4f6e81d89a0b7a35U, 0x15d221cb9ec8e2ebU, 0x7f641b0c36b0fdc6U,
  0xd1b1d1bce3a8104U, 0x67001c37e7a8ca9cU, 0x15161d66d0810b38U, 0x5381d819ca6fc20aU,
  0x6c7d27f25ff1852U, 0xb621e51baecbc624U, 0xa4be33f5f0ca882cU, 0xa506e97fdb31341aU,
  0xd391439ddb341726U, 0x2f01b7aff6749704U, 0xde38810cdfb7b25dU, 0xee7c7f66cf91d350U,
  0x336938ecb93b57e7U, 0x2eeb853dda06d938U, 0x4930186d813ef515U, 0xd6c25a45dbd08e98U,
  0xd53b17fe7fd6aa2bU, 0x37615d6ede99ac1aU, 0x81879b3d8441eee8U, 0x4242fa321503431dU,
  0x3fccac43c0b131c8U, 0xeade03004a89ed40U, 0xfe2751a2d7fff981U, 0xf13112797fc933c3U,
  0x67291c3b4e617c1aU, 0xc77f50231eaee75bU, 0x38f6126b692635f2U, 0xfe1fc8332281e51bU,
  0xd8b501460e23ffdaU, 0xf210197ff1e501ebU, 0xecf1ef2a247cdf96U, 0x2664c2e2100dfb58U,
  0x729222a991a0811U, 0xb5b7d2ef277f9cf8U, 0xd3aa0218c5bf1113U, 0xc54037e881aa3e22U,
  0x2728d01bd6dee41aU, 0x810b02d11621a6U, 0xd6f3d198ddff46c4U, 0xa811bcc62092c8aU,
  0x1a4d23d6126dd7a8U, 0x12d1087f13eec6e1U, 0xd736c902387732d5U, 0x8814042dd48d2beU,
  0xa27f8df3f33f5e9U, 0xb17f5eddce855328U, 0xcdba35e9c64f3f0bU, 0xda03c97fb14dc3b8U,
  0xe570e9ede523294fU, 0x661b7f72ad060e7cU, 0x492ac5115b153a5aU, 0x53ec6ab4a419f148U,
  0xc6fc1f25c8df10f3U, 0x1dd71ad57fea0c3aU, 0x66255ed63cc43081U, 0x1b15bbab4332c626U,
  0x38fc1439dfd2a335U, 0xe7fb64002822116U, 0xf5a6a0813f25230dU, 0x90a1e420f0e125faU,
  0xc4fa4d0273750a44U, 0x1f7b06c5fafef67fU, 0x20f9d856caf6170aU, 0x2d21f2e722dd111fU,
  0x1a814528c00a07cfU, 0xd813d585fe2e16faU, 0xafed20f15ddfde9U, 0x3e81f0efb7cffa81U,
  0xad3cd9538c5bdb62U, 0x1ccf5bccb6ea485cU, 0xda7fe61e4316213dU, 0x20e7ec091013cfdcU,
  0xf15d49041100321eU, 0xc7cb587f1fc43fd7U, 0xcf9d522ce425fe17U, 0x8fbcb69d85a7f86U,
  0x3c2404cada1be43dU, 0xe4c8185b04fe14U, 0xdf509e6bcef7f40U, 0x398ff24ed6ee0b00U,
  0x28e5b581ed31d549U, 0xa62c9f23a8077f73U, 0x6143987a4f5b362dU, 0xdfd9b9a628dff1b2U,
  0x81564abc26aa8212U, 0xc38611baca641025U, 0xb8e4530577c615d1U, 0x960a2f2100867ff0U,
  0x1fdec56dced8d810U, 0x3d15d5acb57ff6f1U, 0x27eb7d5edfe4c874U, 0x2481e6bb9ddc2aefU,
  0x2fbe934e581387a3U, 0x9ba5e5e3d4e301f8U, 0x3481022edc407fe5U, 0x22c6a48ae2751746U,
  0xf1fea6e4f8ebea1dU, 0xf8d05cfcfde40287U, 0x2240028157d1d3d0U, 0xa48d481404baa588U,
  0x25de781e4ba3842U, 0xcfe3b281f0146b53U, 0x3a25e7f625860435U, 0xdb56a3f335f832c8U,
  0xf0a0bb505afccc7fU, 0x530b92a4d4149d10U, 0x13107f03233030c8U, 0x32cafae8431dda15U,
  0xa3042d09ab81dee5U, 0x51601012a493f85U, 0x9b5d2a7ffad469f5U, 0xf7cceea61e77d72dU,
  0x31f84306213149f3U, 0xbdc32453d916180eU, 0x59c0b344b6486281U, 0xc7b92c490c40ba67U,
  0x1927477f0911a632U, 0xfffffffd00000009U, 0x3U, 0xfffffff6fffffff9U,
  0x200000002U, 0x700000005U, 0xfffffffefffffff6U, 0x4U,
  0xfffffffa00000003U, 0x100000001U, 0xffffffff00000003U, 0xfffffffc00000000U,
  0x2fffffffdU, 0x4fffffffdU, 0x300000005U, 0x2fffffffdU,
  0xfffffffe00000001U, 0xfffffffffffffffcU, 0xfffffffafffffffdU, 0xe00000000U,
  0x200000005U, 0xffffffffU, 0xfffffffaU, 0xfffffff7fffffffdU,
  0xfffffff8fffffffbU, 0x100000002U, 0xfffffffbfffffffcU, 0xfffffffc00000001U,
  0xfffffffefffffffcU, 0xfffffffc00000002U, 0xfffffff6fffffff6U, 0x4fffffffcU,
  0xfffffffbffffffffU, 0x170007652a66c950U, 0xe38cd936c1d90fc7U, 0x7f84c42f1c821eabU,
  0xc5388d18f5e2398eU, 0x32f9c7b6b8d62d0fU, 0xe6dfd80a76adbedbU, 0x7daa0b155ef4c48fU,
  0xcbe1bf9cd13e96ebU, 0x1b042aa9641dc5b9U, 0xe8265c0fb5447331U, 0x9f55553a30e4cd27U,
  0xd169d5ed12f2020aU, 0x81b76ba430bbe494U, 0x2bd8505e0c44d675U, 0x63a36a61e2ffe673U,
  0xb52e280563e59da0U, 0x4df50ebe27209a49U, 0x2766ffa1546567c3U, 0xddf95fd9f90cd1eU,
  0xf5d7a32473fab4ddU, 0xbfeb3f81e4266242U, 0x151cafeb38c2782fU, 0x34a491161b24ba3eU,
  0x56cb069f21554fe5U, 0x644d37a52d0253f7U, 0x485a7e4d5c5625c0U, 0xb520cc752203e5cU,
  0xcd4566c3544b97cfU, 0xa892b65e28a8e789U, 0xd4dbcc221dda128U, 0x641f7fbe0c29f570U,
  0xc78d0d45cf2d7664U, 0xbdf9b91a664d202bU, 0x67abf3e839f31a76U, 0x2c7297c6e7184f97U,
  0x10f139f5416cf463U, 0x2dbdc15a9ae961cdU, 0x42e95dc19fc42bf0U, 0x4ed3123e2b140d7fU,
  0x4e08b7b05e25e8a7U, 0xbb1aba2d1d4551ecU, 0xd70e09261609932bU, 0x26b43ec8d1431fb9U,
  0xa526a02f9f434181U, 0x3bd8c1df24a71b07U, 0x8dd13179039c404fU, 0x434e05d45d1e6f04U,
  0xcedf04dccdbc1211U, 0x293250c19c5445d5U, 0xfa2cbf50deb9b735U, 0xd8dff8e48eb9c5c1U,
  0xa5ffa80766c1b9b0U, 0x170d2ea9a18108e2U, 0x533aaa4f4296e503U, 0xd051acfaa123c05dU,
  0xe1e0b2e50fe95a42U, 0xa08d49f217b06cU, 0x1c8e408f1f004c31U, 0xc4221581dded6d4bU,
  0x3f7456e6b49765aeU, 0xa13b3359646af4b1U, 0xdb5ab0c749270e9bU, 0x47a30ab7fe0f1b1eU,
  0xe6ee9e66e7caadeU, 0x5dcfac7fba690911U, 0x3674df0ef116e6c5U, 0xc299f937f1f735d7U,
  0xcb6afc1a1fafaf03U, 0xa8b2e25d05c7ba6eU, 0x1145b1c001aa2b0cU, 0x436ba5565360ee6cU,
  0x90a88246171b5c2bU, 0x5649b694282bbc5fU, 0xc95fe1efb8afd5dcU, 0xf6b7c264aa34a9b6U,
  0x11d4e67f9fba6520U, 0x557c68a65032c43dU, 0x54b62fc33405e5e5U, 0x51f431f3295f8861U,
  0x4aaf50cee6392623U, 0xc51efb285178f676U, 0x67413894a7e74138U, 0xb38b22dfd400b93fU,
  0xe02904fa0b7d982eU, 0x3f7190487f276ee5U, 0x469e026117bf1e5U, 0x68a3d6cdc21da637U,
  0xb5a46ab170cada67U, 0x5ed546c1c8cde495U, 0x3f04585c06bece4dU, 0xe4295c26d413ced9U,
  0xd216190f60e83202U, 0xc426111b661c5123U, 0xddf04db85cc90142U, 0xfed40243612d6a9eU,
  0x595e5924da7fe052U, 0xd7b8c064349cc2c1U, 0xc681b4d02e690bd6U, 0xb321e231700fa00fU,
  0x8b309519c23d9ff3U, 0xc9c91190f55696e7U, 0x56189c3957e54508U, 0xc5178aaead765826U,
  0x841a8ac1381fd5e8U, 0xd5bcbad1d6c63e44U, 0xbf042f634ea55808U, 0xea57012bd2948b0fU,
  0x101a4317d0bab311U, 0xd0c500970dddf179U, 0xb7c12316dc8114d8U, 0xb3584eed55c10627U,
  0xfde310c65156d829U, 0xe1ca750b37e70eebU, 0x48b4361823c8c2ddU, 0xdbbef7509d5fbd00U,
  0xe1c43ab0c205861eU, 0xd550edd81d1a1fb1U, 0xbd3f8c3be118e89cU, 0x51e83d9e46c2ac81U,
  0x6fb7afc6e8fcd90dU, 0x263012eed0797f2U, 0x9e070f599c5c1ef1U, 0xd53fa2217f3ac72eU,
  0xbd9ca4ed5fa06c14U, 0x1af20ba10f57da1cU, 0xed2b68a2b6b8d832U, 0xfc9b2ca40b03aad8U,
  0x55aecf3dc616aa4bU, 0xbc00000424U, 0xfffffee4000001b8U, 0x40cfffffb9eU,
  0x19000004f1U, 0xfffffed100000249U, 0xfffffe3f0000008bU, 0x3d1000003dfU,
  0xfffffdad000002e3U, 0xd44ebde2017fd004U, 0x5bb4f4a11ff6514bU, 0xedcca32832491000U,
  0x126c2b4be3050721U, 0xf558f6f93601fb13U, 0xdbbaf6c6b7ff3dc9U, 0xa629f03fc4f9c606U,
  0x2f49e1cd50262fcfU, 0x21782200d5cf48cdU, 0xe4efea3da32b3f60U, 0xb7cef4b7580eb5bdU,
  0x8381c0590c1085d8U, 0xa03ab7c62d6ffecaU, 0xe5370868ea05e833U, 0x3718c957327f46d8U,
  0xe229dc382d52c238U, 0x505eb8b21d422bdeU, 0x1f1407b5e2eb9a14U, 0xb2a41f07f3d5dce7U,
  0x860a65f901ad1e6U, 0x1c1da3d3df14edd8U, 0xc54621dcda7fedb7U, 0x36aca260186c8c77U,
  0xf64a05213660e146U, 0xafd7dc8ed7e79bf8U, 0x2d5b9339b4a74581U, 0x39332cc7120467baU,
  0xd42926af1edf1c43U, 0x5a55f4d0968d0543U, 0x1d25c7f2c27992b9U, 0xbbfe83004b82c0f3U,
  0x386a5699f881c261U, 0x4012cf625b8e11cU, 0x62252cb78976443U, 0x782502169219d0baU,
  0x1162da9168aa73a1U, 0x1dd12219251ba9abU, 0x7f15323743eef55aU, 0x43ab1d12bc3ec3cdU,
  0x1f5ac7ea64c92b0dU, 0x5802e05fad13db19U, 0x4d111e46cae4b702U, 0x541d7f28188d760cU,
  0x216557c9c0bdb567U, 0x4d6825a6fbd7ecf0U, 0x27b733e6a96c200cU, 0x9fc9efbaedba5453U,
  0x3451d1c22bf8243bU, 0x3baebcebcd984f3eU, 0x26a2cf4eaad14b37U, 0x183bf7e38150cd35U,
  0xc6b2afbcfe32045aU, 0xe9c9c0a949cfcdb8U, 0xe2d8b8d0d4bca348U, 0x8db0bc96b42474aeU,
  0x697626bb4c7124d8U, 0xde81bfd615ad179bU, 0x1b7d87a5e8e946a0U, 0x2cafc1e9375664c7U,
  0x1a5c23d9e008719U, 0xd0aa7533f3734d4fU, 0xa321fe777ba82848U, 0xe22835b9f1131334U,
  0x459207fa801acbaU, 0xe0f34b6e654874a8U, 0x2df369611c152728U, 0x50bb3f389a60dc9cU,
  0xb7daaf02aee3bc15U, 0xb1f9c5d5df01fee6U, 0x33feb06d917b9b45U, 0x7f2ef0a3996747f7U,
  0xe93ddc0a982af3f7U, 0x5f4c21d0324dc413U, 0x6a4e14e45a0e1edbU, 0x23dc3c498fa5c9aeU,
  0x76ffc00b3bd48133U, 0xe4ff8f1aa12e5452U, 0xbad6929acf8c8ba5U, 0x2981084f8b380bb8U,
  0x11ed9ef7ac3e2da8U, 0xf413a2ea2888c013U, 0x270d3a51fb04ddbbU, 0xd0bb91f12bfdc20eU,
  0xe810d8fda22e8de5U, 0xb7f9a3a4d2df8460U, 0xc06c3f56ef2724U, 0xaa07c781dc08e798U,
  0xb94f2e56c94eca22U, 0xe367cb05e0d5c7bfU, 0x9a131608b811053eU, 0x7fd334dfa4faf0aaU,
  0xf5cca8170bcbcc1aU, 0xabdde5d58e0511aU, 0xc8aca1292665e449U, 0x52cd31b96af8f3f8U,
  0x55f4e406d1e24c2cU, 0x6f6fffffc36U, 0x55fffff681U, 0x2e600000950U,
  0xfffff888fffff6dbU, 0x8e500000f07U, 0x6a8ffffead3U, 0xfd50000062eU,
  0xffffff9800000885U, 0xe0a94e7f0fe7a351U, 0xd3598f252b5a22d2U, 0x1e92327ff438000fU,
  0xbea2eabd495f0954U, 0x513517b0970f22f6U, 0x717f8cbc2606099bU, 0x4324810d4e57d5c3U,
  0x5b40d0ae22efff0aU, 0xf6ea261304edc8f3U, 0x9934503fcc1e8140U, 0x57baf3dea0e2c139U,
  0x7fcb62c85ec09fd4U, 0x394fc73a6cada730U, 0xaef6b6573b7f243aU, 0xb0e343430314fe7fU,
  0x3d4a161741523e35U, 0xe97d1cd6b50749dU, 0x66588f81e0e59d64U, 0x6302f3586ea581b2U,
  0xcf860240fc3ce119U, 0x5f5b64c2359f964fU, 0xe1c88131240fdfbcU, 0x7f927bd32ac69ab7U,
  0xaf70e9d1112fba93U, 0x978ee8d7fcc52e85U, 0x1ea94b1eda952681U, 0x77d2d4ed15db4d4bU,
  0x7a81692e339a8131U, 0x3e0a43c1b39b5308U, 0xeab181ce06be3370U, 0xb0f9c409031c7f63U,
  0x35d2a04dac1164f0U, 0x818d4e472db94b72U, 0xd0e80ef124fece3dU, 0xa7ecfa5a5fe7dbc9U,
  0xa99a4de1043ff081U, 0xc4f2e9fb10dd0cdfU, 0x3dfd2a6081d1e8c8U, 0x9a00240d98604c01U,
  0x6c76b2be7fd8bb65U, 0x3b003ce15403e741U, 0x7f347e1e57a2884aU, 0xfb3781ff62b9d4fcU,
  0x35fbdcd029a10a06U, 0x2fbc0581ef4b07c1U, 0xde42e4b3ea3be216U, 0x9d010dd67fbcb60eU,
  0x5c5a637c00e69141U, 0xbbac4f7f3267d317U, 0x6daa3de65dd1a5e8U, 0x81249cdcf784bc3dU,
  0x8bb6270cc9cddb43U, 0x7cb3f5b7796154aU, 0x4913d481b2282528U, 0xccfdb33b3f5c5d9aU,
  0xa95241495c6a7f6aU, 0xe8b4de1ace810aeeU, 0xf8d7103b0d4ae340U, 0x13a6637f449cb9b0U,
  0x541c7eeef1d3ac49U, 0x4961bb7f01f66847U, 0xdf301edbb91a1cbaU, 0xc4c2fbe3a549e481U,
  0xcd0e65d1ec48a0f9U, 0xaf595018bcaca6ffU, 0xb63f483c60810131U, 0x35f1d6ead636a8a5U,
  0x7f6fb1a264a606d2U, 0x7ef1ad5ed063db4U, 0xc512827f078d0d49U, 0x70fd7f2639e0cf63U,
  0x65bdbb2bc2e88d38U, 0xb458ebd5d4dcb51dU, 0xbe580a48b06c7f8eU, 0x119215ff581fe41U,
  0xd765974d8513e984U, 0x402b4d33c9b3e156U, 0x36f9e30927fe83fU, 0x4df526a1b2e5795U,
  0xae187f5933f8c204U, 0xac1a90b930acc981U, 0xdfee028ef723b32dU, 0x823ba02ef36e6d8U,
  0x81dd43e90f3028bfU, 0xcc1dbfced09c3ccaU, 0xc23dd98d212de67fU, 0x2b29c0ec01d64e2bU,
  0x81e039ec3d16c82fU, 0x3900ae335f8157b8U, 0x3c0ab787a7a84ae8U, 0x816d02c9570716adU,
  0x294ccbe913d7c42cU, 0x22bede811a2cb513U, 0x1c16e0b5ff3b8fd5U, 0xc2ebc6245ebdf581U,
  0x9edfdfe41911d14bU, 0x5c01b46043fd5fd0U, 0xd17f48f04ab43c0cU, 0x158187509547eda9U,
  0x56e0ebd31aea4778U, 0xe28143a76702110dU, 0x5ea3ac9aaefb43dcU, 0xb681c5d5d0e4b79bU,
  0xe36dd3174cd845b9U, 0x2bb9f89a921bac5cU, 0xf1dc3cd2821c6f7fU, 0xe5ac934201e15ac8U,
  0x22ea61e34b81901eU, 0x33fbf989dcf7f48U, 0x3012c2ccc137e7ddU, 0x2a13f1dd1ab37607U,
  0xe1ce2cb41381e9adU, 0xa503c7d7b0c6816eU, 0x1d3dde4ca805a6f8U, 0x2c307f141aacdd62U,
  0xff330677b4b74fd6U, 0xf9c9a9df4cdfa4c1U, 0x3f0b47c38125f52eU, 0x7781ac464d50a799U,
  0x3ff4d1dd0c347c5aU, 0x1c24a6fc34cd6f2dU, 0xbfac500c24b2817cU, 0x1f4961cbd181ac17U,
  0x64c0e0838f262be6U, 0xb5e4d43f81050924U, 0x83e254bb42dee52U, 0x636a361fccd5fc03U,
  0xafd2f00f2c7f1b17U, 0xfffffbcdfffffd23U, 0xfffffee9ffffffc9U, 0x22800000084U,
  0xfffff2e4fffffa0eU, 0xf90000011aU, 0x4e100000041U, 0xfffffa2200000ad9U,
  0xfffffc2800000384U, 0x62ffffffe1aU, 0xfffff90f00000398U, 0x560fffff55aU,
  0xfffffbda00000459U, 0xd49fffffb39U, 0xfffff209fffffc6aU, 0xfffffc590000031fU,
  0x752fffff866U, 0x430fffffe40U, 0xfffffa890000025bU, 0x2660000023aU,
  0xfffff70afffffa43U, 0x32800000f42U, 0xfffffeb10000060dU, 0xfffffff90000036bU,
  0x67a00000688U, 0x16ffffff561U, 0x98c000005f7U, 0x3d70000037aU,
  0x3010000026bU, 0xfffffbbe000007f4U, 0xfffffc73000005ffU, 0x575ffffff2fU,
  0xfffff805fffffe27U, 0x65f433e67542260fU, 0x2dfe20d0e19a9cc1U, 0x51c1af118bd2e7fcU,
  0x8b6ab46a876cd0cbU, 0xbfb39b94c82621d8U, 0xcea2c003bf45267fU, 0x9728f6484413b24cU,
  0xdb552afdceea2deaU, 0x1dece7d5f842f607U, 0x294f94a73f209011U, 0xbbc753a5be083904U,
  0xd7a7ecea1ba2a851U, 0xa962b081e7ed094bU, 0xa0d3e2b2e7a9381dU, 0xcfd4d92a4efe00eeU,
  0xa8ba2440ccf6e2cdU, 0x5362df44d3bd679aU, 0x4bf2bc7f06ec4c92U, 0xaa1543475309940dU,
  0x8c4474573cbf792U, 0xd55c4b640526a5c1U, 0x3ccb0220e0886642U, 0x24bf0ee1d17436baU,
  0xaf5a2d2ebb2dc669U, 0x5d253b352c3b03d6U, 0x4d4172ba27e94166U, 0xb4f4ef0eee2bebc2U,
  0x50224047d42408f6U, 0xa10bf8b2abb41653U, 0x4eb26c1a1b9e01a7U, 0x38224b0d0cf57f7aU,
  0x64c0a67654364068U, 0xd634d8c7d7309756U, 0xd9094fe73ffc9c27U, 0x298f85290a159210U,
  0x81da00e7cc9c3101U, 0xc591ead50e0574fdU, 0x1853810854e17064U, 0x23280af6ab918febU,
  0x18f319ecea0b1bb5U, 0xa410f735c95d27ecU, 0x48120f0c20b113afU, 0xc20fa995efb2dafaU,
  0x1da30257bdcadf62U, 0xcbeed3a8e5c8ac52U, 0x7f513e4524ce4f65U, 0x5752e7e06a58f7cbU,
  0x365ff3480129c909U, 0x46b2a39ff5acc79fU, 0xdc29b581032cdfe9U, 0xe0cda4b91519516eU,
  0x45c0351531a9bec5U, 0xdded3a29c2d260d3U, 0xbe43e11b233a6c33U, 0x4aa6b33b2416c6ceU,
  0xc4aee82b3d8dff7U, 0x6f3eb1e0d8fdb2baU, 0xa8142fb77bac6402U, 0xd234fe203c01c30eU,
  0x1a6740d712c658c9U, 0x38ff520cc88178adU, 0xc79009cc58bd5e15U, 0xea3cceb3e170563dU,
  0xffcad9efce24c73cU, 0xcdc78922457f30afU, 0x33cb0dd19bc7a303U, 0x2bef0fb147b363edU,
  0xb51499dba4aff8b6U, 0x6f6c5f9616b3ccbU, 0xe024b43c3e3d7143U, 0xae51d7e9f3dbbaf0U,
  0xe3f521dfbfbfc3ceU, 0xf881300724b3d1bbU, 0xdcaf61af530fa5eeU, 0xb04a9fb0ac3ce1eaU,
  0x73a40da81cf83f7dU, 0x35edb0ea4438f325U, 0x692c72d6d956f644U, 0xb9f394a062aa908eU,
  0x517329c742048dc2U, 0xa3f93c54bdc037e8U, 0x1342b8991d5dd8a3U, 0xe90de9ccaa43f7baU,
  0x3c8745bac6f2a7e5U, 0x3da2104b21ecb2f9U, 0x2ad5c3aab7b7390eU, 0xa1eecf81c5335a65U,
  0xa3420a3b3ee8c9f6U, 0xd2c2e9e9c49d42a3U, 0x8148b7e45496aeccU, 0xb91d41e821b1cb94U,
  0x66a1bf6ec9fbdc0U, 0x9269b2d7ba2d06afU, 0x32dbbbfa454aaa5dU, 0x42dc40d1424540dbU,
  0xb53512f4d7115bf0U, 0x27b11471331921f2U, 0xe0aff6fca35791bbU, 0x2c05e07f46ddef98U,
  0xa1bf3136a8151957U, 0x3633b7de675f3839U, 0x5e113a01f20a2a0dU, 0xd942fc4a0a20e751U,
  0x4aad1c9ed48d32aU, 0xa9beb2d753f727bfU, 0x6def33b4b2521c98U, 0x7f4a7be8dcde15f2U,
  0x8d36697672656c25U, 0xf04b83603bd2f52cU, 0x481d665230cc56d4U, 0xbe23565aa65b9c59U,
  0x37d7022952c7e11cU, 0x2b7251d55042a571U, 0x23ee7313e249d4a0U, 0xe00819f53a29a35bU,
  0x321bcf539516b16dU, 0xef684f701ea9552eU, 0xc1dccb9eb5faadbeU, 0x81193c7791541255U,
  0xdf6363a5f2d94343U, 0x362804963d815777U, 0x455badb1625c2d16U, 0xcd36b198f3ded59cU,
  0xed3c0739bda227dfU, 0x31d103cc55f45c30U, 0xc55ae1e104d1b88dU, 0x946b55f42ab3304cU,
  0xc0d054242b2c4e01U, 0xb73fd160ce8ee319U, 0x1045cc492aaa10caU, 0x676366cf65a1c02dU,
  0xe503f2cea4f9deefU, 0x55520a3aac435edeU, 0xec57db0e2911acdaU, 0xa1d4280bf0dacb1aU,
  0xdd0c247f22ab3e6bU, 0x568119d95629544aU, 0xf5a4f9dd1f46dda1U, 0x25640c8954b142faU,
  0x4ad64fa72e1d27c0U, 0x5b021b6fddeafa48U, 0xddb5e4fccf459269U, 0x13d745e9a04f64f5U,
  0xc058efcf11dc5459U, 0x3103502826a5da1fU, 0x62f9f23d0e58b460U, 0xb34a48515b9349b8U,
  0x31b1d0c27437aee8U, 0xb5fc4628eea94a63U, 0x12ecc8f3ecd226b3U, 0x4f53751da6eca97fU,
  0xbd34cfa6211d734eU, 0xf63acf2beb53bccdU, 0x36c5860ee96b411eU, 0xd89e3360e7b834a7U,
  0xef10db7fd59d096eU, 0xd4ca6d2244302b34U, 0x76e73359ae1f2304U, 0x33dfba5c8e5729d9U,
  0xaeb0e34d301a790cU, 0xde59fb4cc2fa181dU, 0x5298e59801d99206U, 0xbfed51b1f96bd546U,
  0xa40cced0a3401b66U, 0xe154188d4e640ef4U, 0xd3e95574f02f147fU, 0xadc742c8549c1412U,
  0xf1cf63a67867ca40U, 0xcd29255416aec738U, 0x3a941b093ef6f60aU, 0xf22ccc8fd315319fU,
  0x37f3ef5e2a0cacc5U, 0x9bd42528334bcc35U, 0xf166062046ab5932U, 0xeb421769b3baed4eU,
  0x811914a0e1cfc96dU, 0x45f9d9bea8e4a89fU, 0x119803616f1bb1b6U, 0x2e1e58f3242adef6U,
  0x9d06b748c8c81497U, 0xa6b5f9210ce7a4e1U, 0xa04157b4abe5d323U, 0x5f0f3781b66603c7U,
  0x2ffbc706dae9bb13U, 0xcd8c3132baee08e2U, 0x865f8c12713d20cU, 0xf0bfe6e2ce046fd1U,
  0x6e0f50faf15009d8U, 0x1da9443dca78cfd0U, 0xc6cec693f7eb906U, 0x2b738117a0d29016U,
  0x2f194b63fae3a9d1U, 0xb9d9b45b4eaef440U, 0xb9ba24ec1208dac6U, 0x571eb49229d69cbfU,
  0xea46c05ac5f01a48U, 0x65ef172f48cca28dU, 0xcca099ee25e12e57U, 0x7f39c5d8d2c71bd4U,
  0x925722511da4b40fU, 0x3754141a7ffd413dU, 0x191a76f2bdd9e0f8U, 0x4c69d4cc4c6c24a1U,
  0x9c292772a7616043U, 0x5e387655d63dfc09U, 0x66c00a60cb1ad3efU, 0xf635b46c27b54c3bU,
  0x428113b0eaa0e134U, 0x64fd2f40275d25faU, 0x7f17ef11e9be960aU, 0xedf83842d499d386U,
  0x3803576dec073131U, 0x40f595b9e85c3d5dU, 0x3efa4b6c921c8455U, 0x1d2e4dafea39e2faU,
  0x9838e942aee6aa45U, 0x561f1d11ec9cad49U, 0xac5fcb593ec89ba4U, 0x6aaaabea542abf03U,
  0x11a91a5eddf2f7e2U, 0x129da6811fe2c608U, 0x4452caf3d2e34135U, 0xb2d42b02d3d8573dU,
  0x45c8c94eaed4149aU, 0xf7a49f9809e2f603U, 0xfc6d0fd3a4b3c50U, 0xc5e89618f6294e54U,
  0x3b31219c0e3ef4c6U, 0x48d03c06e03703a5U, 0x524e4a4843cd44f6U, 0x97b9812da8b4b1bfU,
  0xcb3713ddd535923cU, 0x99d1f51c65dc616cU, 0x8c9956aef013b5fdU, 0x516dfbae5d2ad5cdU,
  0xc5a3b3296ba21e8bU, 0x5264a12e492fc231U, 0x232e9d34cbdf3c0fU, 0x9adf06dcd40aeb9fU,
  0x6c3993bc9181927cU, 0x542358de421b390eU, 0x9241ef5d08dfd538U, 0xbaea1c274aff08f1U,
  0x5bf3de065d16ccacU, 0xc00e505de90b37d0U, 0x1517eb42afca20b5U, 0x38812befb3e72c49U,
  0x280554b337b3d4f9U, 0x8fb06426cce33ccbU, 0x816cc11ab7ec8a9aU, 0xe3d054abf85b18feU,
  0xad18a9012fc70bf0U, 0x259e60b4565597b5U, 0xa24fc9d9bbfba327U, 0x76d50ceacbd1f5cbU,
  0x915bd16310be6de6U, 0x65b45f59aabaa52cU, 0x68f327d58be7750fU, 0x2a126fe44ddc380bU,
  0xd1459dccff27a7bdU, 0xcc029ecdef38abfaU, 0x1f24f5a40c5db226U, 0x54b0482de97f05b0U,
  0x267d44e0621da613U, 0xa4bce90f993d4f8fU, 0xb7a38334144bba6dU, 0xeaf27c24b4ad47c6U,
  0x812d16dabfdd4374U, 0x5444463396ce22d7U, 0x32292eb99cdacb5fU, 0x6d485a5444ff25e5U,
  0x421eb656548d69efU, 0xaeec219d02a0fdfdU, 0xe7083e7f5827d9ffU, 0xf6c0c6f9dff6faafU,
  0x6eac6ff2f1edc34U, 0xb724fa37d8b6be48U, 0xca9923dd0a011cc8U, 0x34473a3950da06b7U,
  0x24bdb84918a12bbcU, 0x6a0afa12f0d91f99U, 0x10ed142f3dd6acd2U, 0x702d4e157fee476eU,
  0x21d54e0e46d728acU, 0xf152a0d1c623d0f7U, 0x2d00fd16fab8dfc8U, 0x47c7ccb90d6b06f5U,
  0x243a4c7c93ef5878U, 0x8c8ff0a2f7f3015aU, 0x2c400030a9ccda2U, 0x116f374848d2cca0U,
  0xbb9f34a612161fe0U, 0xef6e5ca389082566U, 0x474ba17f61be5c97U, 0x3ee88f163fde9eb5U,
  0x3f57c552052b9500U, 0xde69ca4f4281f7eaU, 0xf9a53b5329690e44U, 0x9ff94e9979fd03fdU,
  0x1ebcaa03613fca9U, 0x23090e554c0e4825U, 0x48c6305b575d0692U, 0xa4dd65f765bafe61U,
  0x1c4c3693bc5f7bcU, 0xb2c72539c3c31638U, 0x302cb98c2cc2902U, 0xe7ae25f036e23ac8U,
  0xf39bad55040e2ad7U, 0xd6982730584e14adU, 0x74b34a92d9700a1dU, 0xf224d8812b9d1912U,
  0xba674f06fdd22ef4U, 0x23c10d1238d9b266U, 0x814f353f97040cddU, 0xed010d045ae85710U,
  0xe7a5b7b7d021f607U, 0xcab50ae20cca164bU, 0x4e520f705bd11302U, 0xd3d0171e5f4ab83dU,
  0xc14b0f4cd5d39b35U, 0x71eafd0d5d13372U, 0xc7b3d0cfbef008eaU, 0xffa52a0fe9f216b2U,
  0xa6a7d2dfb1ee27efU, 0xd0db30df3c364758U, 0xb3c813a0ad243a4U, 0x4611f795cbbce398U,
  0xa7f8c9f742f7a52cU, 0xa026250e574fd9d7U, 0x2ccfb7e022f7f336U, 0x3b4c48fc140c303bU,
  0xc2c3e9c1f0d345e2U, 0xbda9e6bd81023aacU, 0x1ac3c2e1d8df1bd6U, 0xc79eec39ba9dfd45U,
  0xfde5e228fffdc256U, 0xacc131c50363bed4U, 0xdba07f54d4fc43U, 0xc0f8fc2607f4de60U,
  0x4e05d35718581eddU, 0xde0a34b051a1d2b0U, 0x2b56ed53a1f14832U, 0x71f6774d7367fe05U,
  0xaf45b448c70e03adU, 0x2e4a3cf32a4923b9U, 0x7210fff9a2a0d9f5U, 0xba5ec6b0b6b0558cU,
  0x4c3beeb451732218U, 0x81b0d9dfbc45a993U, 0x9aa9b405a42b5572U, 0x322f86d8df392128U,
  0x4402124be3c6c7a1U, 0x2570c4b35a68eceU, 0xf8d0410d814ced04U, 0xc92c16a8e2d55ca0U,
  0x40ef825e99ebc0e9U, 0xc3fe1cc143593e55U, 0x4339c848a45436f5U, 0x2258d93b5be6ddf4U,
  0x4ce5c9dc64665aadU, 0xd544c318a672f740U, 0x1c1114aceba6d6fcU, 0xe240a781d7276ff4U,
  0xd160b79faa64d2b5U, 0xa1c5f911deda3d03U, 0xdf586f3bee0d07d7U, 0x4d1f0605f2a7db97U,
  0xaf59a99a3c5ddedcU, 0xe4ab3d54c72f464dU, 0xd8b3b2abef46c598U, 0xa221f70481de0915U,
  0xc31adee72ebac02dU, 0xbcc1d7d33244552cU, 0xd8f8d9092625e8f3U, 0x270d0f2df2cd1effU,
  0x8c0aad164bf1b5f7U, 0x18fb6318ff68390aU, 0x912b9800e4255fd1U, 0x15bb8fb8ac4e1966U,
  0x1aa041f506cd8122U, 0xc895b4d11666039bU, 0xc2059bbf6c4d3ab9U, 0x51a406176a6849cbU,
  0x4c8bbc24fbd7ec7eU, 0x7a133a8624e6ef4U, 0xedc1261d4d92efc4U, 0xd8f9da01aa60b525U,
  0xf076aeccd403e521U, 0x5606049d8ca9a5b5U, 0xf0dda57f6aff87fbU, 0xb297a5482bcfe602U,
  0xa2bb2a23630c2d4bU, 0xb0905fc74032af6fU, 0x233001fd0917aca7U, 0x134dbc340a543bfU,
  0x4dcd673a72fa3eeeU, 0x64f74b32cf8aea09U, 0x2329a0361425e6U, 0x181de19329313cfU,
  0xa8b5e35b0fe7a6b8U, 0xbfec4bc5ee17472dU, 0xc59df5b3b73d380dU, 0x8e8d64f8138ce33U,
  0x3631b2f50c534ca6U, 0xddc9cbdbfcdad0dbU, 0x58a864d1a556e704U, 0xb7db4a3dd2f7f7b3U,
  0x385a45cc58d024d8U, 0xdcb90b91b281f2e3U, 0x960bd8e605cc49c2U, 0x6925513349549891U,
  0x40c54bd211c5ffb5U, 0x364d101bc8bee9c3U, 0x9fbad272aabdc4fbU, 0x2dc135a6a1efcfcaU,
  0x8b4a33e6217c2d5U, 0x482bcc3f35b6d054U, 0xbf4142e519e4e801U, 0x9f6b03f10a61faacU,
  0xc06a3e0c67f10350U, 0x3cdcfbbbf8a21e81U, 0xf507e0b7ad09ad6dU, 0x2996a4bae44b106cU,
  0xe7507a0f5d322b01U, 0xf29f427342028240U, 0x3501813b63d3f7e1U, 0x53aecd009b3e7296U,
  0xa967b93f4f4528aaU, 0x2372214b3431c4a9U, 0x3510ab9c0b17a324U, 0x3b41a94296283be2U,
  0xca34188bc89b3225U, 0x4d45796d336e7b5fU, 0x15201f31745bbe62U, 0xb71ca569faf8ab3eU,
  0x6102ef44cfc874d9U, 0xe479aace33f3ad23U, 0x162c1b9415a18f38U, 0x189e7ff2e43a1c36U,
  0xe958f06eeab928d8U, 0xba4f624554b5d1bfU, 0x4946c961f6c5cffdU, 0xe3de6a7f7d49f8d5U,
  0x461d3c76182a9d72U, 0x2d1bbe0539a007a1U, 0x391d8de2b64a176aU, 0x991c4abb6ab34ef4U,
  0x26ac01cd11135835U, 0xe6e2694d63337637U, 0x163fec5468c53ec1U, 0x15fb2060475ff526U,
  0xbeeae15f2bf41811U, 0xc4c55153d47291feU, 0xd2e1e9e223f48118U, 0xaccdb24e2e4e1c59U,
  0xc024120233360b74U, 0xa797d245fd11060cU, 0x2fadb4fcefea1cd1U, 0x220214ee462f56d6U,
  0xb0003881e004f709U, 0x52e03330c71919a4U, 0xaec9a62907c388ceU, 0xfda3f5f3f3fd26c5U,
  0x1298062fb7f9acddU, 0xb9124e3f4b32f276U, 0xa54a2a3a0e6d6a39U, 0x52ede800ebee1b0dU,
  0x76281890b77c2f28U, 0xd8b2f3a249e414a7U, 0xb52754ca48bfc036U, 0x5682241f0f7df3ecU,
  0x53243bda9f987f6eU, 0x9c07547546eb39d3U, 0x49a8f70213119c17U, 0x6b59c9fc169a4f3fU,
  0xba1db64a81a9b040U, 0x22c59b5c5630c4c3U, 0x17073ce9282c19bbU, 0xaf01920117fd9136U,
  0x3f03edbd482bb05bU, 0xbf44c3380d441e49U, 0xbd63d220af53a73bU, 0x38c412189be2e3d2U,
  0xee551ff8ae2929ccU, 0x159e07d5aaca10bcU, 0xc3ddfc91df07f2c3U, 0xba2ca45df681431fU,
  0xf72d20bfc1cb6afU, 0xef61fd4f4d76193fU, 0x7fc2e8abca40c0b5U, 0x49bdd254ca191819U,
  0xf9c3012ae5013358U, 0x3c22114eaf4eaebU, 0x33681021c6c51befU, 0x1610f06f0af4b1d2U,
  0x26a3f4e34fe44fabU, 0x6eb24e3fe1074f90U, 0x319a991ade0ce53cU, 0x1e333e73d181ddd6U,
  0x2d564866cd3294b1U, 0xa859ab04c2d6150cU, 0x96ef0bd247015a0dU, 0x48af12b20853e720U,
  0xec6534aa44f5009U, 0x238f4d9f4ba99defU, 0x5581aace3821d127U, 0x6fd87e9ac1f68d24U,
  0xa84554c09266c52cU, 0xa5013914ef2acfU, 0xbf06506fc5948360U, 0xc529d025aff44e1eU,
  0xff32ac1c042147b8U, 0x60000000cU, 0xfffffff2fffffff6U, 0xffffffdffffffff3U,
  0xfffffff4U, 0xffffffc5ffffffe4U, 0xffffffe0ffffffb6U, 0xffffffcbffffffe7U,
  0xffffffda00000004U, 0x3100000015U, 0xffffffcdffffffe5U, 0x2cfffffff8U,
  0xffffffe6fffffffdU, 0x1cfffffff3U, 0xffffffff00000001U, 0xffffffec00000019U,
  0x4fffffffbU, 0xffffffebffffffe0U, 0xffffffcd00000000U, 0xffffffeb0000000bU,
  0xffffffff8U, 0xe00000025U, 0xe00000022U, 0xffffffd4ffffffd0U,
  0xffffffecffffffc1U, 0xffffffe9ffffffe5U, 0xffffffebffffffd6U, 0x2500000003U,
  0xffffffdbffffffe0U, 0x28ffffffcfU, 0xffffffddffffffd5U, 0xffffffd800000027U,
  0xffffffbafffffffbU, 0x8497f47d25ae0b11U, 0x699f05d78ac63628U, 0xc71f0d7fde2b4422U,
  0xdba6fd47f75d04e0U, 0x10509d61389e46daU, 0x665c1247630d1c09U, 0xcd9e2d0404f10516U,
  0xd498eb8ddf6068d1U, 0x85d9752ed0f557ccU, 0x26a65ecbac930ad7U, 0xd981c5fb5c04e5dfU,
  0x252f02dd44dcacf8U, 0x9e603f703693db9dU, 0x96ce031eaf9cd5fcU, 0xf3178c0084521443U,
  0x5c9b4a673bbefd13U, 0x19d4f397cb2a2681U, 0xd2f4a2513015123fU, 0xd8ad303a8b0645fU,
  0x33da39f5d34a714dU, 0xdeb36be73deb9208U, 0x21d38e17bad9f9ebU, 0x9f2eb7a4ecad48f0U,
  0xfae75d58f7a2ae5aU, 0xa0bad9ded4d4a005U, 0xfc21812e84aa4b26U, 0x88b18b1fb7960ea3U,
  0xea6c3ed3cc38d51fU, 0xfa45d8fe61eda8fdU, 0xa48485d9af1a330U, 0xb9c429a31d8ff12aU,
  0xc43046e61c07b4e0U, 0xea81ffd3ae0931c1U, 0xe158dfb0b08c1e82U, 0x9cedbfa1576074d3U,
  0x93cc901bd7c8daf6U, 0x645c7343fef4d23cU, 0x12972667910abe8cU, 0x45180a9976c6c512U,
  0xee5156fda0233e06U, 0xf2f7bbba42b19aebU, 0xa91543fce70e9360U, 0x59753ed94c7f6a2cU,
  0x515bfb7b1ead545dU, 0x9b49ab1df4263b68U, 0x93b2aa21ecb304baU, 0x75fec8b5ded1b69U,
  0xff2cf32532db4924U, 0x12eb1663b36ad763U, 0x3d7f07130373c692U, 0x30bfc411f5d4c6c8U,
  0xac29980807eec705U, 0x8a6527e5f35862b1U, 0xd695204dd90004b0U, 0xc49d3c0d985740ceU,
  0x1132b847bc4f2626U, 0x7f68cdb84de11454U, 0x3217fd5371cbf3c9U, 0x5ebeae4dc56def18U,
  0x3e8b4f70d34d92eU, 0x40c923b273be82bU, 0x42e352f8944ab039U, 0xfa44d9c341470322U,
  0xae51506774264140U, 0x385250f5e89ad603U, 0xd970378b1292c041U, 0xe3eef4f7feb2d587U,
  0xe20bcb2b12bc1125U, 0xaa9f01b61fac4bf3U, 0xeba66ecb88599858U, 0xa1c0f608d0fee857U,
  0xaf3281e6c358d8dcU, 0x3c24f6e79290e5fdU, 0x810ff9370fe40756U, 0xc456e1ca9bbf04adU,
  0x69ef6fda506282cU, 0x6d67bec947f8c6daU, 0xa3d8af855be05e54U, 0xa830c1ce16fa5bd4U,
  0x1abd5f39a5b77a9bU, 0xd4657fd4ee0f72b0U, 0x97110d51d7032ec3U, 0xc75fab0c3938ad88U,
  0x65b649ce6e10dae3U, 0xe16356bbf6630174U, 0xc0623ff1f10761feU, 0x15a6b919281f1535U,
  0xe82b11491919fdb7U, 0x1aecddbf09e33ea9U, 0x57b935ec38ad4110U, 0xc87ae6cfcb3fb024U,
  0xa6cae0181ff7d826U, 0xa1021ac57f194cd8U, 0xf6072bb4323a2a3fU, 0x33c249c412d2092bU,
  0xa81be96ced92088eU, 0xd7a6722f91f4f29cU, 0xefa51e81f794f92fU, 0x96082e08473aa8c2U,
  0xfa445ea22c052f43U, 0x39aee764f74830bdU, 0xa718c966261430f1U, 0x1908949dbb56e6d9U,
  0x232c3abcaff7fabdU, 0x60f1a80404cae3caU, 0x2d51d96ccf23f9d1U, 0x93130ba4af315d28U,
  0xd34b37337f2f192aU, 0xbc0527a7c8f1aa5fU, 0xdb00364a4a23b696U, 0xe54102559990fddU,
  0x11f8509e38c2b222U, 0x5f93a324fc7fbc20U, 0x2adff5177e182ae9U, 0xb449bc9592fe3d7bU,
  0x2da2102c1781b1fcU, 0x57549b24c73766bdU, 0x5b3c1f1daf6f62ddU, 0xae2b7825332a0be7U,
  0x665d3f4d13e820d8U, 0x265f4743c0db7221U, 0x41e9d2de0f33b453U, 0x7b441ea32cb9d6ebU,
  0x176f7f3d44a1c116U, 0x72c5675c3bb432e0U, 0x4ed5c40dc139c24aU, 0xae6e4439f7cd2f28U,
  0xbc0bb325ea547043U, 0xddffffffd2bU, 0x16e60000083aU, 0xfffff68e00001076U,
  0xffffec81ffffff69U, 0x104b00000f4cU, 0x860fffff991U, 0xfffffc0700000ec9U,
  0xffffe6e9fffff4f1U, 0x5163a139f322008cU, 0x11fa8d12b5bf2f4U, 0x7768c4eff94fdc1dU,
  0x9a5436982e13a3b9U, 0xa43e4807cbeb0599U, 0x6bfa5b275a017f61U, 0xb2ebf81eea2c52d3U,
  0xaac513e7caf07ff5U, 0xed3ada3b63bcf6efU, 0x4905c2b41ea22c15U, 0x1d1e2e413e54b7bcU,
  0x2d2fc501c822661bU, 0x9a688f72e65a15d5U, 0xff256e818c413da3U, 0x3c8e6b4932b5c745U,
  0xd6e64067f01d2f44U, 0x79d5584e493ea31dU, 0x5da0511ffff9deeaU, 0x7ffd06aaa4b0375bU,
  0x4fd9f6f88b1a3d37U, 0x701e64f5dc63ed02U, 0xe3dfcafc1011a5a9U, 0xd4a472d4551f045bU,
  0xca0e3bc30028dcefU, 0x4c50b21ef59503c0U, 0x3f0011d18ed16695U, 0x12d8a35433e96d2aU,
  0xe694fead2e85dd39U, 0xd3bf4a811ff23524U, 0xf1e49fc5f9f4795dU, 0xb3cffc4900d49a95U,
  0x4be492b365045df2U, 0x81e15ed1fb0dbf30U, 0xf755a84fc0cff5a6U, 0x82e79e7e9383b647U,
  0xbc4870302bb7aa35U, 0xa9e2ad980fab19c9U, 0x4830c14130063ffcU, 0x1920e209c2beac10U,
  0x35f69f0dc2617fc8U, 0x2f33b7f39436e3dcU, 0x8bf59f3ee0c7564bU, 0x8b1fa384645458e8U,
  0x379b13403d8e454fU, 0x96ffa722f6212a2aU, 0xbcb73594c3815640U, 0x378d62980b9cfca1U,
  0x135365a23d68fa1eU, 0xcada5100dcb63ae0U, 0xc7e9054a811f4d13U, 0xd8c80ad0e8cde62dU,
  0xe403170785fedbddU, 0xf82e0e04b4d0db1aU, 0xc00de0d3aea70bd9U, 0x592ab1dade087ffdU,
  0x2a21abc49ed92ef5U, 0xa590d15225ed02beU, 0xb4b13dc9a3e8edbdU, 0xcf232bf96f11e426U,
  0x38f52cce18003145U, 0xf49de2f93d680512U, 0x2804571cc0c27081U, 0xf94f0f2b5f74ef1U,
  0x5bc92776d12f568aU, 0xaaab8fae5dba452U, 0x6ff2c85e66dede5dU, 0x6bd4029df2c30cf6U,
  0x6f5e64afb9243dc7U, 0xcfa1af7fb145fcdaU, 0xad175bb5bd79ea28U, 0x508003c59a27fecU,
  0x63d43cfc401eca6cU, 0x1d0471a642c381aeU, 0x3406da445a97bdd0U, 0x4c5b341c38ff0847U,
  0x53345ff03062099fU, 0x1e622c5af20cd5d5U, 0x3364b93f01627decU, 0x1e57ab23351ddd94U,
  0x2fa922a96ad0e079U, 0x814e30c2385d13c9U, 0xbeba99fa43d37ddcU, 0x1f0c246b9f42eb46U,
  0xee9a27c93f47e00bU, 0xefc93c81af353bedU, 0xc76f576cd439a846U, 0xbe33bc82c7034d42U,
  0x915e10e3b488430cU, 0xf3d358582684ec1cU, 0x96a073f739f4a3e6U, 0x5385cf60dc103d81U,
  0xc3ac1cb09cae9ce0U, 0x947a5cccbce9e35U, 0xbe48a3432a62f6ffU, 0x8fbd605315d3dacaU,
  0xd3e94d4c1b1becc6U, 0xfffffaa9fffff691U, 0xfffffd2fffffec63U, 0x108b0000097cU,
  0x68c00000b55U, 0x8bc00001596U, 0xfffff89efffffb78U, 0xfffffbb2ffffe74dU,
  0xe8c0000070fU, 0xc54d1100667f11b2U, 0xaff94bb94cf7a7f3U, 0xcdbfc083370cbe0dU,
  0x4954ba447386bc81U, 0x848118b6dce9784fU, 0xff6cfeaf225d6257U, 0x2197f5e651ef2b97U,
  0x5b9a7ef3e2abc181U, 0x81b4a6e829a12a4cU, 0xc3c8e2d1ec44455fU, 0x43e1c8983a293b93U,
  0xe640cf81a12304a8U, 0x9ba2973588f1bc2fU, 0xfb0af064f8e681c5U, 0xd6a9ecc8691425e8U,
  0x8f527f3b5edc49ecU, 0xd2d21a0f19607fcbU, 0xa84df4f3b15f2fc9U, 0xe48b1efa1cc70ff7U,
  0x511fa124f3812dd7U, 0xa7ff42e32475b3cU, 0xb0c22257e6f2d717U, 0x27f0b93fbf208df1U,
  0x9654590c743d3c81U, 0xc5b1ef0c113ada1bU, 0x1843fe33c2368132U, 0xebdf383b16cef37fU,
  0x1b3ba0b2abf6c8e0U, 0x23bfba8153cde2ccU, 0x102e9f608f5685d1U, 0xdd2b5f8e6347c1a2U,
  0x4ba2ea6b7f658a09U, 0x96c330e54ec617fU, 0xf865c703b5186a43U, 0x69695dced1832095U,
  0x8c414de17fcf333cU, 0xeb7ff6cfdccf51bbU, 0xe519f040d71c2c28U, 0xeea85127aa699b13U,
  0xafb6fc657181533cU, 0x4fbbf07fecb21ad5U, 0xb8c70f8da8f97152U, 0xf0e32d47b1c5d71dU,
  0xdeb0c5081c537ff6U, 0x193f1dfb49c76a48U, 0x5fd3926afb81fd26U, 0xc6981cdee232fe7U,
  0xfbb9d500c8471c27U, 0x26751e9d3c2df86U, 0x148100fd4cd557adU, 0xbd200606fb5728bdU,
  0x882db58138bc0591U, 0x4581cf3a602c9d91U, 0x3d4071bc076e0dfbU, 0x3cfe2bee48e750d4U,
  0xcda27f0e988fe2c9U, 0xd41e8b664420ca5cU, 0x46934be881536d23U, 0x64cf19a3b12c72bbU,
  0x4dbe4360f44d7ff1U, 0xc0dcaeeaa5dacb81U, 0x4266af1d96403767U, 0xdaf4026700e40081U,
  0xacdd0acb817fc42aU, 0x7ffbd459f9c8bfeeU, 0xd5cdcaf10b0e08b0U, 0x2a3495e8a14b658fU,
  0x68ccd8b76181233aU, 0x3c8cd617b8e8af2aU, 0xb9329a3d222c8c81U, 0x1e62c37fbbc511a3U,
  0x5627a40713960581U, 0x1177e95081d5a7f6U, 0xc0cb22b609dbc2f0U, 0x4521990421262cdU,
  0x14f0b5f081165cc2U, 0xf3b332bdf781fdf3U, 0xdc09240ee7e01f51U, 0x3c36f31e65b1c5faU,
  0x3fce3c5df2ca67fU, 0x97d57fda29fce61bU, 0x4f2b202d4fc192d6U, 0x8185c39d08fc1f85U,
  0x5fb91afe25a0cb96U, 0x4081bed43aef1b8cU, 0x8ec0492d58df5d23U, 0x56dbed7f161723a2U,
  0xf0e5ff3419b3602aU, 0xbb981548850b355U, 0xd41b17c01545d62dU, 0x57267a76655e4cc2U,
  0xdaf1267f6d2778d7U, 0xde4071fe26f205c8U, 0x6aa62016f2e34e7fU, 0x56e96d1f83ad02aeU,
  0x14babba2d30f137fU, 0x69c7e67fa8b669f7U, 0x98619652f4bf0cc9U, 0x4bd1c190101ce61dU,
  0x816a1430c5f753ceU, 0xcbfc42fe535061f0U, 0xac856b8e8102e98cU, 0x1400be7f1be42fe7U,
  0xfdece20dfce36e18U, 0xe21144b21f572264U, 0x4877f6198fcbb36U, 0xbc6e0af0237f87d8U,
  0xb0f74089b4f5af62U, 0xf84a6c87d71740a2U, 0xc0e415be667fabd6U, 0x9afaabff1d1b67a0U,
  0x38258196d6a70087U, 0x110d7cca38c82b71U, 0x7fe5d5fd3ae58834U, 0x81b35ba0c5ca9d98U,
  0x1352a4d21c17439fU, 0xe37f0bca53ff5f3dU, 0x4548f8111ddfc5c9U, 0x833ccfdf33015a0bU,
  0x25d7bfbbf888819aU, 0xa2a2dbfde34ef720U, 0x7fefdb6be99d2729U, 0xa55fa7b3b6cdd20cU,
  0xb94e7f261ba3e5b5U, 0x1be61504e2e88146U, 0x4fdad29dfa31d4bbU, 0x6873201c845381deU,
  0xddaeabf38a244168U, 0xc25fffffdd8U, 0x832fffffc45U, 0xb1600000575U,
  0xfffffb2700000fa8U, 0x740fffffcd1U, 0x1ffffff474U, 0x32c000004c1U,
  0xfffff9e200000d3aU, 0xfffff8eeffffedc2U, 0xfffffef0fffffd94U, 0xfffffd9c00000207U,
  0xd9fffff7b8U, 0xadd00000286U, 0x2f8fffffa0bU, 0xfffff5e1fffff686U,
  0x5db00000835U, 0x15f0000034eU, 0x39700000d5aU, 0xffffffe000000794U,
  0xfffffeb2000004b5U, 0x14250000009cU, 0xfffff91f000001d1U, 0xffffe43400000295U,
  0x35afffff648U, 0x3c10000015dU, 0xfffffa280000059aU, 0x5a9fffffc1cU,
  0xd42000000f4U, 0xfd5fffff8fbU, 0xec8fffff748U, 0xa2700000184U,
  0xfffffe670000071dU, 0xbbe152a4ccde0abU, 0x17ed48359ab1843fU, 0xdc0f1e3963b245d6U,
  0x131b13b5daca9b0cU, 0x8dc2bc9bd326ed38U, 0xc51d2b44a4ea0b92U, 0x15f24a197f6104dcU,
  0x3d395227f343d348U, 0x16ab9b2ef6011d83U, 0xbba144cafb0d1ae3U, 0x588c4ee495d1fdc2U,
  0xa51b150bd3bddb2dU, 0x1950318153e5edabU, 0x74c5d54b4c02f82bU, 0x46bbc6d49dd01c9aU,
  0x91c3d48ee3380abcU, 0x2ed92322cdeffa8dU, 0x32213a5845f01cb7U, 0xa68d411e3950f9cfU,
  0x1b67ce0330ea3e81U, 0xa60ebc25cd475fcaU, 0xc5eef04ac307a2fcU, 0x6a3e0e140e41cb2eU,
  0xbc252c2a375fb41fU, 0xbb07fb43c85008cdU, 0xb3ba9eae4228e9a5U, 0xeefaa88e58f4d94dU,
  0xa3b88fa01e0e210cU, 0xf2d6241946bfb1baU, 0x20c49cbffae934e7U, 0xdb38b111e7242146U,
  0xe9ebde82ad1e81c8U, 0x608a50f54fe808bbU, 0xa1735c686b15783eU, 0x7f06138df77c1120U,
  0x1c2738d46eb9bca8U, 0x4bf3a75eb36031e1U, 0x8412349a6fc63fdU, 0xcab3111502937263U,
  0xb56e10f5bf6874dU, 0x2335baa2205381a3U, 0xa8a7f29efc51c43cU, 0x1b9c45302f55fd7U,
  0x160b5b8d4f41dc28U, 0xbd1e5637f85f1b2bU, 0x103fb13dcefc31dbU, 0xe5d9cee2342028b2U,
  0x4cddf318b6f57bdaU, 0xd70bd73e3cd3add2U, 0x5c30d21d4d0333feU, 0xe0f291d4274430c5U,
  0x1c0fd8de642743c3U, 0xbb4b44f56153d13fU, 0xd331ea024eeffff1U, 0xee161ea2170626cdU,
  0x39a511fd47f32c81U, 0x6738f1394acba8ccU, 0x1ac3c4815df91920U, 0xb1284e31a547bf37U,
  0xd1a0ff2e112bb69aU, 0xa5f84819b82c1469U, 0x38a6faba7330d79fU, 0x3a458d9ad0f2d5baU,
  0x6259a245dd90e3a7U, 0xe98a6fbb1fe8aaf3U, 0xc633f0324702ebe5U, 0xfd6f16b9180628cdU,
  0xf5344c5687c8a3ccU, 0xe96de095cf666d4U, 0xaedd38d8f65c81f0U, 0xee34f11640fe1d0eU,
  0x43bf090a2599398dU, 0x335bf7ac58afb413U, 0x8e0906cc1c076da3U, 0xa5f36d1918665f53U,
  0xed06caed2c3246dbU, 0x52d5d7accc34531aU, 0x10da56e68fddb4f7U, 0x5900359c81d5e814U,
  0x26ade1ae86b004b8U, 0xe82bf7fa57f4d9edU, 0xf6d43a51b2b6eba9U, 0xf35f910235791c9U,
  0x8dff1190516d69bU, 0x22b0585d3d8139afU, 0x49a5b845eb34f239U, 0x4e35313e42d53adfU,
  0x35d462aec8f415U, 0x1b636df530537f7eU, 0xb71bb2ee259552U, 0x651450e9e94974e2U,
  0x69d65a358c30d35cU, 0x44b1ca0e8d930193U, 0x5fbaefbcf53387c5U, 0xb3f7efc4e950ce2cU,
  0xed6906534e785750U, 0xb49858f99ba1bd2aU, 0xe83c4ca24637dc16U, 0xe4ce626fa9341418U,
  0x42051c6ae126fccaU, 0x1323f1a25d6d80eU, 0x81ed1bab9ef22ee3U, 0x900e67172e02cd5aU,
  0xefbd2135eea12e9fU, 0xf1e3c44121ba06c1U, 0x4039f74003bda058U, 0x812bddef0cade6c6U,
  0x1410ef003fd416b6U, 0xcc4bdcb251d74124U, 0xef3de62cbe340dcaU, 0x1afc01e8c021d546U,
  0x484307f0f3529435U, 0x8182aafc488cdca6U, 0x6f2310d36bc92c6U, 0xcc9aeab620bf3646U,
  0xb2e6494e22eba222U, 0xd6ed5234c409489dU, 0xfc034a39ef488b49U, 0xcbf7c3e251e64002U,
  0x2936956125fccef4U, 0xaa0ddbc186420482U, 0xf9e658eb196d99afU, 0xe5e7280ba01ed622U,
  0xf78125c1e64d9b95U, 0xdba0930a41cd422eU, 0x3bfad62fad2d3133U, 0x4017c902065cac29U,
  0x3fab521e19babf33U, 0xebacb70b2eb64407U, 0x27beb7d010ee421eU, 0xc92ebfff4f2de60dU,
  0xd7c9b3e6cf4200deU, 0xc3c6be8131a507daU, 0x41200d24ce30d1d3U, 0x5c2a08e6c1f643f6U,
  0xf3016104c8e4c5e1U, 0xee5732a024e32beaU, 0x4b5c2edb5801fb79U, 0x839f8f0c2dbea70U,
  0x3bc5ca1a42b011adU, 0xb8db41d5e9b3c4c5U, 0xd656ec447fc665f6U, 0x4185c844dc5e1123U,
  0x726d9e2330d33b58U, 0xc0fbb83f42144407U, 0xdbc33ac1810f8f39U, 0xb4761c2ac16ec3bU,
  0x1de236c9a8d5ffbaU, 0xa83ed64d8fa952a6U, 0x39bc3723573600b9U, 0xcdbbe313be171ffaU,
  0xe7e4ae21eab24016U, 0x705ed43de4831c0U, 0x1de9443e502d1efbU, 0xfaa9d7d91a1d8863U,
  0x26c0db1206c0effeU, 0xc656baf2b920d34fU, 0x58369208b03c4900U, 0x39d581b0f247a2d9U,
  0x733812db9dd0adeaU, 0x26f1bccf95d011e0U, 0xd1aee54b2ddaafaU, 0xccb91cfad0d2c87fU,
  0xc4ff3a2431ea3644U, 0x69d606fa1a013737U, 0xb3b05e38ae21c9ceU, 0xb68ed5a22842d3ddU,
  0xba302d36202c4104U, 0xfecb0ae9b8989226U, 0x30ee47ee3097814fU, 0x532911c33bf83d10U,
  0x9defa9e8932de9d5U, 0xb935af4a54e3367bU, 0xac59bf4452d3b63U, 0xdb0a5c0795e3bc48U,
  0x452668067d0fb7c9U, 0x51c953fd3725ef01U, 0xe9d8229921a3e8b3U, 0x6cc9d4574003fef5U,
  0xf30703e663bde035U, 0x226435e974911015U, 0xf74348cfa2dbbea8U, 0xef6fa020814848ebU,
  0x81234be961643f2U, 0xa63ad708d92ee962U, 0x1c4fcb162b49be2aU, 0xe9d7474aa70b14a8U,
  0xbcd9a3d88ea07037U, 0x12b024108fcf824U, 0x1a676d8154315408U, 0xed39cfce614c411eU,
  0x52bde8b219ad3f3eU, 0xb41b3cbca1d6e8d1U, 0x4ee04bd455972485U, 0xa6bedd64168e5061U,
  0x5927b9c1819fce25U, 0xeffd9f525caaf241U, 0x5b9cec3edd25be9fU, 0x497120ada07a025U,
  0x660d3c2ca7f990c4U, 0xb9ed2039dd810142U, 0xc010fa263f1a6a43U, 0x1d0bebbdbefcd726U,
  0x4103ac5da4d516a4U, 0x13dfce1dbe35be1eU, 0x1a123b9cf3e061f7U, 0xff2fbf95e3efd291U,
  0x380ba83aaab95f39U, 0xabf50b6ae391f46U, 0xe7c3491771d439f3U, 0x4d8e6a2e8e595a7U,
  0x53a8b94b1ec2fd1bU, 0x8e5dacb0abe4abaU, 0x81c63f0135b21b91U, 0x1333ce102540d893U,
  0x6ad5e0536335cdf7U, 0xa510d20106e8f932U, 0x165d0334a2d14b6aU, 0x196954f201dd5d28U,
  0xa4d62814e1baa05dU, 0x20454344944fcb5U, 0xba548a14deab32bcU, 0xbe10b8101a4c511U,
  0x13226447d616a81eU, 0x3cc24209ec36e91dU, 0xdf63ad42c18e4e2U, 0xbdeefc0415f91913U,
  0x31f16f2fceff33dU, 0x2180cb0e201d43bU, 0xda0def04cb27c381U, 0xfb521702cc0803e6U,
  0xd0271edc0907f80cU, 0xb4cae5e1ec3fd6a3U, 0xe4cd9dce10d8f12cU, 0xab53dd12b83beb4dU,
  0x53c4b41f4ec25193U, 0xb581b756610aa02fU, 0xce61d0b2134fb12cU, 0x1902c24009e5a9e4U,
  0x180defc1fc01f343U, 0xcbe8dbe7fe0f23f5U, 0x35cc195be1c72b41U, 0x6af20d33c0819ef3U,
  0x1d8cdb5e346bc341U, 0x3943c5bddaab13cfU, 0x47ffc4dcd803d4d9U, 0x8ba4bbf70ce444a9U,
  0x34a9126751b8ddfbU, 0x812edcecf9d74033U, 0x300ede03a81acfd1U, 0x9f17c6943b8e1208U,
  0xd3dd11b7f6b71a36U, 0x17d6ee2c3fe71d1fU, 0x622f0fc17c52263U, 0xbefbeac910cb4fefU,
  0xbba5c2c6e4b4ec0fU, 0xb2f7c542110507d9U, 0xc1c0d0cf373ad357U, 0x2aceb2bef8f3050eU,
  0x26a33f24f05615d2U, 0x46b91aeb122ac11aU, 0x2264b2268683ac7fU, 0x35a1dfdfca03e360U,
  0x2422abf4edabe7d4U, 0xbdb9d20c2cdf341bU, 0xfcc71d1536351216U, 0xbc44c68a0dbc15aaU,
  0x509aa8ccdc47f1c5U, 0xd1142919530993d4U, 0x57c52314e637d51fU, 0x42af5f1caf1dbbc4U,
  0x22814baf3fc6eebcU, 0x20c8b9a2c435d8f7U, 0x1fe4c24ca303e1e6U, 0xcbe9470ac8032753U,
  0xeeee6e61f3fe217U, 0x1e181ff7ba38ea00U, 0xb9e8d2d9dfcd205dU, 0xdb81db1114a24022U,
  0x398cea511e822bbU, 0x1f39f8e292d84839U, 0xca0befd906c75e29U, 0x21f23cadb2bc46eaU,
  0xd7bbd900d2309046U, 0xf6b3b6cde3355859U, 0xfaaca731854a69efU, 0xac541d97580d2cfcU,
  0xc5d861f3fee21181U, 0xfefc30c006e321d0U, 0xa2111afa2a36cdffU, 0x17dbe9f30f57542dU,
  0xcdacc7b3ed369fbcU, 0xebfac1476109fd41U, 0x26f263a03a51c9c8U, 0xc7a3ffe2e6f2e581U,
  0xfd4a16d287973098U, 0x823f9de809310d17U, 0x5753ebd69ced0948U, 0xe2cb6b38651d18ebU,
  0x27ce49f0a1dd5408U, 0x3c4d043889caa3bbU, 0xb664993f2fb8c32aU, 0xc11cf1a96a5247abU,
  0xa4491d5117d77f0bU, 0xe817a7c400e2b230U, 0xcadfe324b61a46f2U, 0xbdf74e440e1839f9U,
  0xac35e729e9a43648U, 0x25edc3d0e9e53536U, 0xdd81db982940dedbU, 0xbedf53683937d2e7U,
  0xb7b9d6a51623b423U, 0x2dc053c7c9b30115U, 0x1634fb34e8b4aaaeU, 0xdb8158641e289443U,
  0x53f408ed360b993eU, 0xa8f43d9e9ecbcbd4U, 0xc5295922c033fff1U, 0xd64269ef552facc0U,
  0x40dc0c4b3c26bdb6U, 0x4c8137cb6c52dbdbU, 0x1012316f2035389cU, 0xedc50ca430d2beceU,
  0x6728bf93e937fab9U, 0x15adbb1a47654c9fU, 0xa20bbef42b22eda5U, 0x31172216f30ffe12U,
  0xa7b75dabc24eae0eU, 0xba46f2b02a16e704U, 0x9ba004c92c2d0d95U, 0xf9f05edb1dcba0d5U,
  0xd705f11dddae15e9U, 0x40e91d81c7cc4f10U, 0xf1eb4521e4912932U, 0x19d0c5ee153acbe8U,
  0xd6dda4b2eed0c02dU, 0x9bc9fca755031e31U, 0x1cd8feefb626cc81U, 0x6bb80b8a3a600bffU,
  0xdde1c4cdb0d5be6U, 0xd3203e5bc44633U, 0xc80bd203ecddd3f3U, 0xf0e00639ad09c3f4U,
  0xd6c66ee3cd07f751U, 0x202c651d50d2b7f0U, 0x559526a613c29837U, 0x2d205abb43edf740U,
  0xc1060c309832dafaU, 0x62c2e89c9ffb55bbU, 0x294dca85d9f5b850U, 0x908170b33fa3e6b3U,
  0xffc8a87e0fb970f0U, 0xf8bfe1bcd5152481U, 0x519ece27b4e4c434U, 0xf2a014cc0e36a557U,
  0xa3e40a2dbdbbc398U, 0x34d3e60929462bd5U, 0xb1fcf7fedae9bed4U, 0x4e38581a1e39c6e7U,
  0x28d5072e283edb07U, 0xb522e6d4c6550093U, 0x41ec193ac2d24cc1U, 0x60d0e634e08ed16U,
  0x33daef792f184071U, 0xfa14a7d023c90b7fU, 0x3707e656cdb2fee5U, 0xb33e2497336a9312U,
  0xaca21c47ea121050U, 0x5ebe903f2826d3fbU, 0x492b1481d32bca8cU, 0x4042428e835be3e9U,
  0x320e1b5210b819U, 0x96420ea36dad2932U, 0xcdf0ffbbc417ef00U, 0x4eaf2a531b995b27U,
  0x9ffcb09813f63eeeU, 0xaeedd02a4847ec50U, 0xa8af0c521764290cU, 0xa654114363f29fd1U,
  0x7243bdb9206ee952U, 0xb34981e000938609U, 0x2db56c4c07ed59e5U, 0xc405d308a0d660c6U,
  0xd5187b9bd3d892f4U, 0x61a7b7e519d24afbU, 0x4ee28807a2bb2794U, 0xb984ecebbfcbdfd7U,
  0xb04a087f1704c8b2U, 0xf9e24c4ad493275cU, 0xf57dd3f4df9e05aaU, 0xeff870b167d48151U,
  0xb6d60053f8a9d737U, 0xab113fafc1426d6U, 0xc53e082abe53bc13U, 0x4e255fd4cec62381U,
  0xafb0e337e2faf7d6U, 0xf217f10ad5b54daaU, 0x13e9311451c6e9dfU, 0xe6a84011854eb619U,
  0x20cb131512324823U, 0x2eb0ce2f0eb29ff8U, 0xff8e89109b030412U, 0x91de3e7819f4b2cU,
  0x6c84331cc94a10eaU, 0xbdfd6f343f442fe4U, 0x31c423a0fac0b302U, 0x41e98d2b6cc8ea98U,
  0xe4f09c9a58c96f19U, 0x3bfae0b0488be0dU, 0x23b6e44ab3c3e13cU, 0xb1a77f5e9ad0d402U,
  0xe3241e7551bb4bbbU, 0xbea6ed24d02ce545U, 0xd44b02e748e34f24U, 0xa097d9de850c145bU,
  0x28cbab7a00e916c8U, 0xe808bd32344bb0ddU, 0xccb4a6c4e12c51c6U, 0xc2bcf539ed3a3ac2U,
  0xdc3fb90ef0051623U, 0x3b0bfe0933da25e9U, 0x832c2eafb0fd91aU, 0x6e7a98145b504d6U,
  0x4d0515c0faf5dcccU, 0xdb52c2bf5a59f9caU, 0x7726d28981c8bf1aU, 0xaa4b446099131ea5U,
  0xbd4270a49dd6d3f3U, 0x1f9710cd69592122U, 0x6b4aee1d20dcb19U, 0x6bcceddcb84bbd28U,
  0xa71114871809c2acU, 0xdfd22b16ef59bdcdU, 0xd64056159622cc02U, 0x912fa434874c0a1U,
  0x52d0cdc90cf09711U, 0xcf8154d244f8ebe5U, 0xfb3158f024b5ac86U, 0x32439e1763ec8eb4U,
  0xd0ee4dfde08b53d9U, 0x8b0348c090bda7a4U, 0xa23fc19e5611d3fdU, 0xb95587c420c1b47bU,
  0xae1dd44c0c438150U, 0xcc49fe62613bc40eU, 0x40b560f9d9905abU, 0xbce4122af4c31cf7U,
  0xee1705f4028dff5fU, 0x719c25dde6d6d7e6U, 0x3df6dae97f0dcd99U, 0x4806ae0ee90038f4U,
  0xe086c182d3e4c1baU, 0x1493202e074648dbU, 0xc6108ed0c4a1113bU, 0x63632b2358c7e1ecU,
  0x37110e384b830c1U, 0xc84db7ffc3a2872U, 0xb025b094fce3d722U, 0x954124ed51713203U,
  0xbc1d96015092b811U, 0x881861f58afc5795U, 0x8e27fc65c11a55aaU, 0xc496ebfb3cd5f7bU,
  0x1a5c582b3ad7153eU, 0x3e8c160d255b3c94U, 0xcde370ccf75b1820U, 0x35a45833c7c6180aU,
  0x2f6510509195642aU, 0xbfbafed5d70071a9U, 0xbdd743815013cb20U, 0xb8e3b15932e9137dU,
  0xd92d9fb6d0d2edabU, 0xab200ef6be56d372U, 0xf84be440ff06acefU, 0xf387148be8616b5bU,
  0x69ac0dc33b64f268U, 0x5081fc6800c84e29U, 0xc4e1a921111039e2U, 0xedc906b6aeb6f755U,
  0xe9c9d9f5a7405f56U, 0x61462ea5caafded9U, 0x33a5eef5231d3b42U, 0xc902c2d514ad4e30U,
  0x40e51d49db23f11eU, 0x4d551e1541cddee5U, 0x851f09bf9c6d420aU, 0x14ede7e97e924996U,
  0x45d67fb531fdd007U, 0x26ea9e548819c38U, 0x2ec1dd9f2f0108a2U, 0x9d398ddb533c322fU,
  0xee9542f62932bfb6U, 0x25258344e0d61ca1U, 0x8e5afee1ff40c7c5U, 0x231254ed2ebeedf1U,
  0xcdfa0555105caf28U, 0x7c96249ee4cde01U, 0x1344c3fdb7b914a9U, 0xc5574db8583702d0U,
  0xbd0c910c09b81bcU, 0xd7c19a1b9536e9feU, 0x17f4ad4ee9166201U, 0x3d221ab00db590c3U,
  0xdd39a218a13a3de9U, 0x373f5959bded0d43U, 0xc629134fecc73f7fU, 0xf0c49ebc353df928U,
  0x9e63fb39b654a821U, 0xbd2ee9d33f98e646U, 0xca76ce5456eeaf09U, 0x91e5354b17ae3a17U,
  0xbea95a6bb358b760U, 0xfffffff3ffffffb2U, 0xfffffff8fffffff1U, 0xbffffffa1U,
  0xffffffbfffffffceU, 0x4bffffffc9U, 0x53ffffffa8U, 0xffffffeb0000005aU,
  0xffffff8dffffffd7U, 0xffffffd7ffffffe3U, 0xffffffd50000003aU, 0xffffffdf00000048U,
  0xffffffefffffffd4U, 0x300000000dU, 0xfffffff4ffffffabU, 0xcffffffbcU,
  0xffffffe8fffffff7U, 0x3000000017U, 0x3e00000001U, 0xffffffc4fffffffaU,
  0x2dffffffe7U, 0x25ffffffe6U, 0xa2ffffffd8U, 0xffffffc9ffffffdcU,
  0x1c0000006fU, 0xffffffe100000047U, 0x6700000003U, 0xffffffd00000000eU,
  0xffffffc3ffffffcdU, 0xffffffe1ffffffdcU, 0x4affffffbdU, 0x6fffffff9U,
  0xffffffad00000027U, 0x6134f01bd0c4e0fU, 0x360ae081cdc8454dU, 0x271ff9545b0b3544U,
  0x3a385ade2a1badc1U, 0x20c72eebd40fe74eU, 0x1228efc1f1affdbeU, 0xacbbc11e690d2e1fU,
  0xd551c9a4c3dcb94aU, 0xdfb9eebcc8c211f6U, 0xa922de0606f735e4U, 0x24d124f4c122edb2U,
  0xefe1b6bfcbd2d163U, 0x2fce63a36d13809U, 0xe115282b3ee20cfeU, 0xe5d0cdf67f4aba29U,
  0x105d7cc2dce2c0dU, 0xf1128fe204214594U, 0xf8e442adad9a01e1U, 0x49df9c8a126bfe2U,
  0x48371a582f9addbfU, 0x1e04c813c3a91b9U, 0xbeccb25ed50824a8U, 0x4db5fa99ff13cf3bU,
  0xb0abee4d3522569bU, 0xcfa13d02d1d201d2U, 0x3d2256dbe8c2f5dcU, 0xbfeb4eb302e35904U,
  0x4e69881a252dc543U, 0x3db60d9f4d893cb2U, 0x6527734a81fcb63cU, 0xf8c08b9b5bcfff23U,
  0x7722b6d2ceef2752U, 0x29aa09a35b3552f3U, 0x5ccd21bad42d46fdU, 0xe5df54ea6bca2b2U,
  0x107fa932aa281d1dU, 0x25e7ef37db5700e8U, 0x7ce94c06c2e6407U, 0xe82a6e247cebaae7U,
  0xfdb7b2360719ecc7U, 0x4b2ff3273ea2da21U, 0x2422a21c1dc0ceaeU, 0x300daed74bb1ddc0U,
  0xb6cb0d50e9c70a00U, 0xaaa3301c38ccac81U, 0x3c24ab44a4a1d1deU, 0x111020573fe5df11U,
  0x1d45de3bb4881af2U, 0x1b38a9d6b7d0b510U, 0xbaacbf3e063e4336U, 0xaeada90e352fe618U,
  0xdd47c581d2c2c5ffU, 0x3812df1c0132aa42U, 0x9fe31cd52de15fd3U, 0xbfa6e43a04bb1744U,
  0x2f1115c4d8f2cf01U, 0x2dbbcecd4fbeba29U, 0xfa88e92322aed8f5U, 0x1620bbc34120d31cU,
  0xc0b0fb40a627dbf3U, 0x185523a3d59ae3d0U, 0x3df762e1f9c0b7f0U, 0x4aeed28137f74763U,
  0xe2180559f32d22bfU, 0xb21551d79af10e57U, 0xc1cc17401b07f456U, 0xbcc9fb9f42df2dd4U,
  0xc6cada47fd3d262aU, 0x52d0a44e30592218U, 0xe9012bf01faa3104U, 0xb5071bcbbd81eb0fU,
  0x364cfecbc71cb703U, 0x16e2d9daa72513f1U, 0x522a39dacf32bc51U, 0xbcd73723991fcf25U,
  0xcc328b36f60ebde2U, 0x4cc546ee386c37a2U, 0x322cc51c504be641U, 0xc14401a7fc3f831U,
  0xdb4b52c5ccabb3d9U, 0x228c2c500a3b81deU, 0xcde4a8ecce5a1507U, 0x20aadd56dfd1c739U,
  0x2315a04df5e2f392U, 0x2f402836cee03ec5U, 0x1a518edd58c1d02aU, 0xe25d574f18e0c276U,
  0xf4d7a6f55e0bef18U, 0x5627f639d305dba2U, 0x4d35d5c3ff290d31U, 0x144ef81d539fbc9U,
  0xe912f50749c801dfU, 0xdde8325101be33f1U, 0xecfe04ad48c43427U, 0xeffee92ce7b411e3U,
  0xdb13fdc43617d9d4U, 0x101d30c8cb1a1735U, 0x2b42bc322aec6a4dU, 0xe45bf20af6ff8b32U,
  0xdb33d54c5dc32c4cU, 0x4b92a5c40c2bfb94U, 0x4f3447b33b81c8c1U, 0x373b364be714313cU,
  0xb04db4142924b615U, 0xf7c625fee6f9b8c4U, 0x4b10c835f2beebc0U, 0xdb0adf0af130ff38U,
  0x570b091eea303614U, 0xf4efe7fddfd515aaU, 0x1144cd1719bdcc1cU, 0xde6e7f33efac5ceU,
  0x10faf54230e5397fU, 0xaa0421d2e781b2eeU, 0x96aaed694df21492U, 0x9bb5b638edbb2540U,
  0xb912110ad41c502aU, 0x2ec50e653afe8f5U, 0x3c31181e518dc397U, 0xc47df03216a13f51U,
  0xe32ceef3c1e5e51eU, 0x304b222bece8f9f5U, 0xdf2de9d23e4dbfU, 0x740b631d5acc7fdU,
  0x4b4d31451f353938U, 0xc3453cdcd73758f8U, 0x23cd9560109d114U, 0xf9f85a39c53a15d3U,
  0xf5081409cdaef77fU, 0xcdc5371e03cbe125U, 0xbf4ff3f3f3fa0c26U, 0xb23cf01cceaee3f0U,
  0xe818f449be2e15f1U, 0xebb4c4f1677fc42aU, 0xc91d633ca0f4da1cU, 0xf1175af7fa2c1652U,
  0x6de592a23f40d3dU, 0xad0730f9c5c9fec0U, 0x5425a3f2d4b11b1aU, 0xb22636eaddf126b6U,
  0x71dfdfc373725e1U, 0x4dacb8e0fef83862U, 0xb346183fe126d6c4U, 0x48e7b5bfbe30a781U,
  0xee27cfcf9c284bfaU, 0x2d75bfea5551240eU, 0x44ade9579f46015cU, 0x59d6603cc7dedbacU,
  0xb8f90bdf1a15074aU, 0xea02eac3eb551915U, 0x1b18da005fefe86aU, 0xcd375c9b7fc1c660U,
  0xac0bfcad5ec43becU, 0xfd2e4ca5a20387afU, 0x3349b2cb07999739U, 0x222540b530274e1aU,
  0xa2c218e2c4eebabbU, 0xcba9c5ab39b10929U, 0x3b14bf26c381e0f3U, 0xbb03ebf9e910b822U,
  0xc133d53f0eccbbeaU, 0xcdecb83118b2eab9U, 0x44313f09a1c53427U, 0xc318307ffb273809U,
  0x98b72caf48bf3de9U, 0x3bd7594d0030bccaU, 0x113a20baaced9af7U, 0x1dd1feef4ad81f25U,
  0x5824b8b2cfdc1c0cU, 0x52deb1ba0dbd2cf4U, 0x31c3c241d618021bU, 0xfc10b206cd03f559U,
  0x19e226b20ff929b2U, 0x52427f0d30a3bc4U, 0xd929a42c1f2b970bU, 0xc3411bb95640a9feU,
  0xb4f8341cb681acbeU, 0x45e60cbc2f18b0e4U, 0xc3e0abcf3acf4dcdU, 0xe3e5210045b8bbdeU,
  0xd86e09935abfc718U, 0x32ca04a5322f4b05U, 0x6a81c7ef1840f235U, 0x38311e364ea1f6abU,
  0xb7fdd2e81ffe8cf6U, 0xfc2500b0521904c0U, 0xbb0c3b18aeebe528U, 0xf61e1c45cd10da19U,
  0xb4137f174732c812U, 0xb223d92a19f6494aU, 0xf0e6e10456edc017U, 0x4dfc13cb5928bfedU,
  0x28fc8ce806a8c3c2U, 0xfe1be13cc0548627U, 0x4afddd04e8eb4e55U, 0xe0ed2244e5d2040cU,
  0x333591bbf250f97fU, 0x4ce6b3d964b844d3U, 0xfd2c4b39f89901bcU, 0xf2b7398803eb5116U,
  0xe12d3928f3c0fc34U, 0xf0eb41b51a3d2636U, 0xd12760b1a6263ab9U, 0xf73e36d20c22b237U,
  0x399f30836cb9cbcdU, 0x26a434293e3b139dU, 0xd354010ef59be6ddU, 0xc4e9ba5cda5df9d8U,
  0xdc5ee2f5880fdd81U, 0xdde42b9432a3937U, 0x11341cb92ecbf04bU, 0x5ffca0d1e0581aadU,
  0x1d04fffa9dc27fdeU, 0xc72e4fc4dce3ca39U, 0xdb9f9c31e4dab9fU, 0x3f5f7e5491a95b6U,
  0x959837f1f5d7f23cU, 0xdf4d19bd204c483aU, 0x25e60813cf4f39e4U, 0xeecf759c731b020U,
  0xda0ac7ebf2cc3204U, 0xd7b1db461d3cffbbU, 0x58e92ddc37d51902U, 0xc7fcf1045f8c219U,
  0xb5333ae705f708d5U, 0x6f45e71fc5bb47c5U, 0x4251ad21e394fddcU, 0xccddbc4de8558cb0U,
  0xdc9db40fc2bc0f3U, 0x470a39efbcecd421U, 0xc9c8a95161da37a6U, 0x47f5a10b74be462U,
  0x8b56e292eee93cbcU, 0x23685f1fa9b2d7bfU, 0x67952426ede53e5aU, 0x540ede86e807b49dU,
  0x1b1c0ce34bf805b7U, 0x3b1c4005f582ad78U, 0xc5e6b4a6dcd039b9U, 0x8df18e4451e813bU,
  0xabc9467b24239e2fU, 0x3de140a834543d07U, 0x3f625390fac3d622U, 0xa945400dfd2dd0a0U,
  0x50b37c99712cba0U, 0xd943d6272a7aefe6U, 0x4a22b432350f5326U, 0xa1be2185d0187fe9U,
  0x2922c907c9ca96caU, 0x1f59d596fedc84c6U, 0x2fa258a6d4316e41U, 0xef0493a1168fd0cbU,
  0x35dd196300f32bedU, 0x23006fa5440133bbU, 0xcd30df3994b1b1b3U, 0xe8919d3f32464163U,
  0xe718074bfe04c37fU, 0xecc6d8c07f62ffd2U, 0xbc565aa1f12de517U, 0xae4b9bc0d20f221aU,
  0x49761db00e8f82cU, 0x27273b51fa1c31a3U, 0xdde6bb1654151420U, 0xcdb232d3f91300e1U,
  0x12e93cddcb26f302U, 0xed26ac2cf42e4a3dU, 0x3e9b9f46b8a82f29U, 0x9a1933c22fb4bd23U,
  0xf2323d615ff6fbd7U, 0xf1b0be1e3c3e2e50U, 0x2d26f0d7ff815bafU, 0xdf3fd20b48c00bf5U,
  0xf18ba43071ee661U, 0xf5a13527be1a282dU, 0xc8b6d9efb54b47dbU, 0xc50787cae1053d81U,
  0x734c64766ef1bU, 0xb190baad4bd8de01U, 0xd73ad663a1c03dbeU, 0xc44914e596c3316dU,
  0x8fd81be9cad62452U, 0xc6dd542ad6035325U, 0xb84f269751d5231eU, 0x1b5719bfe637cd62U,
  0xa2cacdedea1af6a8U, 0xda2a1b81f8195ec4U, 0x543f99e72340dbd6U, 0xe3cf233952b9e1e7U,
  0xfc01c829f1f844ddU, 0xc42d2cdf0804060aU, 0x27b633810ef24cf4U, 0x90bdff9ead22e36U,
  0xb51f2ff8140fbf1cU, 0xf6dd47b9d7000afcU, 0xf3fc0a08c20f21e8U, 0xa3cd9fe1e208a847U,
  0xfef3cdb3f80cebb8U, 0xadda08ffaddaec7fU, 0xe8db9909a8bb5b0aU, 0xc72dfd30d3f099d8U,
  0x2b0923065a0fc621U, 0x4c439fb844ef2c3bU, 0xffdd9fe59ab07eeU, 0xf2d835fc79edaa50U,
  0x35ace15f2fdc8c3U, 0xc949079aba8f0e62U, 0x17c4b513c131bc06U, 0xf126eafc229bcb28U,
  0x934a207fe699d74bU, 0xeeaa2b4cc00af1b6U, 0x2a0740312ea4ab53U, 0x80a6ff1d6fcacc7U,
  0x330e6e50170c47f0U, 0xe2f58aee7e99eeb1U, 0x52d5483159a3ffe8U, 0x1cadf3205c19183cU,
  0x95a0e267ae4a18fcU, 0xf02c814ffb1da30bU, 0x40d3b364caf715e8U, 0x1021c4d3cf2ae2bcU,
  0xdb6523d321b33c7U, 0xe93ae1fff8b1b1c3U, 0xaf3cffd8c9105641U, 0x198729a70e45d513U,
  0x93d17072ca260adU, 0x2acfe19f58a00f20U, 0xfdf864a4e82a56f7U, 0x338f994b639cd6edU,
  0xf805a55c8f81afe4U, 0x544d2afc4b0905bcU, 0x6cf7226287358128U, 0x2bb4b7f3b05d6eeaU,
  0x2cb9029bcb4ba7a0U, 0x2955c0a2dae8b064U, 0x3c44de6c194f0f1fU, 0xd2061299c672b0feU,
  0xbe1be753e2a1aba5U, 0x4347c61aafa83a9dU, 0xf86817be9007c8c3U, 0x4703b02f01a12131U,
  0x7f0b44dbd4eb9efcU, 0xdad95e60a6c4937dU, 0x9295d9556c53f173U, 0x6db8e74b15c4c7d4U,
  0x248d2b2ad02a9794U, 0xd1cc000d0b352df1U, 0x332cb41d3cc8bb2eU, 0xf703d65303bcd7abU,
  0x46db07131635cd0eU, 0x29f340dc2be7fcf0U, 0x46d235f24eec1552U, 0xef7ffec214c614f5U,
  0xb537d2e0cfcb4d37U, 0xe151c1ecc41b3498U, 0x2608c41812df4cdaU, 0xc24c81f949a1150eU,
  0xc69c95a51c3b5f3fU, 0xed103ce0f1b84b14U, 0x3a30580bffd0e012U, 0xdb8bc9ed3d4c4238U,
  0x325303b30c1234deU, 0x3e4c32afc709aed3U, 0x55029d2d922ff24eU, 0x42a8b4b1de020fb0U,
  0x314be0dcc4abbabU, 0xe2a2e82dac51ecb0U, 0xc253adbc2c49d5e7U, 0x36f0f7e1e2c0fbadU,
  0xb21518d1a24d4081U, 0x2f34b313390e91f5U, 0x4e97b7c9c8caf3b7U, 0xbd3af1fffdcbc2bbU,
  0x25626213552d942dU, 0xd0ede0953d812909U, 0x4221ee4e25345182U, 0xf91c48cdf9a1c656U,
  0xa334e1e07e12dc5U, 0x7f7004c37d0a988U, 0x3a30b203fc21502dU, 0xf0f32e6a423735dcU,
  0x9eb00084526c599U, 0x190dfbbc14facd5eU, 0xb4d53deaefb3589cU, 0x341e6cdd2b18d3f8U,
  0x1130f815d681341eU, 0xcd581d3ccfa651bbU, 0xc6cfb34ebf0f390eU, 0xb8b5faf8e4d651d2U,
  0xbb6630bd6ad94ec7U, 0x252ec0290cf6bc00U, 0x190c3aa650d86681U, 0x42eead0db9589d2U,
  0xd9d4fa6cb5e559f3U, 0x5fa36516d498280cU, 0xc6dff4c8250ab7ddU, 0xcd44d5de0db6f567U,
  0x3ac2c639ed537098U, 0x2ecc233df381b585U, 0xd1a3272538ac21c0U, 0xd1bbd347f362edd3U,
  0x36ee3a51d9aac9d0U, 0xe39a4c60813c0beU, 0xab49fa072a46d61bU, 0x95aae7d6fd890d2bU,
  0xf5f817fa18fb561aU, 0xf784576727b0cc36U, 0x2c44ec2999e59ac0U, 0x1b8810b00e10247U,
  0x5b05bdabc430370aU, 0x37c5e1f2308a2a5eU, 0xd566ebcd4543d53cU, 0xd750b8cbf4919bfeU,
  0x4d1e60dbf059b406U, 0x1e955e30585a81cdU, 0xc3c406776914e20bU, 0x250a19ab0c6431edU,
  0x2466671439c7c4c7U, 0x2f3dce62339fc793U, 0xc5b930adfb745eb9U, 0xa01da8f368117dcU,
  0x66541d491eb523f9U, 0x97a6cc0ffb0579abU, 0x48ae67e6398ecfb5U, 0x5ef6c5a402ee31e5U,
  0xe1ca140fc20c57f6U, 0xdc16a4041f0bc7b8U, 0x3de2b9811e1bfde6U, 0xb790e95d33224019U,
  0x1b3130e3f5d615d1U, 0x16e441b9511fbf42U, 0xe004f83b079530afU, 0xe2b13e2431f42753U,
  0x5adbf125fdd40d95U, 0x30b65ae881f071f2U, 0x40cfe2ecd70cbd5eU, 0xd0bce8fc941da217U,
  0xd3c60bd82257f61bU, 0xec54e34322550bdaU, 0xe4e4ed0be0c6ccf0U, 0x374110fa21bc5ce6U,
  0x483cd150c1d4ed73U, 0x1c312763dd3c09e0U, 0x27d6df75379f6c0aU, 0x2bcde3c5ae16481aU,
  0x5420e4d23b3dd4ecU, 0x1bb31cdbb65e07adU, 0x10f5a825cb8a42c5U, 0xe08b81c8c3570ec8U,
  0xf2105ef6f1833847U, 0xa3b1c10930f4cbd0U, 0xffb12a819c1548d4U, 0xf3b8b9032c062826U,
  0xe31b642bde3ae0cU, 0x9a133ea3a7e94220U, 0xbfb8f93e21f4a8ddU, 0xe4e231aee3aec7c0U,
  0x231fe135e7f2ae2dU, 0x3833431603b31eaeU, 0xeddadc42d4224354U, 0xf8132ac117d3e8f5U,
  0xeaeff903ec24fbe3U, 0xfbff155cfb2cbb16U, 0x47abbdfd593ec2b7U, 0xe581d8581ef80531U,
  0x9ecef028a2bef02dU, 0x90c54e0954f7f925U, 0x2ffd57fba8a048cU, 0x8d56c5df17b6b3d4U,
  0x652d230431afa275U, 0xfff366d32edbc906U, 0x58dd69085d8ac309U, 0xc5b2f81f83b7a2c0U,
  0x458dd82a13e57b5dU, 0x23be15123b292e3dU, 0xbff1d3cbf8abd7f8U, 0x2f2021afc8172106U,
  0xdfeb524a50b0e1aU, 0x2c17fc21fccaf0afU, 0xd014ef17d4d1c742U, 0xf5c78134bbddb310U,
  0x6d4312a263d000dU, 0x232fde5cdd235336U, 0x8be2bf2627eb1e44U, 0x29001622e2fdca41U,
  0x4852a734cc4bda13U, 0xee44f8bc488fd2ccU, 0xbac822beda4461e5U, 0xe481825bdfe7e5faU,
  0xd85dd09df40425e3U, 0xf6bf3bcbb0ffbef7U, 0xcd240d20311b0634U, 0xebfbbe1bbdc7cab3U,
  0x37108eee02c91627U, 0xf98ff4bf776e33d6U, 0xb64fc4c62ce58914U, 0xfc7f2c4e7352c4e7U,
  0xf86147eb613ef615U, 0xc81ab9464d9a6cfU, 0x3751a84f460cc368U, 0x64f50f2e133cb1cfU,
  0xfd1683f8e0f645bfU, 0xeceba567e9462ecaU, 0x90760040ea453f7U, 0xfa77668333c568a2U,
  0x1a7d2220ef8d8ccU, 0x3b126c997bbc9a36U, 0x21f64514cdefd67fU, 0x9de00020e4c0e1fbU,
  0xe6d64fedd99eba60U, 0x94ceef5b3ce12105U, 0x1c5e8cd4db4692a9U, 0x4dea0adec5213e90U,
  0xc70a352205dc2115U, 0x7800000005U, 0xffffffa2ffffffe7U, 0x19ffffffcdU,
  0xffffffbc0000001fU, 0x2e00000010U, 0xffffffc20000004cU, 0x3d0000001eU,
  0xffffff950000001fU, 0xfffffff30000002fU, 0xffffff7bffffffc1U, 0xffffffeb0000003aU,
  0xf00000027U, 0x2300000016U, 0xffffffe300000015U, 0x4000000ccU,
  0x4ffffffd2U, 0xffffffff0000000aU, 0xfffffff300000072U, 0x6a00000013U,
  0x29ffffffe0U, 0x2200000032U, 0x8ffffffdeU, 0xffffffec00000024U,
  0xffffffaa00000020U, 0xffffffd000000064U, 0xffffffc5ffffff5aU, 0xffffff9fffffffe6U,
  0x38ffffffd8U, 0x150000000bU, 0xffffffab00000031U, 0x7dffffffcfU,
  0x5a00000051U, 0x101cd837dcb63da9U, 0xae30be0fe3e51ec9U, 0x12cde31ce914a922U,
  0x21c1324bb525eff6U, 0xd0fc9ff00ca5c549U, 0x2106d324cec633e3U, 0x3ecc8107289838baU,
  0xe5ae3aaef9ddd6a8U, 0x267a692851ddb3U, 0x205f1e3d00c77d94U, 0x70f438c0ba6e3002U,
  0xbefeab4000448eacU, 0x1a62557f9ce66412U, 0xfdf2ffa70de10f97U, 0x66a00090059466dcU,
  0x78e4ada1d516d0bbU, 0x639e81d6080563e4U, 0xce1e6d4e44f0c2cbU, 0x751127cfd00333baU,
  0xe7d704f90d454258U, 0xec33bcd840d6506eU, 0x44af332ad2dfd452U, 0x435902fc3ec2594eU,
  0x553f3505d03c11bbU, 0x5b4581abb9cd1db5U, 0xe9d83cab25076594U, 0xb80dcb98253a49cdU,
  0x2a020fe4fb6a7609U, 0x2de30e045d3d920bU, 0x50e38de92d38c9a4U, 0xb3210ecef9b711b4U,
  0x4c56411ecda0e3c0U, 0x11e29ff20ac238e8U, 0x4bcf06e4269cd9a7U, 0x3ad4bed8162412b2U,
  0x6806085aa2fd4a32U, 0x2ddd94b64d522f70U, 0xcade2c22154a15c5U, 0x45e031b9d0afc4c3U,
  0xc3c4dd08a9c15881U, 0x5858fd62aad16847U, 0x99a64453e85eb388U, 0x9b045a146dadf236U,
  0x3523bb58204542eeU, 0xed949f060611b059U, 0x4b06d65fd3dbe6e0U, 0xd0dfb6d8cf0fc2eeU,
  0x4da9344c816312b4U, 0x7fc36f680d5d7759U, 0x63fc0b3ab045022fU, 0xd4532bb32632f353U,
  0xcc2d0d17eaa2d7f1U, 0xe93d35b0f76b5e67U, 0x93006f370c445fb9U, 0x5bdd4404ad65c035U,
  0x59379daf5327db28U, 0xe89ed53ecca4d134U, 0x9fe7b43d461807a1U, 0xb923ac0efe36b4ffU,
  0x172235933852f4c8U, 0x9bffb0bac18ec4b4U, 0xcc592be4bf4e29b8U, 0x17637f0a40aa5f17U,
  0xe5b8330b2e41b616U, 0xc312082dfe13e6c5U, 0xfefd2f0fb1a24babU, 0x1c34c8c41ddff44eU,
  0xa6bcf6221d1bbdf1U, 0xaed7c2f89cf8a825U, 0x6302b0dd315d03aU, 0xdd48ed81003d53U,
  0xbaef12b108ca401cU, 0xceba2f17bf81d4e1U, 0xd81358c3bdfe96ddU, 0xbacae1185b69b6ddU,
  0x6ab248da99e03c3cU, 0xaf2e16dbac0cf443U, 0xf0209a0530f1c297U, 0xdf9244f3e4b262dbU,
  0xacff225fc1f6cef3U, 0xb9930de650b040c1U, 0x1402f22a2de63b59U, 0xec330fd9b0e3c53aU,
  0xe831ff1914e8e7feU, 0x5ce12f5631d86046U, 0xa69eed2515f944e2U, 0x2ed9a62cc181a3deU,
  0x16d923a4d039f7eeU, 0x5c53eff6dc57351fU, 0x929e9f16956300aU, 0x2ae397eeecb5ed62U,
  0x331551f5eeac247U, 0x344018ef7f2a453eU, 0xf25ec8262045c433U, 0x35484701d40e0530U,
  0x78f1e15c0d1715b0U, 0x38010ae53f2bd890U, 0xff31fcca24cead23U, 0x108981e5d9b4fbddU,
  0xe528480803acb92cU, 0x81b5093a762c5ba0U, 0x292691efad9ec5abU, 0xb6c4664005e5af99U,
  0x5a3cd1ccbbcd4a3eU, 0x475456ff49a9592fU, 0x71606351410e2dbU, 0x5ac525d015b0fc05U,
  0x4a1cd6f7f2204f08U, 0xef12c2fbd0a57ebU, 0x38eaab2421f8fa05U, 0x521533177f539e57U,
  0xeb4760daa7b9e620U, 0xd2f3c7d4a2311342U, 0xb444e1eed9a044f9U, 0xd09ffe4fad3b0fbU,
  0x273019efac042bc4U, 0x46ddc386eaf1d526U, 0x3f1ad6eb33c938f0U, 0x13afdaecb28126b8U,
  0x2a9ab7ffec432a0cU, 0x7e4bc8d66e034185U, 0x197fa602627d185eU, 0xe723f62907421f6eU,
  0x3fa14d7f473ac388U, 0xf493d60623203746U, 0x49cf4a5dcf63afaeU, 0x639cc72d950faf6eU,
  0x3eac8b0125835acbU, 0xffffec5b0000138dU, 0xb44ffffedeeU, 0xfffff9dd00000b9bU,
  0x968ffffe923U, 0x192c00000609U, 0xffffe04900000e85U, 0xfffffda8000011f1U,
  0xfffff44a00000feaU,
};


ai_handle g_tinyfallnet_6axis_qat_weights_table[1 + 2] = {
  AI_HANDLE_PTR(AI_MAGIC_MARKER),
  AI_HANDLE_PTR(s_tinyfallnet_6axis_qat_weights_array_u64),
  AI_HANDLE_PTR(AI_MAGIC_MARKER),
};

