/**
  ******************************************************************************
  * @file    tinyfallnet_6axis_qat_data_params.c
  * @author  AST Embedded Analytics Research Platform
  * @date    Thu Dec 28 09:42:17 2023
  * @brief   AI Tool Automatic Code Generator for Embedded NN computing
  ******************************************************************************
  * Copyright (c) 2023 STMicroelectronics.
  * All rights reserved.
  *
  * This software is licensed under terms that can be found in the LICENSE file
  * in the root directory of this software component.
  * If no LICENSE file comes with this software, it is provided AS-IS.
  ******************************************************************************
  */

#include "tinyfallnet_6axis_qat_data_params.h"


/**  Activations Section  ****************************************************/
ai_handle g_tinyfallnet_6axis_qat_activations_table[1 + 2] = {
  AI_HANDLE_PTR(AI_MAGIC_MARKER),
  AI_HANDLE_PTR(NULL),
  AI_HANDLE_PTR(AI_MAGIC_MARKER),
};




/**  Weights Section  ********************************************************/
AI_ALIGNED(32)
const ai_u64 s_tinyfallnet_6axis_qat_weights_array_u64[4145] = {
  0x2dd431dd3079ffe1U, 0x218f814b1f036c29U, 0x6e400b05512e63fcU, 0x3e4ca7fdd16514aU,
  0x3dd086034e63232dU, 0x7fde320f00bb296aU, 0x472713b3ba284010U, 0xe3f67f30fecc0e5eU,
  0x53b5c57fe23e13b5U, 0x6cf4a7025c20161bU, 0x4310bea897ea27bbU, 0xc654d43192228177U,
  0x91f8e4d7b395603cU, 0x35ba283aff26887fU, 0x4f974f58fb12c6faU, 0x4eed43b6cb142781U,
  0xa523350e2587e59bU, 0xca8dee4ebb7f3ed0U, 0xa494e91442dc7f15U, 0xc7c1462e26010157U,
  0x4116ee0cd31f3914U, 0x23bdf27f9db950b1U, 0x3b0fcb0a0bc9b381U, 0x102371651cef9e13U,
  0xd887ba64a62fceb8U, 0x7faa4b5ab0a5b5e8U, 0xca8153e14f4802b7U, 0xd7cfbbdbf7de4895U,
  0x93a5c2a5ea853327U, 0x71f3267fb0a5e29dU, 0x39c7da4d202b9e2bU, 0x691a953d40817075U,
  0x6d94aa057fe684adU, 0x1f9d582b27845e82U, 0x41fb37df61579802U, 0x9fcdfea3be0c81c0U,
  0x138135b05b4bf0b8U, 0x83ebcd43be03ce5eU, 0xe8b6accb52c64816U, 0x5c2ebb47af7f820bU,
  0x215b565dc3ceb9e3U, 0xc4e6b8b8812eaecdU, 0x81e6510ccd19dd1cU, 0xb77bb143dadf2537U,
  0xc1c681f24ce80cb2U, 0xbfe331e147cc31bbU, 0xf26606a06bc931a5U, 0x1386815c02aec6d9U,
  0xb7a78b4263bccce0U, 0x7081d6e912112167U, 0xee07f9814edbd13bU, 0xd6de9156bdcc1ab5U,
  0x2f13e151817d1797U, 0x2ea319a5391d87b4U, 0x631c4967920aa0e8U, 0x15f24f6014a4c881U,
  0x5486a5271c23cb63U, 0x8156adf96a88075aU, 0xc755d8fc54b981efU, 0xa84b39a4b9b3af53U,
  0xe1d51bccc6ce6f4fU, 0xbda87fd02461c44aU, 0xe43c734bbc3aee81U, 0x60c1e9944f31a870U,
  0x382f6d01d13deabU, 0xdd4fe0e22ffbd881U, 0xc581a2280d1aa8f1U, 0xc71a631fb54113aaU,
  0x92e05aa260dfa93fU, 0xee4fc3a581ed93deU, 0x611d8d19d15e9a13U, 0xf2002f13b9c78b81U,
  0xe5ed735963811810U, 0xb0e6913208c65cafU, 0x6d54b2cb3db9b593U, 0xf3847ff9bcfbb349U,
  0x4d41c679997f4b19U, 0xc351173917a3e9dU, 0x2caa28625cb55e53U, 0x81c2418eaf4c081U,
  0xc3ceee7ff7105305U, 0xe80b16c123f4b6d2U, 0x5bf09911c8e78116U, 0xab3233d6024ead93U,
  0xa7895e83608eed41U, 0x3b7fa3114b3d3f4fU, 0x984d1439e2d8cb0aU, 0x7fb7ff5221c52ca9U,
  0x9229d63d16246919U, 0xf73d24813f305e62U, 0x2e7a02e29fef7a26U, 0x47067f4c1142e55dU,
  0xbad3eb11502e90f3U, 0x8e0644e57fd25a19U, 0xc3f11e2cf99c931U, 0x5819865e7e0b66dU,
  0xe0d1aec8f54d49e9U, 0xea078ee1fa0dbf81U, 0x16ed811c44acdac1U, 0x28ea0f14508fa92bU,
  0x4572e80c2481e69bU, 0x9e1d9b5b342198adU, 0xf4bde97dfae2f0f2U, 0xa355288107a9d5f8U,
  0xcc6269e29e6a11dU, 0x7cf81b06f4294fdU, 0xe481c0b52d3189b8U, 0xf36e67abd0facf2eU,
  0x6d483e0ff17c8490U, 0x2c3f93981296290U, 0xed473619ef81df6bU, 0x4921238351d908e8U,
  0x561862eec4227f2bU, 0xbfc3a808443f0f1fU, 0x6d7f73b1da67534fU, 0xd2d54919eec63228U,
  0x1470731d26629bebU, 0xdd891f81d30a2a68U, 0x68bdd4a40be3f9e7U, 0x81bc322041236f88U,
  0x50504ad7f6977f98U, 0xa2dd124f6ce60743U, 0x772f6a5a7517e89eU, 0x90373aa137fec26U,
  0xa703aef02838daf0U, 0x1cf0d37a84017f94U, 0x3c1a19697f3b9a9cU, 0xedca7d875f9da77U,
  0xffffe5b3fffff73bU, 0xfffff426ffffeeebU, 0xcd6fffff42aU, 0xfffffe3800000355U,
  0xfffffc1a00000976U, 0xffffff5bfffffb7dU, 0xcdd00000dbaU, 0xfffff19d00001312U,
  0xecd0000065dU, 0x27c000007a4U, 0x10f00000fa1U, 0xae900000c1cU,
  0xf6800000678U, 0xfffffd9600000702U, 0xef000000168U, 0xfffffb06fffffec4U,
  0xaa800001064U, 0xced000015a1U, 0x7befffffe80U, 0xfffff900ffffe908U,
  0xdb9000002cbU, 0x82fffff9baU, 0xffffe63affffed6cU, 0xafafffffe0cU,
  0x8a60000139fU, 0xa780000073aU, 0xf2600000f8bU, 0xfffffbaafffffd35U,
  0xffffea30fffff2abU, 0x520fffff9caU, 0xffffe436fffff4b5U, 0xfffff51c000005d5U,
  0x14e23415446c7ea9U, 0xd2c3d30503af62fcU, 0xcc96da513c1d249aU, 0x2a00bae6c619fca0U,
  0xad11e53ebf44c7c3U, 0xc3f74f64b581deeeU, 0xf01d438bb2351dfeU, 0xf62e130d3824cb15U,
  0x559ca305a4f6435cU, 0xf677126d28e6a99bU, 0x432707edbef95102U, 0xd02dadefc03c454fU,
  0xdaee100b48171a6eU, 0x660e3743ce77618cU, 0x6a4866d3d61cf861U, 0xc97fd312173c4a04U,
  0xd7b6bf1279a31959U, 0xaa0475e59a9fd801U, 0x89205ecf533e775eU, 0x3691def4706f5a12U,
  0x87400a9e72a0746aU, 0x42dd06aeebfd37fcU, 0xe4d3cc3e8a94dc56U, 0x18c981fb40254d6dU,
  0xb4592a96ffa2b6c1U, 0x10bb9e75faeeed97U, 0x19f234c5cbe343c8U, 0x973d04ac5ec09218U,
  0x68525d0197a60454U, 0x933170281dffc08U, 0xb6e4e93bfdb7b2abU, 0x18922e588d4eed9dU,
  0xb3ea575ac7b975bbU, 0x6f1356519fa31eb9U, 0xa70361e66363f272U, 0xcd746911cbbaf5e1U,
  0x465bf0120e58710dU, 0xbef27f6e1bb49c47U, 0x940c0be452fab2c9U, 0xe1eee6edcc53fb3eU,
  0xcc47e3e8cd81bef5U, 0x31aaebab40e16ad3U, 0x93ddb232f8bdec33U, 0x2fb268fcc4f09262U,
  0xbdd5d62a4ee7bc2aU, 0x2d52201bc0645765U, 0x3e211eaa310ea6e3U, 0x636bb3013afe012U,
  0x3d18b930c144113dU, 0xdc2a3dca3b9a6a9U, 0xf4040dfe33dc7eebU, 0xe62260cb0f1d263fU,
  0xe1c250672c0363c4U, 0x454d203108102828U, 0xf97e4e4ff0c34f08U, 0xa781f69d1f42c72fU,
  0xa62bbcd41e146269U, 0x3b2ebdcd1acb5a05U, 0xadf03770c0cc14fcU, 0xda640edf28c502ccU,
  0x5e2cf99d37c8aa53U, 0x7fe6dff166e355b7U, 0xfc6b0b1bffdb742fU, 0x6e1cdce2354c0b2dU,
  0xd15cb7fbad3d0302U, 0xf8096b561dce36dfU, 0xf64a2099b82b3ef8U, 0x4aac179a07d5c1c2U,
  0x98c511c66f448a35U, 0x1e04ffef42b7f305U, 0xb1e5d128814fcbb7U, 0x1a01e4e1c63cebdU,
  0x9320112481d4d6c7U, 0x65687541eb35b3d7U, 0x1db3628434ab360fU, 0x9e0b41422a0fd482U,
  0xa058c34719dda30cU, 0x1a3f5c6d3561af08U, 0x2ca85e621648d15U, 0xcf1ebda827bbc8c9U,
  0xc0c9103f9b30f90cU, 0x49fc02e542f6edd1U, 0x18c4f76945b9e13fU, 0xb2f0332d586c3e2dU,
  0x37e0297fb7d6d758U, 0x9c19fef1f2d966d2U, 0x5950abdc53170109U, 0xdcc016ba0a04c157U,
  0xc441dab7a81ea3b4U, 0x413810bcfacfcce3U, 0x46ebc949e34633b6U, 0x8a7bd9de223a999U,
  0xb6c651bf1f1fbdcdU, 0x8125f8f267c513d2U, 0x4ee9a9cadb3401c4U, 0xeb0627484de36223U,
  0xeab7f9ccec202f52U, 0xb2d8c990aeb52851U, 0xf9c9c9281ac746beU, 0x1353744a7e70efbU,
  0x94c9c2e7a3fe60e9U, 0x47d8f509b4ac0f08U, 0x3b4daaee25b008c1U, 0x34e7991281d9ac49U,
  0x9cb3ac564fa91ba1U, 0x45abf34ae09ba47fU, 0xb84016d0f54057d6U, 0x2401f0dc122591c0U,
  0x1d38d8ab07f94de2U, 0xca0740da2f524020U, 0xb1decb98ec4fd174U, 0x17364ced19f69ba3U,
  0xea7f22c057102c64U, 0x3f065c211ea3d14eU, 0x5562bd4ffbf556b2U, 0xf135be18e0d9e288U,
  0x121accf8c61754c8U, 0xa7b5e9263216ef4eU, 0x2fab2b2dffce1c2dU, 0xc22212cc5ccd6641U,
  0x58242b54094d353dU, 0xb10fb717c74b7f48U, 0x9eed07409bce40c6U, 0xd95f17f3a4bfaf47U,
  0xa3c6c4f6e048e2bfU, 0x3aab6240e0e501c1U, 0xccaff7ea47f9bbf8U, 0xbce7e8e229cc290dU,
  0xffffd49c00001318U, 0x3cb6ffffe220U, 0x303cfffffde4U, 0xffffc114ffffd9aeU,
  0x1563fffff12fU, 0xfffffa920000081dU, 0xc5100001c67U, 0xac4ffffcc8dU,
  0xf0a4df0d84562460U, 0x240c69f6df4cf875U, 0xd46426b60473ad94U, 0x81d3151d0bab6313U,
  0xb059e85f2d8d7aaU, 0x28f1c71f90c6ce03U, 0x4f0b18ab37685a57U, 0x4f2ab3b99ccb815U,
  0x4146f627ee7fbe09U, 0xa8631723bb251bd4U, 0x6f69c34a07407fecU, 0x4cf0b0afa96afb48U,
  0x8116fafc23b61632U, 0x458b2f47b6c0a293U, 0xc530f44da0d319f3U, 0x20aa11a3d44a7494U,
  0x898cf840423bd7b7U, 0x51820aeef83adb9bU, 0xd6e0ae010be83148U, 0xd04fc30bc6b65a3cU,
  0x45de68a799011000U, 0x8e81840229f01a2fU, 0x9c124e338ff31f9U, 0xc5989959eb333eb9U,
  0xb740b3ea1145ff10U, 0x18816971f2c1b189U, 0xebc0b1bdd3b845c8U, 0xf5bc02be59fbeeaeU,
  0x24844b9a51f6c7a6U, 0xcdf662ebd607a343U, 0xea2c23e596755351U, 0xbd43d918d55f7e52U,
  0xd36ed2bb0cadaba6U, 0x2a742fb7e87f0f6dU, 0x32a5f14ecee8f827U, 0x194f29839b790b9cU,
  0xc3011911c533edc1U, 0xa70a53023cf44129U, 0x3c7a3938db3acc2eU, 0x1bf0913b81c9c218U,
  0xd11531aead6c58a8U, 0x9a11d3e30016a44aU, 0xd7eaff1a5caa91d2U, 0xca961c671e9c05e3U,
  0x810c56e41cac8d4fU, 0xf0bded46412eeac0U, 0xf52c10506f8ac92U, 0x9733b1a9e35b5703U,
  0xa83c353016d22d56U, 0x632ba8563fb1a7f2U, 0xf6f638e3cb2afc12U, 0x24d15542e2d9c036U,
  0x49ce495e4c08abfaU, 0x7f0023caba29360bU, 0xf5fb0aaabc0ac53fU, 0xab38eb035cd6017fU,
  0xe467345ba620ef29U, 0x4feb10bea354871fU, 0x4eba9a1d73026b6U, 0x6e64d9aba6f7ebc8U,
  0x181d3c50ed557128U, 0xb0b769267f1bca71U, 0x10cbb74b2230faa8U, 0xcedd07f6bcc2740dU,
  0x20ee14fa22ebf734U, 0xf767cbc29ee7b4d2U, 0xb6cdb403cf45b06cU, 0xaacd9c03f2c71da1U,
  0x9481f4235b0214dbU, 0xc2bc092638a1a3f1U, 0xa133d01b9c45e07U, 0xb6e60cde9cb668dU,
  0xe4063359ca81e213U, 0x61e90a3c3642f60fU, 0x630552fbf6bfbcd2U, 0xb501429839d0bd05U,
  0x4c1c49d01244a4b5U, 0xcff30e87ed4548cfU, 0x74470a29ae550008U, 0xdaf72ba00f089f25U,
  0x29f951bb56cfcce3U, 0x5ad09809532d008dU, 0xe7eef6ffcbb3aacU, 0x374ab902b2d9bd81U,
  0xcfecb413603e225dU, 0xdb6f520e562fc30U, 0x2655acd06c524ef9U, 0xdddc1d6553fb5a96U,
  0xeb19d5ee2fd6d7f0U, 0x7f7ba3bd6a2af74fU, 0xb40c532819f0e93eU, 0xf888e3ccd9745481U,
  0x15f2be2cf5b4b2ccU, 0xbcb484cf607ac45U, 0xb63e4a4f455a3a50U, 0xd422c31f91ac2c1cU,
  0xffffdfb5000010a3U, 0x166400002987U, 0xffffedc8000023ecU, 0x17ab000001a6U,
  0x7fdffffeaa6U, 0x1c10fffff3f5U, 0x44e000003f7U, 0xfffffe2dffffe106U,
  0xf7a5ea276c115063U, 0xb5c7f0aafeba814eU, 0x9a2744744dab0c7fU, 0xf9ad3fbe1cace72dU,
  0x2453cc99db92d64eU, 0x8077fe7676254b9U, 0x46811ca65f1cbda1U, 0xd3c6b2f82502db28U,
  0xb8d11b365e7fe4abU, 0x2c1ff101b4491073U, 0x7ca235c095d6c589U, 0xdc51941d9981a66bU,
  0x2b4881ddd1764b3bU, 0xc500915b43034703U, 0xd4c4c10ea77681bfU, 0x53e8374b3851244U,
  0x104dc46655b56b7fU, 0x3a9cdf2c2b307431U, 0x53387f639c2e1aa0U, 0xc03ce09e165bd5f5U,
  0xc8fbf957f04c38d2U, 0x5adafc81769f2eefU, 0x4e6cb0fb8a387759U, 0x4f646937fad5e11U,
  0x149acc747c421cbU, 0x60012d61811b2af7U, 0x3d9eaf3ad6544fcdU, 0x1b5a81da6bfc92dbU,
  0x267f66e3e77d82d3U, 0xa6fdf2e5c7a7cf89U, 0x54810973b4171a3cU, 0xebeabce89dc4e3b1U,
  0xdccc8d39d978637fU, 0x45b40125415db611U, 0xae38faa0d0fd5a0cU, 0xea741281ef3363ffU,
  0xc52266a657485bf6U, 0x24fd907266057f9bU, 0x4b17373dcbba3b7fU, 0xb5fa2dba7a172e8aU,
  0x716b887f1c2b9a23U, 0x77164be66466c974U, 0x6dc210b2d65b79eaU, 0x512de13f8108e39bU,
  0x992e40c4f08ec57fU, 0x1c3e9f3af26757f3U, 0xe8beb2d827f58121U, 0xf846bc9e57d89902U,
  0xdf6509f143817769U, 0xb0823b9bc8aa27e3U, 0xbfb7479e331e81cbU, 0xedd507c4bcc90a2dU,
  0xfee581d2d8d3d304U, 0xdb5ce2bdcde382abU, 0x55e26608007f9dfdU, 0x1d20a89e90fde9d7U,
  0x7a7feaa5e3b00b60U, 0xcec3d79e0b7e27ceU, 0xccd4a8497f7a44d4U, 0xb52135424812852cU,
  0xbacc305a301dc02aU, 0xebd38beef281a341U, 0x3e110dd1a22f4057U, 0x4d307f090f7f9c44U,
  0x99a40c1c3f4415f3U, 0x8c8156daf927202bU, 0x4dfb7f9edad3660fU, 0xa62666da166029a7U,
  0xb41819810a862f26U, 0x343db3f0229f2097U, 0x3bc0fa56dded08a5U, 0x490b587f89aa09c3U,
  0x7f68ba124e24b606U, 0x7a9e3dd02979c11eU, 0x7f1d07a43738c164U, 0xb173e6ed84236ffdU,
  0xa816a104e63b19dU, 0x176338f1889629U, 0xfe2c1299816c1d1aU, 0xe4b01fcef72052f9U,
  0xc67fadb285c64613U, 0x165b4436c2efae8dU, 0x91cecf1f81ded796U, 0xbfffbb1a38571fd4U,
  0xcbbe532fee4074b0U, 0x99037c7fedb6c026U, 0x28d3be9cceb4f2b3U, 0xaec49c2cad257feeU,
  0xcd47bb123d4f5fc6U, 0xe6ed4e0b81756497U, 0x460c48e9f311d166U, 0x41812ebcfc25d5e3U,
  0x561545553ce726d5U, 0x1205f71f358111deU, 0x397fd0630a0b0a18U, 0xa7cb603bd151e1beU,
  0x4024a3a73b93c275U, 0x5b3aa18167c97ca8U, 0xe02df34672c1968U, 0x92534cffc5819acfU,
  0xfe718c4260b2584U, 0xc85d77f585b6102U, 0x2a50bc16c0db18abU, 0xe35a4181f2723151U,
  0x1a7bbc8d2d347f14U, 0x6036325e39cee625U, 0x7a2833a5b97fb793U, 0x2238b350720be7f0U,
  0xcc5aa9045daa5862U, 0x81333aaee2f9f392U, 0x4aaf262912f305b3U, 0xae7fa232ad79f60dU,
  0xbf24c53527812e1aU, 0x4b0a88c20ae5db1U, 0xe769f2f27f6efda5U, 0xaec93273e1856b8fU,
  0xd29d87c412df81c4U, 0xf89c36993f5c04efU, 0xa87cf05c87767ddeU, 0x38e6811beac25486U,
  0xf211ffbbb047684fU, 0xef7fcbe60e3363a8U, 0xf148898118b15663U, 0xc5b53bc8b8b9f0bdU,
  0xcf6e20b3764798d5U, 0x6c26cecb0b7f3095U, 0x3805c6bd7987a6d9U, 0xb0f9c2027fe09413U,
  0xfffff7b200000479U, 0xc9cfffff6b7U, 0x19e3fffff5a8U, 0xd8dfffff52bU,
  0xfffffcfdffffe59bU, 0xfffff2d00000008aU, 0x6adfffffa69U, 0xbae000006e4U,
  0xfffffcfdfffff465U, 0xfffff62cffffee50U, 0x1dffffe7f7U, 0xf35fffff64aU,
  0xf2e00000099U, 0x4d500001803U, 0xfffff6dcfffffcfdU, 0xffffeead00000975U,
  0xfffff80f000002cdU, 0x1b400000a4eU, 0xfffff353fffff2ddU, 0x52000003b1U,
  0x12f8000005f9U, 0x1354fffffc93U, 0xfffffd0efffff761U, 0xfffff491fffff714U,
  0xfffffbfeffffff3cU, 0xfffffd8cfffff9c6U, 0xfffffac5ffffe9f1U, 0xfffffff9ffffff55U,
  0xfffffb1600000b45U, 0xffffff0e00001540U, 0x992fffff5b0U, 0xbaafffff76aU,
  0x18bab606151c18b1U, 0xe44ed52e1ce27077U, 0xe9812f583edd48cfU, 0x410004c2200d2336U,
  0x96f05904eb26d594U, 0xabcf15c5c24ce93fU, 0x66203bbd28a1b82eU, 0x88dcfca823ccc9deU,
  0x255f1fa23481eedfU, 0xa8e9f9b3e00528a6U, 0xd6ec1e131bbe0fc4U, 0x1fb9f8ced0e1e3aeU,
  0x22effd17c0b35546U, 0xadfff6fab6ed1cb5U, 0x28a549901a4aaba2U, 0x99b9ffde25ef0db4U,
  0x8134ad1fc443413dU, 0xd9e31552cce751eaU, 0xb9dcc1bd05ce9548U, 0x1bd90af0564ca544U,
  0x22a5200106fbe666U, 0x573f08dd105be5f6U, 0x21faf8e01356c0eaU, 0xa50924e70adfb33aU,
  0xa95ffd54e3dcc930U, 0x6169fc7fc845c2f5U, 0x2104b4806c2342fU, 0xe3fc3ecbb10ed3dbU,
  0xa6ea2a625d77c4c1U, 0x79cb734a94aea19U, 0xe845aeb73069dc66U, 0x17dacbd706523cb2U,
  0x33daf2e31ed4edf6U, 0x4b37cb2056faf301U, 0xfef7eccb59c61d28U, 0x1d3b7fe45233ef3eU,
  0xcb09c1041c2febf4U, 0xdb50b5e2b33e0bb8U, 0xfab3ecce55f505d4U, 0xeb473e274ddce3c7U,
  0x1537f1fa0c185ec7U, 0x268a3eddb7f65bb6U, 0xe7b00a4fcf1ef6bfU, 0x29d129c8a816c014U,
  0x433a81483cf0bec2U, 0x1106feb7ea2c504eU, 0x3edf360513bc2cbaU, 0xb24d4c6f411c026U,
  0x2a4fa8b937be26a3U, 0xf6fb57f714b2ba3aU, 0xcae930df1c2ed044U, 0xc210534300bf1bf9U,
  0xc3db2d0b247f492bU, 0x41fe11b5f5cb9bb5U, 0xf79b05c0bcf8f616U, 0x3b39d8edbdfe3537U,
  0x4eaf3f42dfa6bf9cU, 0xe70cb13542a553e1U, 0x26eb5fc0334d5ae2U, 0xa1e481e43f613a04U,
  0xda311918ba52f01eU, 0x4cf622a6a5d614b2U, 0xd852060ab73fd4f1U, 0xa5d2bd42b237e7fdU,
  0x37c9394ad956ff45U, 0x1db412814e008ddU, 0xf112c2bd4448fc2eU, 0xdfe30930ac5cece9U,
  0x2a182bbd0bfb7ffeU, 0x4d132627d50dc6c2U, 0xd7fcece40a4549e7U, 0xe30f3b2f2aaab7e2U,
  0xb8ba20072b0b0234U, 0x621a2e1927fac90cU, 0xbfc3ce10db2115e9U, 0xd1f038fe0c102446U,
  0x4ccfe952afc012d5U, 0xfee0e4ffd6ab2b2bU, 0xf2e1c99b4b7f164eU, 0x6306bd09b933cf17U,
  0xd1a7153324cd1cbfU, 0xf6d814cd5ce20216U, 0xee0023dde9ffde00U, 0x2356bfd53b28efceU,
  0x1a920dfddfe8c218U, 0xdf1609a3c51efd19U, 0x81ea0d32a4270e47U, 0x30b2c0b5be3f370aU,
  0x13706b81cbf142cbU, 0x71e12a0092472532U, 0x2f04ebb0540e244eU, 0x1f2ed1d061429e5U,
  0x6017ea1e013348efU, 0xf7caa656f72f40a2U, 0xf2ce39db495cdc98U, 0x96422f77732aeaf8U,
  0xa7bbab91fa14b3eeU, 0x8120db2a274b2904U, 0x4ed15cb2182be4beU, 0xc141f3affdaf83cU,
  0x18dcec3a31f5fbd3U, 0x8cab202bce0581cU, 0x1c04663bc6250237U, 0xadcefa1fed34e2feU,
  0xe0b7e2b53d1c3d87U, 0x39904924e3fc61cfU, 0x5f5ea2bd63e8142U, 0xf8dec6bad43a473bU,
  0x3a840af12f184028U, 0x114cd93df0b602f5U, 0xb8a4d8b7c91c3fd3U, 0xad99023da3cfc441U,
  0xa73e3514ca23b293U, 0x91285435eb0f2a00U, 0x919fce32f5ccaa25U, 0x34e451fe3755e8f9U,
  0xb72aae023a18a666U, 0x1b5781fa29a74ac3U, 0xe73034d00712f410U, 0xe0fe291e97eb2d20U,
  0x29d4fcf38e8fb27U, 0x372844ddd09f4461U, 0xd735e29d24d2cec3U, 0x45353694e8ab4558U,
  0x2e2e5dc881d713dbU, 0x170bbeab0ae3c7c8U, 0xf28d3153f928054cU, 0x1faf6bd1934d85bU,
  0xc71d6181344ef8cbU, 0xc1c10ead101fbaf9U, 0x256746de97cbc0cdU, 0xcf3f2ce1bca5120dU,
  0x1545344e35c96006U, 0x74fad2fb341a5b2U, 0xde20f71513aaf51fU, 0xabfdb024c3f1f0e8U,
  0x1cb72032aeeff1a7U, 0xcd4ef2a50fb4cbffU, 0x310c68b5bb1313ccU, 0xd86b9e81111c90fbU,
  0xab24ec91c28383bU, 0x6cc31baf851f41cfU, 0x3632033ad1656362U, 0xbd07c3587137e314U,
  0xef14f77f3a5fc71eU, 0x2ed52ef92131345aU, 0x17e60bb561d0f826U, 0xe0dbffc8c45fb911U,
  0x28f562be030a30f6U, 0x3d9af00c24340f4U, 0x19bd5443102db321U, 0x284dfc19f713cee0U,
  0xda3097081055dd2aU, 0xca2d1157cf29c5e5U, 0x1356ed28e33ecac8U, 0xca12e7cad9045e38U,
  0xb2cd34bb163b2129U, 0x31de9461320b666U, 0x2ebf9be4f96c6d3U, 0x52f9b37f03d0960eU,
  0x1d5bf3fc2792c2adU, 0xfe2d070561fe3471U, 0x81aff9e14db2c629U, 0x4f9d5ea89235a141U,
  0x329a6c1f308c79eU, 0xf70de4dedbf2d038U, 0xa8490a54dc69402cU, 0xab0861453b94a617U,
  0x9aeecc4d2d24b03bU, 0x2adf39040273a9a3U, 0x82e4c398d32abd62U, 0x6e4d34fa1cfb908eU,
  0x813c1dac5b51be77U, 0x2c61333e3b12c882U, 0xe6781d30d815e026U, 0x2db85f9fe38edb27U,
  0x407a421937643a13U, 0x9e13e315dbaeeffeU, 0x15315d2162f81a91U, 0xa20c7fc3c3b61333U,
  0x1188e5c6341ceaf1U, 0x14160b60d3c83716U, 0xeb07225014255833U, 0x3ffcb6ebea6c21aU,
  0x31639def1ee3e21bU, 0xcbacc6bf585fb46dU, 0x1179d9db0d33ec20U, 0xbaf47fb70c635669U,
  0x1f03024eb1082251U, 0xf3d424f2cc010c07U, 0x62dd3631d5194106U, 0xd5202103dcbddd0eU,
  0xdec315082b4bc950U, 0x70193c220aa7f448U, 0xa23c2302f515e48U, 0xc8d80f45b93fda4fU,
  0x43f6223eee7f4bU, 0x3ddaa5140c1f94d2U, 0xd236f2e3fbdddb48U, 0x41ef27cf0ba892fcU,
  0xbc222525cddfb43aU, 0xd1bb428a43388cffU, 0xffca300604c0ceeeU, 0xdc197749e78e4270U,
  0x9f9469aa24f3987U, 0x93cdb7e3f9d056c4U, 0xaa3cdddcc2d8b91fU, 0x5c4881b545544b3aU,
  0xed1cd031fdc27cbU, 0x84812fc4fe4c800U, 0x35c024f67fbcfc11U, 0xeabf6728defc2821U,
  0xf217c4ec3d4b4cecU, 0xfcc4ddd2ce060ee0U, 0xf8c9d2114bf90c02U, 0x39cf25e5fdb9bfc0U,
  0x2cf0e903ffd6a7d3U, 0xd5c229e1cd2a8635U, 0xc62923d298d12cf2U, 0xace3fb137106c981U,
  0xe90ed022ee56ef2eU, 0xaf26251253cd990aU, 0xbefc00eac6ae2ebbU, 0xda8b8f4b824b73dU,
  0xff12ea2905f7e2e9U, 0x7f18260de2f4de24U, 0x16400cc6530adc00U, 0x21cb4ef01451d20bU,
  0xef1033f826fa103aU, 0x6f33ced3c30826e4U, 0x13ea2af02de1e2eeU, 0xcee9d4dfe420d6d7U,
  0x44961037dd8abbdbU, 0xffb31bd3c2d92e04U, 0xfeef92f8f70a182cU, 0x69e29d11b43f719U,
  0xf1518e5dd30d435U, 0x72dc2139404d71dU, 0x95391f01e13cbc4cU, 0xcc81af52d2dad8d8U,
  0xf70f3a810727421dU, 0x18d70ef868ca2cc9U, 0xd714ca11fbc7c41dU, 0xc64096a22013e23eU,
  0x97bf24b004fca906U, 0x4115c72a03e9fbccU, 0xe6a825b116f23421U, 0x1c07c6ce3c450712U,
  0x9b41b69e88c53358U, 0x81544f0abf6ea018U, 0x4b1f2eed121748f7U, 0xcee7060083a25ae2U,
  0x24dc634dd250d12bU, 0xa6ada508ce49edceU, 0x19af004252de5cf8U, 0xce5d1dff73f64afU,
  0x265ab733f7c73281U, 0xfdcfebedc79e25bfU, 0xad11a91fae2ec687U, 0xa8a53f035ca6cdafU,
  0x3ae5dcfad9c6effcU, 0xea5e33221e04e0beU, 0xe93a4c38ddf13affU, 0x3a0e11df1296992cU,
  0xdade141dd8dd1e17U, 0x58072011292828fdU, 0xc01becfe38d8cc1dU, 0x20d21c37dc6724e1U,
  0xc419f5f81c172724U, 0xf21be616c838f3ddU, 0x3ddbe8317f19e4e0U, 0x2edaeef310d523ccU,
  0xd935cc7ff4e20a18U, 0x90bf3ddf1dc3ae2U, 0x21ef4afa0edbeff4U, 0x32e522dc3a062dd6U,
  0x21e85dfd380b01ecU, 0x261e11e8f43ed8e2U, 0xd6f0dbb66a04e62cU, 0x6fcf3c6bcb9bffeU,
  0xcd25b90fef81a7c1U, 0x3af5d0f7c6a54eaaU, 0x26e3ada2bd483152U, 0x12c3594df8edd5d2U,
  0xbe2d5048d9d8ca0dU, 0x1f43e7348b4bfc03U, 0x33d0f8d413104b5U, 0x5af6582bdb46b062U,
  0xc9f445f53ed34bf4U, 0xfef82efed0a555b2U, 0x221c2322e4f2e581U, 0xc2c80013bf1fc127U,
  0xcee6d8b9e4c920b7U, 0xc13e14d918d7f3cbU, 0xbe08cacd130208e8U, 0x2bc7e01c210fe1f9U,
  0x1d5c827ee54bef2U, 0x3f43e1fd065ac1c8U, 0xdd1c1a3342efa7f2U, 0x2e3ceee70232fc42U,
  0x18476835497f0309U, 0xfc48d052d8ccf8a6U, 0xe0a9d8d2090ae2feU, 0x39f807241b27b8d0U,
  0xd3ca61a540bbc522U, 0x96e7c01cfacc4833U, 0xf82fd062d5912fa4U, 0x3d0717cb22c103b1U,
  0x74d57fe14f9901b2U, 0x5f170b118a27ae2bU, 0x2e899dec43c08538U, 0xe986b1c6d85b4d6aU,
  0xe0db01f0d22eb2d5U, 0x16ed38291e522d05U, 0xbd2bc2037f0016fdU, 0xbe1dcd3f1de72438U,
  0x183d23294735331fU, 0xeee330c5d3ff3fa5U, 0xdbfc03edcb38eb3eU, 0xd23bd38f7b1c8b2U,
  0xd3d4c12d13ce54d4U, 0xa6be60d65ae70810U, 0x2f5c3515d634f6dcU, 0xb6fb546316ea364aU,
  0xc9163a148f26ca3bU, 0x515b1a09aa4bb9bfU, 0xd32e1dc4ae4c5aeeU, 0x39caf67f42f7d4a9U,
  0xd0adb7a42a38cbb9U, 0x14f4a7b64bd7205aU, 0xd89a09b9f22c0700U, 0x25fd172e2b81123aU,
  0x49fe6c250d2ef4f5U, 0x2fac4714303d5293U, 0xb3fddcf9ed2319e1U, 0xb315f7f5e6de112aU,
  0xc3f0b80d33d4cd1dU, 0x54fc645bc8c6b301U, 0xcedff1fc1243bbfdU, 0xd3471e16eb237f01U,
  0xd1c5fcea3adb46f3U, 0x1e4c593fa9f30340U, 0xfe263ded4b164156U, 0x1f4eec4445c3c7f1U,
  0xbe030ee5d2bef5c6U, 0x99b8e754fd0468aeU, 0x81acc0b9f9cc11d2U, 0x304c0238d62a4499U,
  0x4ade43aadb19cbadU, 0xb6cc1f5331cacaceU, 0x43e43aca8f20be4cU, 0xe5a54157dab2f33fU,
  0xc8d5c183bfb10d2dU, 0x8e0cf42c8cff35abU, 0x39dafb0badb710a2U, 0xbe13ba92f3d4ac81U,
  0x51f9210419510d15U, 0xdbbe2935044af59aU, 0x40bff2d72b17dc05U, 0x242d451f25e2e126U,
  0x36415d3c9fe4e6c0U, 0x32295cb92bc351e2U, 0x441cf8a95d14d9c5U, 0x1c942d1bdef915d4U,
  0xcb22fe1cf5ec162eU, 0x7f694af1f2dd0c47U, 0x10ba1db4beff54b4U, 0x1607e65912be3629U,
  0x543e0fb683152350U, 0x15aecc5ffd590923U, 0xdc575a00d322d481U, 0x9d650e2c879fbb0U,
  0x3c2240cb079131b0U, 0xbb26ac350fc1b3cfU, 0x38c1f724515ccaabU, 0x1c13d426f0c743faU,
  0xa0df1c46f56ecefaU, 0x624e5dc2dfd018ddU, 0xb4e04c257f1fea03U, 0x3a3361be201da302U,
  0xdd0f54bade2d3c36U, 0xf0618fe0d270c4d8U, 0xedd65be656d9164bU, 0xefb7ec4554dbddcfU,
  0x33d71d5153c1dc32U, 0x12fe40b62360e50bU, 0x8cd1ad44750446fU, 0x8d58939b36321146U,
  0x5813b25091c129eU, 0xfcec95ef0164c6acU, 0x38a879cd1a2200c9U, 0xee48aac4ee15229eU,
  0xd40817badd6cbc16U, 0x2c0610d776694a11U, 0x4b8e6ebf4549815dU, 0x3883090b31e19192U,
  0x10d2c10353170e06U, 0x571d997d2b54e399U, 0x4e4ba0ae1c73d9dU, 0x3005a346a712bd34U,
  0x92d74424c2d32cb4U, 0x41e82faf7ffc2b56U, 0x82e748b2eb5a22f5U, 0x372be9dbb8f54b23U,
  0xf9d63f0df906582cU, 0x45eda124cf7358bbU, 0xe64127ae6a0fdfe3U, 0xef55fddbacbf18ebU,
  0xae035d931931b99aU, 0x8125e64b2ab113e4U, 0xbf4fd048b45f4dfU, 0xa33909cee35bf43eU,
  0x20f4a1fc1fb3b5c7U, 0xabf02ce42806b427U, 0x3236e021c121ca00U, 0xdbcd3d542a2ff452U,
  0x2bf7c9b115b24d3dU, 0xa2d43303a6e7d558U, 0x3b273016bd1e8139U, 0x2f11092bcbfc93c9U,
  0xa518f29502c6c7b5U, 0x9dc52ca147d33311U, 0x22b5a195164bb659U, 0xf5e8ff50abd6f59eU,
  0xb605422ca67bdbc1U, 0xe217c9235a14a522U, 0x220cbcc35ed71a72U, 0xaf345a3c30ae371aU,
  0xd3c2ff599414de37U, 0xf9bccdd92b7f1ed5U, 0x49ebd8a6c54b4b0bU, 0x5a41279559c7fbedU,
  0x6675cdef9047748U, 0x1c2f375a1157bafdU, 0x2c02dd93a5ed0ef1U, 0x1ced6637b1be97cU,
  0xfcfbbc1f42ffcb5dU, 0xdde639ffbdc0f5f4U, 0x9b7f01a34cbe583U, 0xfe8681f9b53314a9U,
  0x3f0c6af9748adaceU, 0x42f5ffdb4ed06881U, 0xa8294103e2679218U, 0xdfa927df1c7452aaU,
  0x32c9ea65de2c9659U, 0x46bef6d362cc5ae9U, 0x22dc073ff64ce95cU, 0xcf2ef16dbee609adU,
  0xc0e111a0c0ea0dd3U, 0xef64ab38dde80370U, 0x13da414e26fdd741U, 0xd91f467dd1106e07U,
  0x4ba5e3ff05c0470dU, 0x194cb1b917d83feeU, 0x60d444ec422b7acU, 0xd408d14058b0ce81U,
  0x3bf407efd1a528ecU, 0xfb1530d1241045e5U, 0xd6d82be241f4f906U, 0xc8e37fdfdb2b31f5U,
  0xf537cc3b05271827U, 0x3ad9f30e30f0ee0eU, 0x4403f303d439bc31U, 0x400d2c5b16e6ce2dU,
  0x563d1146cef6199eU, 0x28da05a7fe94a7caU, 0x2fd931cc36caec5cU, 0x2ad667fd555b50b2U,
  0x2b9dc61ec715d63bU, 0xc904c663d2479ce1U, 0x623d5ffdd43bef69U, 0x497fcb79e630e5b0U,
  0x4c562c32951270edU, 0x326317737f3b9f08U, 0xae676e986325caa7U, 0xcabde2f85a37f8eeU,
  0x34c224d572f1fd1U, 0x6d3d29f2326250ffU, 0xebc7d2c9c33e097fU, 0x5f4e8daa120a1d5U,
  0xc3f5f74dbb62e44eU, 0xb6f304cbe4daf4edU, 0x42ca4640d652d13fU, 0x1a95b50e8c2ccfdU,
  0xafe3546312fbfec2U, 0x19fb2f0ec3b234f2U, 0xeb7f58eee4ced1c3U, 0x4977c76726283dffU,
  0x37c2677fece3c83aU, 0x783bb7ed1425d33cU, 0x1e4646a293f3b360U, 0x3a2241cb2ee10e26U,
  0x29fc08f446e1e8adU, 0xf1d4d1e2e25ce9b5U, 0xce27289c061dbcc5U, 0xeed63955202ca6abU,
  0x31e330362620b8f0U, 0x63345a187f0ef2bdU, 0xc9df5cb31a01d6e8U, 0x19b9ef2ef401fdffU,
  0xd91d4a1b54c6c303U, 0x140ec9e226cbebffU, 0xc401d52445001f2bU, 0xef341ab34ed51de1U,
  0x3eb4e1398d24bacbU, 0x33df24fcc06e2c97U, 0xc4fc4f1681fd45d6U, 0xdc90b4ed765f3c1bU,
  0xa8cfc74f3848ea4eU, 0x15d43debe9a42126U, 0x2f9634e94f2702e3U, 0x3bc628af36ab0713U,
  0xffffff7ffffffff8U, 0xffffffc4fffffeffU, 0x83ffffff8dU, 0xffffffef00000013U,
  0xffffffc6ffffff83U, 0xffffff830000001eU, 0xffffffa3ffffff94U, 0xffffffb0ffffff13U,
  0xffffffecffffff72U, 0xffffffc9ffffffc6U, 0xffffffa6ffffffb1U, 0xffffff9bffffffa4U,
  0xffffff38ffffff7eU, 0x11ffffffbdU, 0xffffffb9ffffffc8U, 0x1fffffffecU,
  0xffffffc4ffffff6aU, 0xffffffa6ffffffa8U, 0xffffff8d0000003fU, 0xffffffd6ffffffb9U,
  0xffffffa7ffffff36U, 0xffffffdbffffffedU, 0xffffffb1ffffffdcU, 0xffffff72ffffff90U,
  0xffffff7bffffff1bU, 0xeffffff79U, 0xffffff69ffffff5eU, 0xffffff77ffffffd1U,
  0x37ffffff92U, 0x16ffffffc7U, 0xffffff00ffffff7cU, 0xffffff8affffffaeU,
  0xe95b18f101fa13eaU, 0x191ded07e2d86209U, 0xeb342ed92f24fd12U, 0xdffaec5129000220U,
  0xd6d948f907336b2bU, 0x112f2ce93024ca19U, 0x2f12011b0fe51debU, 0x3351081b31372103U,
  0xeff5fee5f113ddd9U, 0xd8fb17ea0bfd1619U, 0xf05e40a2afff613U, 0x12f6142f0f270cf9U,
  0x1ccc54d7db253d16U, 0x2f70beb00ffee05U, 0x1c1adde106e11d2fU, 0xfc1f230f24241b16U,
  0xfd2c03232f1f2fd7U, 0xef21231431081c13U, 0xa2be11313044421U, 0xf020e7420e170702U,
  0x1cf54322e7fe42e6U, 0x1a1de701fedddaf6U, 0xe91b04d6ee081f1eU, 0x216104e02e17ebf0U,
  0x121831f32c1a29ecU, 0xf82f0f0e2c03f228U, 0x4404f91f08025dd0U, 0xe5fffa210f0b1602U,
  0xc1d46e228050d04U, 0x3ff0e8de1fe9d4e8U, 0x61b0612d7071816U, 0xfe1116e32afb01fbU,
  0xd7f5f213e7fffe11U, 0xdaf019fa3a15fc15U, 0x2a01c21e121718f9U, 0xf0d5fd4af61c0714U,
  0xdbd929e5e1032309U, 0x16da201c0b12f801U, 0xcfcef102e927f0e9U, 0x3f5fc2af0272132U,
  0x33bf9f8cffb04d0U, 0x2c15f12136db0efeU, 0xfa21ff2b22232210U, 0x1de7f126e102f82bU,
  0x250a3e01db2600e0U, 0xd7ec1d1b22d90623U, 0xfd461dcdf523d9f7U, 0xdafe13f704cdf91cU,
  0xdf1a141321f4ed09U, 0xde12f7e61c1edc2cU, 0x1913d4f3143604f9U, 0x38f1eb4cdf1f1517U,
  0xed113d061108492bU, 0xdf0219eaf41df00fU, 0xdf0ded0eda1ffe01U, 0xe93930fb01e3102dU,
  0xfc1b001b2a13dc20U, 0x81bdff83cdaca18U, 0xee130c394405e20bU, 0x17e6ff26062cd321U,
  0xe22f54e1f31734e8U, 0x321d1dfc16d8e40aU, 0xdc1f03f2d7050af9U, 0xd3e0fd7f2090912U,
  0xfa06e8f02de5e3fbU, 0xe704071c24011de6U, 0x170004351b3decf4U, 0x1c0ef519f703f6feU,
  0x22ec3efb08ff2ed2U, 0x10dcec1afde42925U, 0x1f060af8f928160bU, 0xe72ad82e16e1ff0aU,
  0xd3e8db23d9f7fb20U, 0x1bd8f0f000d5051dU, 0xf1a050119340715U, 0x19d7f23efb360e05U,
  0x1e1f2f0ef61d0326U, 0xfdddf927ece92710U, 0xf31f0918ff0ddbeeU, 0x2e52f2000af9e41eU,
  0xde11faddf0ef0f11U, 0xf21bf4ffe525fe0aU, 0xddeea1b150d3ad5U, 0xdcfade2dec0df92bU,
  0x2e31cdaf21e390fU, 0x30416083e13f6U, 0xe4d7d5d3de29e326U, 0x15050e210afefd35U,
  0xfee7df4a0306e507U, 0x3300e6e2eaf61af4U, 0xbee1010d31fef02U, 0x1610d71e241e1819U,
  0xe4d1eeefe50c37d5U, 0x61db1f3bbf800d3U, 0xc7ff10d4e31129e7U, 0x54c35ddf1f9d821U,
  0xd7c6eaf9d107cd0fU, 0x2600fa11e7358cf0U, 0xd2cad4330dd2d004U, 0x29d810b2dee1de1dU,
  0xf10dd1ece5c881d3U, 0xf7f6e0f805fc39eeU, 0xc1dfe814ecd0fb1cU, 0xd09b04d9b108c3efU,
  0xdbf5f8e104ff132aU, 0x121ceaf4df2aedcaU, 0xd7e7240cf1fa0110U, 0xfe01efd60be8f3e9U,
  0x1e12ca2910efd1f2U, 0xe0e4262a2e160ff6U, 0x21d21dfbd6e2e1efU, 0x140ad01fe1d71d0dU,
  0x5cafee3180bd6edU, 0x21e10ee7070effcdU, 0xefe000dec3d5f2d5U, 0x9250fe2e115fc03U,
  0xdaf9ac23f7e194e1U, 0xf8dedf0516fbe814U, 0xd9e9ea2deedafce8U, 0xfebf315bd02e8faU,
  0xf51506f4d91af41fU, 0xdb0c2113dc19fbd3U, 0xf20ded1a16e69b25U, 0xef23eebf1ef9f1fdU,
  0x1d1ab531fae4e8e6U, 0xd20b1e1ad803f7dfU, 0x21e231e911c01315U, 0xefdbcfe5ce0c0cdcU,
  0xfe22fb0301fde2e8U, 0x22cd0b01f525cdd8U, 0xcbfb00cacedb05e9U, 0xce26f2ccef071ed5U,
  0x2705c0e5e609da0fU, 0xc7111a1c1a090adcU, 0x1c29ec290aedecebU, 0x1c1d18f7f2ea13f6U,
  0xe68815f1f8fafc01U, 0x12def4dfc1e909beU, 0xe3d3eec9ea02f709U, 0xe3f0e0ea23e813fbU,
  0xf71c06131602fae8U, 0x17ece328dbddd010U, 0xf4b7ebf003f3fb03U, 0xf8e61d1603ed02eaU,
  0x1af20df317f3d9ebU, 0xd0d9dfde131c0cd2U, 0xce13f4fadce60beaU, 0x8fc06e729e915fbU,
  0x14dabfcaefefe91fU, 0xe61605f0f3a31ce1U, 0x14d9ee1ce703141aU, 0x21ede620212b050dU,
  0x3112e6ccfedb06fbU, 0xccbf4d708fd08e8U, 0x1d360bfbfcf412eaU, 0xe3f421d510d8eae1U,
  0xe809cb00e0e3feeaU, 0xca1031dadbfce4d7U, 0x11ee22f221100a07U, 0x1ee1162a12e6dfe9U,
  0xf21316cad6cdf818U, 0xf6dfe82006eb0becU, 0x4141e1310d5d116U, 0x2010dcf3eccdf9e9U,
  0xd804ff1afcdee015U, 0xfe1c000f130906ccU, 0xe0ffdcf004d408f8U, 0xdd0f07d92427f7d5U,
  0x3334280af2ea0eeaU, 0xe7ee0af01d39eefcU, 0xe9f20a01cfbaf5d8U, 0xdb26e5e2bfd3e4fbU,
  0xf3f007fe220cd711U, 0xd0ecf618c81105ffU, 0xff4d401ddfd2520U, 0x1f89f0d414ecfc09U,
  0x1eed0f1111fbff01U, 0xbd131c0af6f201daU, 0xa23d6e42bcce336U, 0xbeffcc0f6fc0fd3U,
  0x2d00fc061a23b710U, 0xfb1e1a08f702d706U, 0x13f7eef31a0c1bebU, 0x5f8e41c21ef11ddU,
  0xf21d42eef7183d10U, 0xf1210e15fb1be305U, 0x101bce030f070b10U, 0x9310a07d4a538f0U,
  0x10bf642eae40120U, 0xe3c6fe2445df221eU, 0xbcff0ee021bc81aU, 0x16f20a0c22353bf5U,
  0xe4ffffff1cU, 0x3c0481a1f8d12a08U, 0xc0aa14fc0b0f9bcdU, 0x5fdc34b5a87fdcd9U,
  0xa85c359c38ffe90bU, 0x6452d881126ea521U, 0x47f1f3a805bb91f7U, 0xffb12f5460223e4aU,
  0xe64e3da27f00bdafU, 0x6e8e173ee4615175U, 0x2581d1d9419ac1acU, 0x8ea35ba8a04229e0U,
  0x38f4f7d5bb81fa3eU, 0xe54615cefcdf2523U, 0xf7bffd1b161b2f51U, 0x333bf5ab7a77dea0U,
  0x8eccda7fb0da3261U, 0x747c96f81fa3623U, 0xf45c5fd3760298adU, 0xe8c93398c12bbd7fU,
  0x91d10752389957dbU, 0xf458d6557f8f32e6U, 0x9aa36a94fc2c7296U, 0x81b8fcec2ac513fbU,
  0xe2d3207a5c57fa4cU, 0xc76b03f7d4e1a90dU, 0x2a03fbfa27c5db87U, 0xb16267fccaa50U,
  0xc57c5c3da0c1696fU, 0x1c3da37f6bcb2f38U, 0x4c2f871940e2dbeU, 0x11ecc10b81e8d957U,
  0x5efe3e7f4d19f9f2U, 0x115c09f9b63e63fdU, 0xdcc1e86b2820c25dU, 0x44aac9ebb2cff1c8U,
  0x89e8e1e8e8588126U, 0x35ad14a35b815ac1U, 0x54aaf6a872b0d6a5U, 0xd42b9f0ddff96028U,
  0xdf8146bfb633e9a2U, 0xd4b3fdd60d9b519U, 0x38605681ceb2735cU, 0xaa3c57b8dc41f4e4U,
  0xef000d1305cbfaefU, 0x2a7f920a704c8b1bU, 0x2222571a5c77c252U, 0xd13ca55b414b81e9U,
  0xe767dd78813cf1deU, 0xcc8de07bcbf695eU, 0x8247e2e053f996f1U, 0xd118cc2b3b815969U,
  0xb60773aa5540b147U, 0xe1dd1b56db31488fU, 0x85918164d04057daU, 0x327426dbbff000d3U,
  0xfd27400c81f2fe24U, 0xc87f7cd3d33e042bU, 0xa2b81119f581573eU, 0xb16a977fc18c2ddfU,
  0xf7c65830ebc9fab2U, 0xb96f5c73d4c318afU, 0x36fdfcb6d21933caU, 0xc9289ef1dffa81baU,
  0xec2224f415b80e7fU, 0xe62fe838f512c6e5U, 0x54a94ae5d7261733U, 0x5b7fa32ea7866462U,
  0x2209ddbc249e14daU, 0x22d6c3184b3f29f1U, 0x9b988145ac2e1da9U, 0x8745c5be0daf81daU,
  0xef26f5549e422330U, 0x8a81f76ce0f84a8eU, 0x7646ed11ff249917U, 0xede9ba302b817f46U,
  0x1cc4ae4f3ea90b9dU, 0x484c817f06bd7205U, 0xeb12d2fe3c4042bfU, 0x19ed7aca02bb5616U,
  0x8ffd7f790e1abc34U, 0x657e5907afa3d47bU, 0x9fdf1f8e68f5ae23U, 0x5b2248b9ecb0054cU,
  0xd7f60b24db817f1dU, 0x7187c0659a96e8U, 0x3adeaa328ffed80aU, 0x3e5dc31c2281dc58U,
  0x453b56a223ed0bdcU, 0xd6f15e38bba6bdf1U, 0x4cd74d0d86787f96U, 0xc0ab010a1f5fcde8U,
  0x3111ae5ac47fc0fcU, 0xfce8ab1c9e7fb86cU, 0xffc8eca7693d4841U, 0xf8f7bd2be23ea1a5U,
  0xc3aa7aa0c763dbf0U, 0xa80e81ffcfeb2cb1U, 0x8e5cee811269f474U, 0x5b45efb3f8280babU,
  0xc8b6d08c282f3d2fU, 0x86d481579350450dU, 0x3842b905fcea29d0U, 0xeef3af2d008160dfU,
  0xe5f9cedfdd106650U, 0x191281bedd1fd52eU, 0x12e1e9c29cdfb0ceU, 0xb1c8edfbf53ad8c5U,
  0x39b02a7f094b7e16U, 0x91a7f4d042cb5d0U, 0x21beadd1b20c672bU, 0x2dd04c60ee81f4cbU,
  0xfff108eda721caa1U, 0x2d27b65368e07caaU, 0xf6505805be2027b8U, 0x9258f1ddedb37f4fU,
  0xe9b6f4e98199e06fU, 0x1b7259074e21b390U, 0xac4cd1cefbff4412U, 0xf0fd027fe2c00032U,
  0x344015a41e6bb627U, 0x5b0d694d117f23dbU, 0x5e1ad6491e5ece57U, 0x810b697b2e2485bbU,
  0xdec1b25d009cd4fbU, 0xf3e8f7f5cad0ec8eU, 0xf6387fd45b551015U, 0xfaa86843c5a8cd7fU,
  0x48183a162a04a3bcU, 0x1d2bf5a8d7531418U, 0x6b6a8eeb7bc8763cU, 0xaa14fee581221514U,
  0xd1cb5af6902955efU, 0x8a6d57ff7fdc211aU, 0xdae6025cf606dc3cU, 0x41f57f2f25237bafU,
  0x181203e246c0e19U, 0x377cca39c39254fbU, 0x7f046ff29bc3102bU, 0xeb27a34d31b79fe8U,
  0x51cf46193d222332U, 0xf97ffdf358b79fa0U, 0x662fbcd4f51e8dc2U, 0x627f11a785b4a517U,
  0xc9a50a6f2eccff2bU, 0xffffffee00000025U, 0x2fffffffdfU, 0xffffffed00000010U,
  0x900000026U, 0x21fffffff0U, 0xfffffffc00000024U, 0xffffffe5ffffffe3U,
  0xffffffd60000000eU, 0xcffffffe8U, 0x1800000013U, 0xfffffff700000019U,
  0x2400000026U, 0xfffffff300000020U, 0xfffffff1fffffffaU, 0x20ffffffffU,
  0x70000000dU, 0xfffffff700000014U, 0x2d00000011U, 0xffffffdcffffffe2U,
  0x220000000aU, 0x2fffffffdU, 0xfffffff5fffffff9U, 0x3ffffffedU,
  0x700000002U, 0xfffffffcffffffeeU, 0x200000000U, 0x1d00000006U,
  0xfffffff00000001eU, 0x2600000010U, 0xffffffe80000000aU, 0xfffffff2ffffffeeU,
  0x30000000cU, 0xd5d7e6345595d2e3U, 0x3439dd5781440e6dU, 0x251dfbe1ffdaf811U,
  0xd2cce44d560d29c2U, 0x4efc4637a8f2c6e9U, 0xc403ce5e2923e334U, 0xfaa8fb165ee9ae2cU,
  0x8af4bd314018dfb1U, 0xaa5c21e2cb37db2aU, 0x58f70eb219db5fd4U, 0xfe3de2193e300bd5U,
  0x747f7c58de25c81cU, 0x4caad3056da0e431U, 0x6af934ff34e5e3c8U, 0xc0950ddfefae93e6U,
  0x1a35d1eac0e33642U, 0xe8e59257a3868a64U, 0xc4f1d5e10ef4deacU, 0xae44d506cacefbebU,
  0x56432d66ff42ada3U, 0x7fa825b00e34b692U, 0x18d796038bf340baU, 0xd6e35a61ba88098bU,
  0xbedac97377eb23edU, 0x3c39fb00f1488243U, 0x6514d60a177f48a2U, 0xc219c39fcd5c141fU,
  0x6fdfc908929b20a0U, 0x22d468451e9f2429U, 0x4ba0afaec952afd2U, 0x3e8b159a2be168a2U,
  0x1d538ce502e5668fU, 0x61f6f20d04a8b23aU, 0x78be36118128fcb8U, 0x19ee14fb53f6a318U,
  0x52c49ca5635d64a6U, 0x1495b7fe93f6e298U, 0xc2f5ef721166c655U, 0x4fe601df065a1dc9U,
  0xca3a049ef83c04fcU, 0xb5a63684121d7716U, 0xff0a4dc2847fd935U, 0x1f182062b566c682U,
  0x4f0a8eb27af59e41U, 0x4fe373852e831b30U, 0x58c581a042ec4b00U, 0x4408211d647edf47U,
  0x55f671e3be94bc3cU, 0xfe2bc2de5b0532a7U, 0xf7ff75f1185e10c9U, 0xede2d02d1533f2ebU,
  0x1ba78c7f3eb1d641U, 0xe75ea0afd0189baaU, 0x34fdf10df016d86aU, 0x3bf24c17c3379cd1U,
  0x1e1b57c4f59ea15eU, 0x64e248fac635d90fU, 0xed5bc5f7dfb5b250U, 0xd557edc238e04ff8U,
  0x50b1ed6d5f5e00eU, 0x1d3643dfb4f34b2bU, 0x2ebd535dc11bbad0U, 0xb214d1facdd0ec3aU,
  0x9ec7f2a1a6b46bbU, 0xbbff4e24f906d40cU, 0xd7cf05214f46bff7U, 0xda5944e1ed00c4daU,
  0x580a1525cd16548bU, 0xec40fc04c11e5b37U, 0xa46ccbbed3159adbU, 0xe15d95dad5962646U,
  0x81d850a0a3aa1be8U, 0xb9edf22e4afcce72U, 0xd6c90f155573c620U, 0xf5581b11ac07aec3U,
  0x9918662a483aca24U, 0x481d47ca12bcb11aU, 0x8ab110b9ace3325U, 0x1c939d2593d8b281U,
  0xfdb1d2d8994763aaU, 0x37e4351af1dfc028U, 0xb0d5f4a3f303f908U, 0xe3511a4f1266321dU,
  0xecf6e203aa741fe9U, 0xa3ac5b1cb99cd5e8U, 0xfe6e4e2c524cdb0bU, 0xdc9bd6ff5b81345eU,
  0xdb004f0a96c9e2c9U, 0x24dbf8b4f150323fU, 0xdabdaabbb4eea53cU, 0xe4252efd8bc6f4adU,
  0xd54bbdf66ebc6c04U, 0xe5c870c08aa9c3ecU, 0xca62a029c441716U, 0xc3d381a4524ddf1fU,
  0x2a11f1baac160b39U, 0x901a1c99411436ecU, 0xaad5fe526ea735U, 0x60c53c6c04ee0daeU,
  0xb82e547f4652695dU, 0xbb51f8ce69ade4cfU, 0xa41d0a1729f0f22dU, 0xfa50eebebbabbcb2U,
  0x98532ad3c14eea18U, 0x36e79e11d14f5e09U, 0x3dfd12c8dfdfad5dU, 0x15f52417aa173ef5U,
  0x2a43f47f4dd35fbaU, 0x4cfbd757c5769751U, 0x650b82edd641253cU, 0xdf53eb47420d599cU,
  0x39b84b0440e5277fU, 0x6f668d966939beb2U, 0xf22d180553a03affU, 0x300453a5abe7ca3dU,
  0xbeb3f0c0ff26af7fU, 0x919f0f16e9e6bcedU, 0x461821f3f9d9bb76U, 0xb75b5b01e7f1e497U,
  0xd1b39c4b454bbddfU, 0x4756d2d1cd10acc5U, 0x86fe0917a61fcaabU, 0xc292a01bb1fbae97U,
  0x869a5f10bc60c2dcU, 0xd3bea42fa0f840d0U, 0x3a8243df5c54dc81U, 0x3711675f4d5c44a4U,
  0x2850b533e0fdea27U, 0x14ebffffe891U, 0x16bc00001092U, 0xffffe7e8ffffedb7U,
  0xfffffc42fffff524U, 0x181affffef56U, 0xfffff9f9ffffec25U, 0xffffe337fffff240U,
  0x1d4e00000d04U, 0x313397089181e10bU, 0xd9984ca0b733bd2eU, 0x9086530c31d1e562U,
  0x9b5ce3aef191c81eU, 0xa7ccd1ba5a410229U, 0x491685cc8c2b4cbcU, 0x8e2a525d12e09a0U,
  0x2514982efa11b2faU, 0xbc4197f1b7edd6f6U, 0x5f308d5c38faad4U, 0xe7e321ab3a455581U,
  0xd4d0c2ad411611f6U, 0x957f505dec31cfadU, 0xd6e71615f4480d79U, 0xfdd261d1029cbb26U,
  0x2e4c43a6f3fff8e1U, 0x383a5ab9fbb3c738U, 0x9af61b1cef66c0f8U, 0x2fcaf500f9cebd2U,
  0xa0a239c3500542e3U, 0xfce0343a4091abe1U, 0x23b9091ffca12d74U, 0xf35f9740b62fb30cU,
  0xec90d9af7f94e91bU, 0xdc7fb63bf02c0fe1U, 0x4da3c05c05bd5758U, 0xab4c8aebac50ce3dU,
  0xdca14dd6c026b266U, 0xa9e2bbab443dea34U, 0x2d9b0e6b283ba615U, 0x1ba00c3766e0d72eU,
  0x32374f3bb3ea030eU, 0x4f473241a82e8305U, 0xcb0e7f3b632ac94dU, 0xb7edd07a3e393ff3U,
  0xeed47d0642d3d062U, 0xedadbfd8a1623513U, 0x36c42fe132b6d22bU, 0xc429d8c74c6ff4d1U,
  0x2d02b3a7e7efce81U, 0x5bce4ed749580716U, 0xf5d2d70bed1a4a2bU, 0x68cfcd4c16627ea6U,
  0xe1839043ca7bc841U, 0xc1b065353fbf2c6aU, 0xb4d0399e1f2141d8U, 0xaabfda6acea78117U,
  0xd1d7c1e063731a4aU, 0xeb16deab57543dc3U, 0xff854923e85944fcU, 0x73b6f11d54c757cdU,
  0x56bf8dfbcc407fecU, 0x129a74ceb4139b00U, 0x1f04b6019cbaa88bU, 0x4256b5ccbd179727U,
  0xb310f4e2fdbfd54U, 0x99bc41ad35a78160U, 0xe6d6abb3a2ad4313U, 0x11471bb99d2aebf4U,
  0x289e21d8d73b4515U, 0x4fe9f5a7320b1e9aU, 0xeef3cbd8d425aceeU, 0x4b41dae4e70ed808U,
  0x4d474be2f4fb941cU, 0xbf41c92f3194e194U, 0x1de7eb8ad94381e4U, 0x2c1dc8a15140c132U,
  0x349f8a04129a2d8U, 0x58810126510a08e8U, 0xfcca154158e0a3ceU, 0xf5e222538303b5e9U,
  0x9e281255f4b9f9d7U, 0x56ca98b9a0ad9fe4U, 0x30e3d42cb300ddc0U, 0xded9810cdca83d94U,
  0xbb08d0a30bf0e2a5U, 0x2e9eb100a0e20c4U, 0xb8cd585eb4b354deU, 0x3811ef88bf943aecU,
  0xfe1c38119211ac4aU, 0xa35900e8aaf5278aU, 0xb0c0e962f800310bU, 0xe4f54515d56b5e25U,
  0xc3a582e4964c3d81U, 0x93d582bffd0d024U, 0x2859421e1a7031e7U, 0xb61d7ee316f42ea9U,
  0xfd9d271917711affU, 0xe1125f6060252556U, 0xd7f9ea6a047f6ef0U, 0xbe7abd396a38b3d8U,
  0x1c5d20ec7f45af61U, 0x2ed3cc5eff114025U, 0x1ef3ed2d472c240bU, 0xcbb2d45fa25c6c44U,
  0x6ebcabb90cf09a68U, 0x2436000021d5U, 0x117efffffbbbU, 0xffffdb1a000009bcU,
  0xffffff530000027cU, 0x1037000007edU, 0x7b7000019b5U, 0xe6c00003101U,
  0xffffe6f8ffffccfaU, 0xc0357f8fde2df9b3U, 0x301a48ddddbd2cb2U, 0x20ad81ec174aef12U,
  0xbb3b2aee3b33960fU, 0xae6b6ae9cc2b0efeU, 0xcf174003691681e5U, 0xbf8502932cf03670U,
  0xc9e40871acd2be7fU, 0xc65f04d560ba6419U, 0x9a810964ecf6bf4fU, 0xbee80085a1078bd9U,
  0xea6e7f0f492216baU, 0xd8261f6e04d23d3aU, 0x2e81a3d47fb18158U, 0xdd7fc4d803d1471cU,
  0x98afbb771a3bc85eU, 0x26f7ce17bd1af927U, 0x50d3bf8136f21b36U, 0x2b354dacaab7dcdcU,
  0xbb38ab7fb64b07ebU, 0xe899e2babd228128U, 0xac7aff1c92ca14abU, 0x5964c70e91623c31U,
  0xb1d1dcba09f97f18U, 0x5c2bfbc41406b15eU, 0xd442d181cf0a14c0U, 0xfc6bbd39347f314aU,
  0xb66f19cd2ba20dc7U, 0x54f92c310fba797fU, 0xac660e2d9b07076eU, 0xcd7661a34c7ffc93U,
  0xffe6ec689442654cU, 0xda7a0058287fcdd4U, 0x251fac8d3beaca3U, 0xa7586081fbeed650U,
  0xbbba4771fd533c1fU, 0xf5f8fbcffb1d17f2U, 0x7f476f15b6c302U, 0x451faed5215a8122U,
  0x1419536c5eb83d3bU, 0x2d34360f804cef9U, 0x1e79fe3598109beU, 0x3a151f3ed15cdf7fU,
  0xcf97ef59f71f4ffcU, 0x380ae5455a588102U, 0x1a09c3c6f5ef5930U, 0xd4811892170459f5U,
  0xb3f89c65c2d8dfb4U, 0x6300a929414e2d10U, 0xc056b981a1f434a1U, 0xf7006a5459678692U,
  0x1dd002a58d81a2f3U, 0x9221544801df0558U, 0x66047f0df6e9685bU, 0xf8d161d5e97fc2f5U,
  0x83762f5dcd07ad0U, 0xfe54dccb007b44dfU, 0x81479e5a4100c2e4U, 0x5909dbd04243eee0U,
  0xe8def181c957292bU, 0x1452ac486ffad4d9U, 0x811c03b5eb077fc3U, 0xfd9701793b53523fU,
  0x1cf7b7f2938114afU, 0x26aee03e2fe7f031U, 0x7ff1c305cd19bf58U, 0xe2a1eb6774e84a8U,
  0xea11a17f24756dc7U, 0x211e81c6a9b496c2U, 0x23d4c22d9fba93b1U, 0x77cd1b21c5bccb30U,
  0xf9813a3934250ad1U, 0x19dbde6ea73f5b07U, 0xadd8f78d7154b57fU, 0x977f3d1486293388U,
  0x59eef33fd58ad7eaU, 0x1eb581cca2125b2eU, 0x561e871403936aa4U, 0x20380ff8609b5848U,
  0x693efb7f9e96dd5aU, 0x1a975d160c9ea2b7U, 0x9a810e9dfe640e72U, 0x1716d585e8afaa5bU,
  0x9b010b1681e2a2d3U, 0xd48e6cafa6f14db8U, 0xe963813f86487e15U, 0xe7bcb4dc7f17f201U,
  0x6001a55af506f8caU, 0x20dc5d8be6ea8152U, 0x56b03cf6d530dd8aU, 0x8dcc63374fb81b2U,
  0xc11ac186d73cd709U, 0xf9a35597f5e6b57fU, 0xe9e6ec4c571d0dd3U, 0x74ed27e87fd53bbeU,
  0xce0f58cd20afda90U, 0xb2a784b75b78ef2fU, 0x96cd7f0e6c9a90f4U, 0x6326e15b46f12981U,
  0x43c3ecf227f2e0aaU, 0xbbd41cd87fcc0ba4U, 0x1baefdc398902befU, 0xb5bffb664c1efb36U,
  0xf7651a1cd8740681U, 0x691c33ce0a2afe7fU, 0xa137acc71f26d1deU, 0xcfacb4a54407f155U,
  0xe749de7ffea7db5eU, 0x81a20ef70329e2aaU, 0x3fb5f9b2296a124dU, 0x68afd32c48ffa41dU,
  0x903cce81efc4533bU, 0x81bee182a2adbc01U, 0xef89620462c4b687U, 0xbebcc01846810e01U,
  0xe95ada18d348e2feU, 0xb3c10923445b020bU, 0xc81ca4810a1d6060U, 0x8b3938eabe96fa58U,
  0x2d811d76789184a6U, 0xd62de97fc8cc1e23U, 0xc3c28570741c5fbU, 0x926d9c43384b4b69U,
  0xbdbb7f0f3ca05697U, 0xe37fce0b1746aa5aU, 0x9ec92f27dacccd21U, 0xe2be555808970863U,
  0xb41996b67fce1735U, 0xffffff9f00000510U, 0x3e5fffffc5bU, 0x5d7000000b3U,
  0xfffffe1cfffffea5U, 0x4bd000001a9U, 0xfffff9da00001048U, 0xfffff38400000419U,
  0xfffff2d4fffff1a5U, 0xfffff907ffffff13U, 0xfffff046fffffa8fU, 0xfffff19000000418U,
  0xef7fffff768U, 0x8e80000023cU, 0xfffff7faffffedb4U, 0xfffffef2fffffa57U,
  0x1d00000003U, 0xfffff3a1fffffc7eU, 0xfffffd6600001b28U, 0x672fffffb36U,
  0xfffff3ab000006e4U, 0x142500000c54U, 0xfffffe28000004eeU, 0xc01000005f0U,
  0xa1ffffff9eU, 0xfffffca500000743U, 0xfffff6c00000108fU, 0x93fffff9cfU,
  0x4da0000049dU, 0x75900001c48U, 0x86efffffe4aU, 0xfffff6e3fffff69bU,
  0xdafffffeceU, 0xefb6d12147e5de04U, 0xe3813deb79fea2c2U, 0x59dc2d14c88bebbbU,
  0xc05708596d5421d8U, 0xc93a10d649b74eeaU, 0xc33ee4f8e16b44aaU, 0xb8cfee06db41a5d0U,
  0x2315afe83c994d1cU, 0x8155ebd803a7bdeaU, 0xd418e12939c8356aU, 0xc0f3f0bbebcb17cfU,
  0xd804321cb7dd93f4U, 0xf7214134f44a15dfU, 0xad0b6233eba3032U, 0xe99ae1fbbb23ac27U,
  0xd5d2ef48b6cbd616U, 0xdfb4ef5a1e0d2138U, 0x67ce46965781f506U, 0x103fce9df5cab600U,
  0x8d4f275f4b2257f6U, 0xb70952605db32bacU, 0xa1b1c8e258d4dfbcU, 0xc2271cdfd9364948U,
  0xeff0b09f02032eb6U, 0xef24e3b70864eeb5U, 0x87f4452eefdb054fU, 0xb802fabdf5015ac0U,
  0xa0f81cbefeb739fbU, 0x5b3781b64303d0feU, 0x56901f9418d2af47U, 0x4f0dbeb807350855U,
  0xcce51bf837054ab9U, 0xd59b34f333177f24U, 0xe447de46f850d09dU, 0x26b0a5a6c467beeaU,
  0x9ba74433b9300d91U, 0x22b24fe409c5b3efU, 0xb5f50e3c62635ce8U, 0x10f2f93a56108f1U,
  0x8fb43af87113c0bdU, 0x4c3177c51caee7b9U, 0xeeaddd15c6eb5606U, 0xa4ed845a81f59d5bU,
  0xc39d5d0ba8163bafU, 0x66f8f6ab83c7a04cU, 0x23b0c3a7f1af1edfU, 0x4b360603266b2610U,
  0x6f151241451b49d7U, 0x6c3d8a818b0af347U, 0xc94d981ef598c2c2U, 0xc4dd8a4edbc1cbb8U,
  0xe33b5453a42fe943U, 0xa795af7085e0271fU, 0xe3d1e56ba5df6049U, 0x527b040df313c994U,
  0x936168fcf1372a1dU, 0xbbf82fdd3e046439U, 0xf987a12ab1c85403U, 0x4284751f2423095fU,
  0x79606ff71b39817eU, 0x70b9794917a7a8e7U, 0xd16434f03e095b47U, 0xafc98f0e365dbc4dU,
  0x4422ad09d6c19d1dU, 0x21e3b58aa0b271f2U, 0x682a404ddc50b588U, 0x9afccc1e6aa4d82eU,
  0xab313f47f90cb92U, 0x3cfed70748b3a787U, 0xe0b8f6b5ecf6d61U, 0x2f53985bd8a9622cU,
  0x67ad4fcfda32d89fU, 0x7f1404db8bf29d0cU, 0x3f0563132629e5a7U, 0xc847495349e8e7a7U,
  0x42203ed02f212d57U, 0xe556785434a61860U, 0x1493fba1e76344cbU, 0xdf73bcf2709d0aeaU,
  0x510b791fe2106da2U, 0xc0e2da4962e1f5b6U, 0x739952a724194badU, 0xb69cbc58fe4cf815U,
  0x24232552e43feaa4U, 0x1f5d81bb13be6811U, 0xae23c6f8e2a5ed88U, 0x5632c3aadec833b1U,
  0x6d20d3589c334403U, 0xf332042745304c4cU, 0xc8575149f1e5cbc9U, 0x4d2e32affb0a05d2U,
  0x20f6df2fbfb0e00fU, 0x7ff93cdd4852c3d6U, 0xec01724b7b1b5b9U, 0x11cecb1bff32201bU,
  0x60f0f0be4065bf16U, 0xc18153f1bce566c0U, 0x2e232c95d08fec99U, 0x54114cabb74ceadfU,
  0x31a11e0c838e8e6U, 0x9553fffb53244ae4U, 0x95ac9b13adb7feccU, 0xb54c11a999ce3f4eU,
  0x29855609178b86dfU, 0xc59a3456b6cde4adU, 0xf82f10b3b233a4d3U, 0x949d64afc167b7e9U,
  0xa427522afe39963bU, 0xecb5980bb359d539U, 0x27fad6df4f8f13d0U, 0x451c47812fbeae03U,
  0x6bf227ec1718fd43U, 0x7029b1f4014ce0bcU, 0xfa1ce4510eff2cdfU, 0xe39403ca31a02729U,
  0xdd70aa4c2045270fU, 0x9e5f0cf01a67b4bcU, 0x819b433f074206c5U, 0x41ea6ba45a3862b8U,
  0x23f510ce518e02bfU, 0x39af08f0a19b1a01U, 0x8d0dd5aea967403eU, 0x360d1641d041c581U,
  0xf15db494be44a851U, 0xd9e5d0e8b3d31df7U, 0xf5eb73b60fc2112eU, 0xb9a061e3cf4159bcU,
  0x2536a2d2d4ce91d9U, 0xef93b7a5fa2924f6U, 0x21cccc7fe7f9d51cU, 0xa14a46252c85d0bU,
  0xffbd2ee7fd6a40e5U, 0xdf1ad967fcebded1U, 0x4d4edb139e545d0U, 0x9fd15618c827e806U,
  0x46b0173811d1b3cdU, 0x6c0b55c5ffc9ed45U, 0x6bda2b718ef5534U, 0x980bb23a5cb8e3aaU,
  0xde7fb5519d4f2a09U, 0xd5b7f157290417d5U, 0xd94ff2a34a0e2b2aU, 0x45cf1dca5a36c6bbU,
  0x26b9f3bc4aad40e8U, 0xef451c5eaba7ef31U, 0x47521644542a4177U, 0x562341ddbfceaeb7U,
  0x4ef325235e57f41U, 0x66dccdbfa6325de7U, 0xd92a9730bf1a43c0U, 0x219b3badf6ba5f38U,
  0xd9515d876c5eb3b3U, 0x4f423f008b51aca1U, 0x10b4ff240f0a96e2U, 0xc48130460bcac4f6U,
  0xe69bcd5611a247a7U, 0xc5de2c9fd30d8c35U, 0x1bc2fd0f513d5358U, 0x4743321410f7c1eeU,
  0x5b1edca30e670daU, 0x23450cd3b60381b9U, 0x2206eddcbc54ba23U, 0xa043d3a91a33d24bU,
  0x191125a6c3ecab1fU, 0xdfdb40fad3b44aaaU, 0xf2dd17c216a163feU, 0xd0acddd58ff95dbU,
  0x23f1bbfbdea6baaaU, 0xa22544e0f5edd6afU, 0xd42f0aae0ff1fcabU, 0xd7102ea4f17110f9U,
  0x31c8bda6b26cddadU, 0xe238f14dffb60323U, 0x2b9db7f71003074cU, 0x1d940381dc237116U,
  0x9f3b04f76f3cd95aU, 0x5c8d51dba32d4016U, 0xc820006af935b7efU, 0xd343522ee95bd624U,
  0xf0ca2216c6efe13cU, 0xd06607f951a8f52U, 0x31b80341444937fbU, 0x20a8ec3ad7db4a71U,
  0xd1be6707eafe2c23U, 0x397719428ab74f9aU, 0x274e23e70adec12aU, 0x4a3d1342a792eff6U,
  0xd8433cb8adb1fd1eU, 0x1372cb30524c59b9U, 0x8139d347c2af490eU, 0xa4f24532fc338cdcU,
  0xbd139a3ad452b031U, 0xb73afbfc06e826c2U, 0xb6ebcccb9d0dd1U, 0xcfc84151275a6771U,
  0x2cbeb847bc597609U, 0x2166222481b1631aU, 0x9313b04f38c92e32U, 0xfe4b900561b23d58U,
  0xc733bf36c24a429aU, 0xf3a735b8ea1f38adU, 0x1c3f0507e7d6ad5aU, 0xdfac08eda0d7c3a9U,
  0x2e81b5ab223cebfcU, 0xa0182e653c37b330U, 0x42e134e82e21f619U, 0x35ac9ea21ab2b306U,
  0x2ea46d124455a906U, 0x4cb1664ddb7291d3U, 0x34a2395b13d25044U, 0xcdcb17f3271f000dU,
  0xbec4d3218b812f21U, 0x74c43026daf86ad1U, 0xb96323713cabd1aU, 0x4d13eece25defd3bU,
  0x1469c440631c9afU, 0x3c3b39933ae617dbU, 0x8b10db461facc0abU, 0xa0bbb73525002c1dU,
  0x3261ec3433bfe35aU, 0x66218131e042f30cU, 0xeb02aab91322e9a8U, 0xce4609230e2c0dbeU,
  0xbbd64442cf0424U, 0xef952730282e99c9U, 0x92aee3828961692U, 0xbe7f5dec9ba25012U,
  0x66ddbc075a13463eU, 0xd1a09ca9de02172eU, 0xc8066dc5c8c4413eU, 0xb3073cb3e621f833U,
  0x3d3ad5ee65e2e83aU, 0xf33c9abdc07f286aU, 0x4cb4ccc8ff5113fdU, 0x914a31d9b1ebe25cU,
  0xa2fa35f19fd6f913U, 0x628927c4d4b76c42U, 0xea5e4c3429fcc81fU, 0xeb362eff9dcf5582U,
  0xc44c500b2bdeb0ddU, 0x59e604d7ca2363e0U, 0xf34c345a489cf7b1U, 0xe7325514ef35f14cU,
  0x4eae4434db663d9dU, 0x59b653c952e71738U, 0x2803d1e8b4eb2656U, 0xeac3ba343e462f44U,
  0x8121410361f5aa21U, 0x951b32f46642f9aeU, 0x4d9e1e3d29f4584aU, 0xcc7ffa52f3ca5360U,
  0xb92f55c9c7b5749fU, 0xa8cc0c13395d906eU, 0xdcc2a2f59de2e5f4U, 0xd8241626be875fecU,
  0x9eeeb3f24e06dee2U, 0x81d25ce61208e9feU, 0xfead73aab42320ebU, 0x3e69c4467023fa6bU,
  0x4d32edcef1ca67e6U, 0x62d305f560bddcb2U, 0xf1ee064a653c1d35U, 0x5bd09c12a71ed260U,
  0xc6a2c081a3e6bb2eU, 0x9857e69dc13b9327U, 0xdf27cb01d105b131U, 0xb914dd0c3559d3c0U,
  0x981110a72f88c9beU, 0x416b6a45f315d24U, 0x5c10b1bf1a4badc6U, 0x13c20a4e121cb727U,
  0x46e481083f4fed4dU, 0xfe0b16d6e6b24dbcU, 0xe48123c1e3abb92fU, 0x4054ede8fab8d1e3U,
  0xc5e7303425ea48f4U, 0xb2f0b428b4d161dcU, 0x3f3cc8a6274cb414U, 0x44daec134e533bd8U,
  0x2de60a530cee9a4eU, 0x30e936130dc6364dU, 0x42db2f3e31df61c3U, 0xd37f4af994724eeaU,
  0x1553ced8ef5b9fd0U, 0x27daeff628be6771U, 0x663cbb3a16c2befcU, 0xd1bd130f029a5505U,
  0xb29b95bc2ebbafaU, 0xd3524339fb1d34d4U, 0xcfadd5e8a1a662b7U, 0x2a3bdbac2522f626U,
  0x91a19c15f332dc4aU, 0xc6f0475141c87f6dU, 0xa88dc3afd7f3c32eU, 0x3649bf0bdfe0e5d6U,
  0x6106f7652c5da6b5U, 0x4f10f5081cda9c38U, 0x3b4c14ead204c7a7U, 0xb6467a07fc0d34b0U,
  0xdf5f435dca58f8ebU, 0xca1eea815baf0a3dU, 0xda33f5046df60f1eU, 0xf2cdc932e226f7d4U,
  0x23e8e52402a8f515U, 0xd050b7b16de8b5d8U, 0xb7d1b12d3902cc45U, 0x932aae84eea271aU,
  0xdba725451f52cfe3U, 0x2356c24eed09c6a8U, 0x3fb5a76cf459ca8eU, 0xd7330c7f9aeb505eU,
  0xf8df82eef62aff4U, 0xd4e1534cad06db45U, 0xf1a2315b51340bc6U, 0x27d60a90ee27ba38U,
  0xb961099181abdafdU, 0x5c93bfa09b17c40bU, 0xbfa25ae0ccc834a5U, 0x422353d146c5cefdU,
  0x1b1a0bdabcdfedc8U, 0x1d64dd736a32cefcU, 0xc838b811dca7def5U, 0xb7853cf82a76ec1dU,
  0x9eb6f10b19fad32eU, 0x101314fc69acbdafU, 0x532754810ef4dafcU, 0x79a1ed9e4cac6f54U,
  0xc1af8e891aa068eaU, 0x10976dfc1b876bdfU, 0xf410f1f7b3f39dd1U, 0xbad08a21bd004d55U,
  0x1b0af9dcff77d281U, 0x8f43211467d4fd2dU, 0xc8cf3cd6c105fe92U, 0x8439f9be02a074eeU,
  0xdb9b29620a7e9660U, 0x3c0ce3705e5cf022U, 0xb3dfc6d508536decU, 0xf93af0e5e003407fU,
  0x1aa8c3c3cdf46abbU, 0x9872c8d8266fdf22U, 0x326d17ed292b046bU, 0x23d5b6b8195fe4e8U,
  0xe435fd110747953eU, 0x21e7f12ea6f158e8U, 0x18f336487f52e8bbU, 0xacc6edeed34a3b52U,
  0x17d52b3bb3462044U, 0xfdc3da46ca6a3902U, 0xf395f71101291fa8U, 0xfed2cb603de8f01bU,
  0x5b00a00940b86dd8U, 0xa14cf2de3ec2eef0U, 0xda59c364ba51dd51U, 0xd7364ac6444aaf57U,
  0xab50ad30d19b0d07U, 0x52c5382f4903611bU, 0x22ccb18ad55c1d3U, 0xedb3ad28cb97f71cU,
  0x203feb1881d1cae1U, 0x26c0110cd853f240U, 0x38091b3cc296f181U, 0xa2ab53bfe17490e8U,
  0x36ce0fbecfb9f793U, 0x61b5aadb54bdfe64U, 0xf7c6d624a32abc58U, 0xaf531b02bef96f1dU,
  0xeb2df4d44e355bfcU, 0x438b54051c152c29U, 0xb8f42ecae4d371caU, 0xacb7febe9de12d2cU,
  0xcf258f8bcb040c57U, 0x54a8d6263130221fU, 0xf9b3d123c0d1ef5eU, 0xaf00f6f4a79cb507U,
  0xc47f4f590fcf023fU, 0x33500aebd937f843U, 0xffbe115c2da076e8U, 0xf4eb0d18fcb2c40cU,
  0xa85f9ca4d0bd81bfU, 0xa60cbfaa0bf5ddd1U, 0xc11f02556685b754U, 0xef0278ebc4b230a2U,
  0xc40eadf241282384U, 0xf298352ea7facb39U, 0x1f9f12d8fe1394d5U, 0xbcee9a0490af0c9aU,
  0x7d20f40114c7ea22U, 0x9d2b32e30cf10b6aU, 0xdb6801ef421364ffU, 0xeb65a00eb13435d2U,
  0xd2262cda647b810cU, 0xd0beafc1c8aeecf9U, 0x59c69cea3498f1f9U, 0xa8ca9818ee4ae71U,
  0xca314118551c2a10U, 0xb34b183e1caa71bfU, 0x13da4c9ed42d09b8U, 0x32b7adf71b3ec3a1U,
  0xa4571414f9fd2835U, 0x26d905fd55c71fbaU, 0x1452575f07164020U, 0xe7ca2b3ca4abbef7U,
  0x2ad4ffebacc65a4fU, 0x7f9d134fa1c54093U, 0xda60c74ceae93ea2U, 0x180c8db8e713b69fU,
  0x1bddd02362ebc1c6U, 0xe6ea19ddd360ce83U, 0xf7f6275fa7a553a2U, 0xf2d0c144cc6d342dU,
  0x1e598c0a95b42e12U, 0x97ade0ff0ff052b2U, 0x54dbf691689412e5U, 0xdbbb083d210da3cfU,
  0x3a4ddf29c4d481b2U, 0x89c8b8557648ae10U, 0xff9e29a6505b45d9U, 0xf3743807aab0dbc3U,
  0xf794d3be4254502fU, 0xb7262efaef9efac3U, 0x28972427c6b8b6cfU, 0x2fb4fff181fd6af6U,
  0xae4f4f5ee18e2c2U, 0x49cd2dd2f47f45d1U, 0xccdfe7cf0a312642U, 0x1b15a756abc7c6ccU,
  0xbd0cfb94abc0fcd2U, 0x2e2b1c37ba11603aU, 0x84c2bb0c1f543ddU, 0x29dee910cd4f0230U,
  0x43de2e37d621e2aeU, 0x72f46df4b267a9fbU, 0x16605eb38ef16409U, 0xcbc4bb662ece0c26U,
  0xe1481d9b58bfc81cU, 0x8b8111bd3d2e5c8aU, 0x8e8e2d733fc8f48bU, 0xd59715a097d0d8e8U,
  0x7a07dd25e8d6bad3U, 0x4335b9096808d1eaU, 0xe4db2bef18084e25U, 0x1fadd54881a4e502U,
  0x2d39b28a420fd7f2U, 0x1433fd62a8d8ccfcU, 0xe4aa0f35a0d69e52U, 0x98d34a17e1434204U,
  0x6d4c4ef3adde0fefU, 0x3b266a69b37f8cb9U, 0xda959f2af5a86afbU, 0xc75a481c43f73b5fU,
  0x3d0de4f5d8a7e7c4U, 0x5af951e65eec44a4U, 0x1eb6d3443e413823U, 0x68c2f03e485b4610U,
  0x4a2bdfeb121546a0U, 0xf651f940000c79dcU, 0xd979162245adcdcfU, 0xe8eaa971c077c599U,
  0xc1ac3b537f07315eU, 0x9a00bfd4442a1923U, 0xd391bf7e51c1bf7fU, 0x585b1499aa0d3932U,
  0xe6ba153d9491926aU, 0xfd3d263c026aa3f9U, 0x1ee01ecc3b4ffcfbU, 0xc258afc49a22c329U,
  0xcbc3118904091702U, 0xfdcab31f48ec5cd1U, 0x358af1c89fd8368dU, 0xcdf5bb4760fe73edU,
  0x7fbcc204f7f70602U, 0xf1d89e7fb858e66dU, 0xeadd380ceff2dd0fU, 0xb5f1d1e64de769f5U,
  0x30dda69ad6ecd450U, 0xee320b5abbfa3dd6U, 0xdf0209f95e1970eaU, 0xf71542d85bdb3810U,
  0x522bceaee2f61323U, 0x812b314ffb186938U, 0xee13bc5097d62744U, 0xed6423c42d67fb37U,
  0xb930664be7d1b7c7U, 0x647ecb562a2439bU, 0xe536289eca0951f9U, 0xa9cd57363dcac501U,
  0xe1d2e406d4adc8e3U, 0x1a6beba3cab179bU, 0x81c1da6acc007fbfU, 0x97dbf36fd3ca55bdU,
  0x3d1be1bb8f6232c9U, 0xa6ea3505a4460e19U, 0x724afb15bbb9fbe6U, 0xc2ba6817ed49d401U,
  0xd71a9c46ade4d8e8U, 0xf2baab27ed32df19U, 0xe992f9235b31a7a7U, 0x9f10b79657f02aaaU,
  0xbffe6892971bf0f8U, 0x2709a2a0f124b6c4U, 0x7f1bf462ed2412bfU, 0x992b51c2f41ce0d2U,
  0x93d332101ed9b99eU, 0xdb0d13fb13718118U, 0xcf0e2e033b11bef8U, 0xb6811130f543bbbbU,
  0x5dca7483c700e925U, 0x46bc6be4f9635a00U, 0xfd57560a691acaa9U, 0xe0d162c7d72547fcU,
  0x21ac6d4085ac2044U, 0xffffffc3ffffffeaU, 0xfffffff000000001U, 0xfffffffd00000014U,
  0xfffffffaU, 0x22fffffff2U, 0xfffffff4ffffffebU, 0xffffffc1ffffffd8U,
  0xfffffffdffffffeeU, 0x9fffffff9U, 0xfffffff600000003U, 0x7ffffffbfU,
  0x17ffffffe4U, 0xffffffd90000000eU, 0xffffffb7ffffffbfU, 0xffffffbbffffffcfU,
  0xffffffe4fffffffeU, 0xffffffd6fffffff9U, 0xfffffffafffffff3U, 0x1efffffff8U,
  0xffffffe7fffffffeU, 0xfffffff6fffffff5U, 0xffffffe5fffffff3U, 0xfffffff5ffffffeaU,
  0xffffffa100000011U, 0xffffffeb00000008U, 0xffffffd900000002U, 0xfffffff6ffffff9bU,
  0xfffffff5ffffffedU, 0x2e00000008U, 0xfffffff900000008U, 0xffffffe90000000aU,
  0xfffffffcffffffefU, 0xcb657cdc7f2bfdabU, 0xa0c317d9e9f102aeU, 0xe9a6284d56e15e04U,
  0xac33be245aea0bf3U, 0x46f63a30f82121ecU, 0xf8606b626674ee18U, 0xa709ee7cde438bcU,
  0x9e560a9bea4d7206U, 0xc5da2762fe580621U, 0x4d7164c628dd36f9U, 0xe437033ffc564d38U,
  0x3f68060c2d91e0U, 0xac1edf3bfee8c6adU, 0xf9c5411d0d4fae7fU, 0x4b50032c665b3dfbU,
  0x6cbb40be9fe17109U, 0xe37f7b6dca35c29cU, 0x6cdeaad1c411fd28U, 0x2fab8b8e28059522U,
  0xf1bbc5be67d49ac5U, 0xa3b5aa1952a3bb5fU, 0x2eb13f9a78f08dfeU, 0x344947e02d1f11f5U,
  0x6c9532fbe719571eU, 0xec5e260c5c380161U, 0xf2bf2147c153f608U, 0xd4ba4d2ab6d32a91U,
  0xeb54427a9e886adU, 0x31d43ff7022fd399U, 0xe7a446bfe9ffe4feU, 0x2598a25627c46881U,
  0x28c9d52a7184029U, 0x3f4f2bc99ac7b9acU, 0x3da3a5cfbde03078U, 0x24ebc1a81c4240a0U,
  0x3c63aea48160cdaeU, 0xd7e8f2741f7d38dcU, 0xd7a72fce8e945b64U, 0x2ebcee6bf8edf2ffU,
  0x1ab2eeaab4bdb7bbU, 0x320c5685f2a1681dU, 0xa961fe6de0da7fd2U, 0x2f2ddab2a80f7ccdU,
  0xc2bee86b14fc0aacU, 0xf7db7312a31ed449U, 0x73bcb3c92c5a3023U, 0xbce261ffebdef57aU,
  0x1e02f0d6631d2706U, 0x140369450b59b360U, 0xa1ea609e47b6c009U, 0xe0edaba3a9b4e2bU,
  0xee78491047d342b7U, 0x452aab1aee6e4f52U, 0xfb03b75041e84e9bU, 0x8d3b31a23eab45fdU,
  0xf99b01b09e81a596U, 0x95cce627de10afd5U, 0xbeaae84133c73737U, 0x2ef70c8dac2b2701U,
  0x326ec14ca3e0d046U, 0x99d8c6c46124b10cU, 0xfac413f8ff1127bcU, 0xc1cf1171bed00d4U,
  0x81e649d6bc7fc3e5U, 0x6bd1242ccab52b7fU, 0x624e14e69ee1b121U, 0xc4b910cea853af55U,
  0xb9f16c146af1b6b9U, 0x5b33f7ddc3b5d3c8U, 0x2f2755db5bc0c8e9U, 0xc664a4f9b49d342aU,
  0x9cd44be3aa1b0809U, 0x4fd81fb8f9a408bdU, 0xc25483b54694a64fU, 0x470327eaebf4364cU,
  0x48e953eba84aba12U, 0xd59c984c23457217U, 0x1b43e77b7c90082eU, 0x22b07f4e11d50f25U,
  0xc34dceae1366b5cdU, 0xeaa5e7d1511dfb2eU, 0x33a9471cb6f9a8d4U, 0x55df52e552ece2e5U,
  0xb9d0b5ba92fa2afaU, 0x32d5abe895cace95U, 0xf148b922d82cabc7U, 0x1818e4d5c481a402U,
  0x2451ecd5f82146f6U, 0x5e8473ceb1d75aa6U, 0x2b9cd3beef9b2288U, 0xf681b13e373ace8eU,
  0xb0ffa91cde41c939U, 0xea0a52e296fced68U, 0x45fe2cc25d17a935U, 0x2107cb3ccfaebdb9U,
  0x54e5ebc943bc3c66U, 0x4dc9b9e669d4d7dfU, 0xd4cbc91d290f083aU, 0xae4407a4b1a9c4eU,
  0x617ff4497bee137eU, 0xeed4a3b3b60fa576U, 0xe5436f08a3b4cf36U, 0x53d35b426de9ba26U,
  0x220e592e229fd86eU, 0xbf93cb72d53a7fedU, 0x1fcce3ba25d4dbd7U, 0x24512370fd7e676fU,
  0x30304f611052376bU, 0x2cfa1632f36650daU, 0xd885f3bd14036939U, 0x1fdfc10e9f6dc93bU,
  0x76eb4f08a4d2f3dU, 0x3c146bcf55da47e8U, 0x6d9e6d2e7fd63b95U, 0x3f9e6350c4e00e34U,
  0x2fccf2bec4cb4dc4U, 0x3b5aad04aae3d54U, 0x483b682646405854U, 0xecfec99e980949fbU,
  0x2f419e2ba9d4acf9U, 0xa8182248442842c2U, 0xe241c219c73bb301U, 0xa00bf6206e51987aU,
  0x9cc31b15ad54fc72U, 0xbed9282ac0ac50d3U, 0x5105f5702eea7bcU, 0xd41e2a5f273ae265U,
  0x9761e46050ab7fb4U, 0xffffe73afffff8d9U, 0x35ce00001c17U, 0xfffff90700000201U,
  0xffffef7cffffeb67U, 0x70a000017c4U, 0x3d4600002a03U, 0xffffc080ffffcb7fU,
  0xffffe58300000247U, 0xc0cab62a50e238c3U, 0x3d27cc2750da41eeU, 0xd134ca51ef99b3c6U,
  0x6de810a45c646e4U, 0x9beeaaf2e0f5a5e2U, 0xa944232d202617e1U, 0xcaf22cb0f3f4cb0cU,
  0x7ecc6f6ba96d2bU, 0x81eae83b4dac030bU, 0x1dba4b1be409c559U, 0xe4d909ba1f47f326U,
  0xcd542d5676d238beU, 0xc1a4df32b61e25bcU, 0xcd70b7360250f549U, 0x2c0867d5d3fdf254U,
  0x387f3318cbad0fd9U, 0x20e4b410c1bf3ad1U, 0x466e015a9bb4beb8U, 0xdfabe7ccc5d4a383U,
  0x86b3149f0019c633U, 0x72bc3f7141af56abU, 0x98ecb29c3753abc4U, 0xb41328b22981cf55U,
  0x14a816b652e34de1U, 0x573f64bfeeb76e1eU, 0xaa6dcb3941374856U, 0xb6ccab6dd295c5afU,
  0x65ad0d0169483d44U, 0x23c6754a615a6241U, 0x7f5f4613efedf716U, 0xb60450bab831739cU,
  0x90ff92e50bec5a65U, 0xb71355e07e4611a9U, 0x287e8fcd7915745aU, 0x4312de29771d627fU,
  0xff5f25dce8360104U, 0x4f6054b34dfec0aU, 0xdd47dd53e9fb4710U, 0xf549202cf0e90e56U,
  0xbfcedb14062ed53eU, 0xe9307fc03ef6d54bU, 0x2214a5e05803d0ddU, 0xf6cd59429af030e3U,
  0xf7b0b1d64ae14345U, 0x4a46c951518f1ed0U, 0x6e13f7c27f2dc91eU, 0xae24adbaa03425bU,
  0xdc26862418359a0aU, 0xd4e8920aae7ad33U, 0x9ceb49ce037f52e3U, 0x16b2bd9c764efad2U,
  0x405510ec7619f4f5U, 0x273af18b1f162036U, 0x35a2441b192ba211U, 0x433b497da9fd815bU,
  0xd2a10e2094dc2381U, 0x846aa1e82afb00f4U, 0xdea2b4502613361U, 0xb854a04ff346a711U,
  0x47f876bef61685abU, 0x6226e6f6727358c0U, 0xca31d1e65c1022a5U, 0x6bdb208d592ba39eU,
  0x1636cb19e81f491aU, 0xf66abe8746ceda26U, 0x93f281c7d4d1fc28U, 0x561d3b6e1f9acecbU,
  0xf71c31fdd0bd6034U, 0x1d5ec3539e3e3117U, 0x4c6a4214864a9abaU, 0x678de612ebafee51U,
  0xbe923625813f789cU, 0x16aeefc63e2bbec8U, 0xd75df646f67699c4U, 0xc8c864036d580ac5U,
  0xe2325dfd58a55fe0U, 0x2dc8711b35df6e78U, 0x39ada4952ca87f06U, 0xec99203d4afecad5U,
  0x77d8d4359c24dacdU, 0x4f39419096fae5e0U, 0x982848ee3e66c01dU, 0xdf0ccab8f24fd027U,
  0xcc2270181c2543cU, 0x4bb001c3b5e58a1cU, 0xd9f05b2ea08d1d0U, 0xbcb7b38173060269U,
  0xf60ccd0248035130U, 0xc551ad38eeb54eadU, 0xb643e302cb7527d6U, 0xf21f655412dc1136U,
  0x3dce58b1c6eb2f3bU, 0xf4c9f6ad2e57cd2aU, 0x21e20022bf417f27U, 0x4aabca03f92c1aaaU,
  0xa0fa36596b0fbfdfU, 0xfffff2a800001104U, 0x207e000004deU, 0xffffe6beffffdaa6U,
  0xfffff695fffff3aeU, 0x2a6fffff7b7U, 0xfffffa4800000050U, 0x765fffff1d8U,
  0xfffff09b0000131aU, 0x5a417f44b62a1422U, 0xcba5aed5023d02faU, 0xd0a8a367d431b27fU,
  0x379438cb4f1da905U, 0xee29c43a812dd399U, 0xfdf6cd3a051a6df6U, 0x5acfe3d741298152U,
  0xc71e74826e5fa962U, 0x238bfabf9add47fU, 0xba144ccb1e5cf5adU, 0x33229747fce5a4fdU,
  0xff2f8196f6b19074U, 0xf4d9b7bc17b9faaeU, 0xed5bd9c733d77f05U, 0x7f3f52c965eb60a9U,
  0x5b20443a3659401bU, 0xfea6d8dd3a93be8bU, 0x7fac2d5ba0172ecaU, 0x5074cf4fbfd64db5U,
  0x700c81a9ff1efa92U, 0x2f1ec1d87ffecd4dU, 0x5d233babd89fbf9aU, 0x662e7f67d1e5a64eU,
  0x1e6a14092e4eec15U, 0x6e07d7609f384121U, 0xed81572670724b15U, 0xf8d9f35337c4df81U,
  0xbdc77b7809fdf01cU, 0xf082beb1996aefd2U, 0x8623858c537f7451U, 0xd63a636f4631cfd6U,
  0x819b98a0b63bc299U, 0x4520d65e24ac0c5bU, 0x2f8da0a84cc0a481U, 0x6c523f5befcbf571U,
  0xe67fb286c725c22aU, 0x596b8f669da233ddU, 0x8116397c0a82e2b5U, 0xbe9887d654988134U,
  0x4063c8243a04020cU, 0xff13a095fa0316b3U, 0x29f9edaa6aab7ffeU, 0x54301449f8694610U,
  0xe97591b678118d7U, 0x1b0bd38f0fd5d2ceU, 0xf51de391357fb767U, 0x9aa46ab90c4c1abcU,
  0xde8160b827b24ec1U, 0xcca9600fe3399948U, 0x54ef7f6e5795274bU, 0xb251d9b2a7540397U,
  0x7f7cd86786c77db2U, 0x11d10a0b48684381U, 0xc0ee0d595d6763bdU, 0x2bd5e957e9b7c0dU,
  0x996c27c8c063f881U, 0x61f191bf8179002bU, 0xa9882febe12ae0a9U, 0x196e3d181d83024U,
  0xd5c33d09350e67d5U, 0x8cfcf738d757efa1U, 0xfd1a8e15c8ec7f59U, 0x1abc81d86b538441U,
  0x4fb742d20427c51U, 0x3e96bc59a043a881U, 0xcba6f19b882762aaU, 0xaf0738814962bff9U,
  0x426b3abb9f62e195U, 0xa2031fbb1885f9a2U, 0x32e69bb35bac811eU, 0x75700d8813ab91eU,
  0x68ef0eb15108d35eU, 0x69582ac99a9d41eaU, 0xb0247f780ef65221U, 0xf75c0c41f1bc22dcU,
  0x304ab7df15147ff7U, 0xa1f8573cc37faf2dU, 0xf727e3429346eb58U, 0xb4e0d1449d84c213U,
  0x8175076b2695f2f1U, 0xcf1d87261828acf8U, 0x1720c343d37f0397U, 0x7466b06d7f4818d0U,
  0x4c3317fc8fef4d76U, 0xf36a43c81c99f9dU, 0x7c80b560044e864U, 0x912cded8e23c56a5U,
  0xeb46a9d6982c7f6aU, 0xdc2cd6d94658ddd6U, 0x7f151dee9d5627ffU, 0xb89ac694616cb7f4U,
  0x6d65f9815c7ee1a8U, 0x7feb0b4bb8048f19U, 0x285cf9418c470d15U, 0x18e40ff7814b1219U,
  0x5afdedbe03b3b19bU, 0x8120f929f8cedd11U, 0x6eed072ab0a5aa8dU, 0x40627ff3b8e7f53bU,
  0x3f4611f165a5f219U, 0x15edadefff7262dbU, 0xfb9e44df446d7fbdU, 0xa2c127425ff2afbeU,
  0x812bc6baf8ece4e1U, 0xdd26a9698460fccU, 0xec7c7f2112c367bbU, 0x818d4bfa8faba899U,
  0x2a4117af1a4097a4U, 0xa5584210c764b1b4U, 0xb912097fd9298dd4U, 0x6bfbd9b75931678fU,
  0xc76fdc75c35b5e7fU, 0xf062af8140190de1U, 0xea75dd50b4e33dd5U, 0xe0274c5dd6b1ad0cU,
  0xc534c94c814d9400U, 0xa35d220cfce33e7U, 0xa96cffec81b70e3eU, 0xb329786fccd8c30cU,
  0xd51bed7f3d77c43dU, 0x7f67be4058c4db61U, 0x954e400ea663892aU, 0xec11ca465c8972b2U,
  0xeb6c164850447f6dU, 0xb472d44c7f42b5ffU, 0xc25d7144fbf4dd38U, 0x607f8ef3b1d13aa3U,
  0xcb8d9b6cdb15b212U, 0x3e6fffff900U, 0xfffffa5b000000adU, 0xc310000030bU,
  0xffffe6cb00000531U, 0x3e800000946U, 0xffffedd70000042aU, 0xfffffe63ffffecbfU,
  0x9ef000006a6U, 0xfffff9da000008b9U, 0x80100000491U, 0xfffff1230000032dU,
  0x47000000530U, 0x2c4fffff403U, 0xffffff1bfffff26dU, 0x33100000ad5U,
  0xfffff21b0000009aU, 0x19e000011d4U, 0xfffffcd500001233U, 0xfffff75bfffff2edU,
  0xad0fffffb55U, 0xffffec5d0000038bU, 0x43000003e7U, 0x226fffffb9cU,
  0x939fffffa5cU, 0xfffff4dc00000dbbU, 0xc0efffff5ceU, 0x13cafffffa54U,
  0xffffef770000049dU, 0x66d000000c3U, 0xfffff5e400000474U, 0xffffebd3fffff93bU,
  0xa71fffff4c4U, 0x17f1575823f514dbU, 0xff2ac52bf9a04ff9U, 0xc40a14bcce0d3be4U,
  0xeecc26bdc9d5f02eU, 0xc8d4033720d09081U, 0x2d17345bbf2afaa1U, 0x692219c24fd35da3U,
  0x8c34ad3ad1c625ccU, 0x7369d25bf4aa38cdU, 0x724a7552d25287e6U, 0xf25583f44b7389bbU,
  0xc970d25234bb6ebfU, 0x6c3fa0dd7f600ae9U, 0x2b30ce0609e7046dU, 0x5fb33c4f17190148U,
  0xcc5015f351c895d8U, 0xea46d5114d2fe8a8U, 0x3289ce6727ddceebU, 0xc65677d79656e5eeU,
  0x5fa3f1932c22f826U, 0x12f0d8a62f547f3dU, 0x3f83c40c4f5eb642U, 0x40aeade72fc962fbU,
  0x4ae81ec724c09cd6U, 0x19db12f42a930cd3U, 0x6209d416a4f95920U, 0x560f555ad1be0d0cU,
  0x152ede2d2fa660a5U, 0x4ddfa155a648c24fU, 0x2a46fee3ccaaa004U, 0x42fe81d60dd63728U,
  0x5b3a629413bcf247U, 0xb0252016f6d61457U, 0xdad13cfcd2ec0521U, 0xf4a1db09d7df022cU,
  0xbabd079ad436a4e2U, 0xc3390db3d5f0b402U, 0x19a6f97fea4da440U, 0x26c0932512fe5930U,
  0xeb9ae27b8b22212U, 0xc0afa8c131a8df3cU, 0x2b6af20a3c4b4740U, 0x342064e2e50e63dcU,
  0x2debf0d7be9f3e0cU, 0xc64a1ccdb2caa86aU, 0xacb51fcc3b463cabU, 0x818f18e4b907c4bbU,
  0x5016dec8ec50f342U, 0xb434d806b430a9feU, 0x932cd6e7566496acU, 0xe7de973810c2bfd0U,
  0x160acdb0df6d218eU, 0xb609ebd24c50ef53U, 0xe81bd2f2819d0a28U, 0xe1233b55af0a43dcU,
  0xfbc53c13302817efU, 0xebf46e9ec760213aU, 0xa33df3dc47d4e837U, 0x4a1dbdcb3002d1dU,
  0xbda12b3dc0561842U, 0xdb04fadfe662144bU, 0xba14a557cdab92afU, 0x123d1037fcf42264U,
  0x191cf5254f308101U, 0x51db9d97525f113aU, 0xc3ed9548e56779ebU, 0x59325ca743c40d56U,
  0xb59918f23bcab4fdU, 0xfa13c269f7f5f9b1U, 0x81545f10236117bbU, 0xc4e08af9ef3a396U,
  0x6848f9ce21100a7bU, 0x7e3c9c37bb485866U, 0x61d456c32005a963U, 0xc9db82d7d24f2796U,
  0xad4674efacd94e6U, 0x5cacc35351b0e43cU, 0x5481bac93647e5e8U, 0x98389f952e7872cdU,
  0x2a2d932e52f6b505U, 0xd1f020bba71bfbc3U, 0x9dfab00caeccf5dbU, 0xe121ee10ff41b4a1U,
  0xf11ec1310409faa6U, 0xeffd32381f109bcU, 0x3ea797fe941f1db5U, 0xd91356a9ef4ca9cbU,
  0xfedc0cf4151fed0eU, 0xda20784e4430578U, 0xba46f74d6f2a0942U, 0x644ad1a37f5d5da0U,
  0x195cb2e53762aaebU, 0x3e6648f8d740b3c0U, 0xe4cb967618210928U, 0x8158ea4e153ded8U,
  0xe71632ef93104d33U, 0xf7212dfa4fe40e81U, 0x51cedb385c8b89dU, 0x5f559fe255b231c7U,
  0xea02049cbb28ee59U, 0x9ba0914e53ce48e5U, 0x767513edc27afc2U, 0xe85b24c96f8c0ddcU,
  0xba3c36bfe6f1a4e1U, 0xdd290357cd6442b2U, 0xf0e89994174765e1U, 0x12cd525c101231baU,
  0xe371adf605c0d3eU, 0x9ab3e4cdb04ba4a6U, 0x5ccfa1372b6c4548U, 0x397fa851351b4595U,
  0x3cacdbebf239a171U, 0xfb0902a1dfb181fcU, 0x1ebef264ae4dfce2U, 0xebc64b16f947d1dcU,
  0xa92324e2cfecb609U, 0xc092e01f33ff22eeU, 0x5e572cc14f4410c5U, 0xa523924a148fe2caU,
  0xb00eb03d8735e2bfU, 0xd3ebc44e5a1a6b19U, 0xbb4df6e1a5efc12eU, 0x82d4e325b2585dcaU,
  0xb13bd22a68316ebdU, 0x4089e3aa33e4a964U, 0x87fd81aa32db2359U, 0x313a3061f0f4cd55U,
  0xa231903f5e5905c4U, 0xb202bd29b7a20063U, 0x1a1cb781f66da524U, 0xdab1c919bd42aee7U,
  0xbd01bba13cb7d24fU, 0xe4b35a312956d457U, 0x454b1255d257f227U, 0xcbfee419231cc1cbU,
  0xe4aede2f1bd7b4f0U, 0x165a388c5ded81a4U, 0x9613049aa5331cfcU, 0xc30373108c0af9bU,
  0xaabd13d402b48c1cU, 0xbe1f4dcbce36308cU, 0xbae20d32bc4ef3caU, 0xe4e2f6e0f3ca2c23U,
  0x5b89ca9416d801bdU, 0xc8b7abcd11f92b3eU, 0x12fd16d7e4ead8d9U, 0x3e2cf412dc3433afU,
  0xd4e1c1e72d29ddb9U, 0xbdc403914ffdfd2U, 0x53f2ae368136d8c4U, 0xd4c9b105ec181510U,
  0x21001b22a60033ddU, 0x65f0c94cec41fea1U, 0xa25a1bdb4d69ee54U, 0xe8e6ebb34fc93e9eU,
  0xd3421fc54ea8d82cU, 0x44a38c1c4560ca15U, 0xd07112516d59dbaU, 0x8fd9c681bc5db93dU,
  0xcf4391880bcc54f1U, 0x61726286fa8eee35U, 0xbdb0b548212b385bU, 0x1390bfc2dede50f3U,
  0x1dc0b622c63e32beU, 0xfb74345b60d57f87U, 0xc063d73550c44723U, 0xdf3ada4b60538e4aU,
  0xde1de94a19c58f03U, 0x26417f321cbeffeeU, 0x203efdccae8a8caU, 0x1831a6bab0319956U,
  0x799e721c738e61aU, 0x38ecb5e97c55b8eU, 0xef69c3d5c4f130baU, 0xe14c30e4b0edbcb2U,
  0x23d425ca19344042U, 0x8bce20cf21ba7f54U, 0xfe9f7648ae1bd332U, 0x41be3d9f5db654e0U,
  0x53472af2f13ebad5U, 0xa927c811feb0ad03U, 0xfa40febe970628cbU, 0x5a67a4042c0ae9a4U,
  0xdcb269c80b3c19bdU, 0xb413d533f8404bbeU, 0x1fe5ecfb58d46d1bU, 0xabe29e60268152d6U,
  0xd22e42ac0d7fdeaU, 0x3df837d848bddd27U, 0xe3ca5c1baa10a4f7U, 0xef42cab3cae01914U,
  0xac18234450b5ac45U, 0x28bc3ea64a56e94cU, 0xc59511d24124c353U, 0xcf3e5d016bf617eeU,
  0xf4d2fc05816165f3U, 0x69f7605b27b2ca1cU, 0x36346da8169a8db1U, 0x61fffe0de76fa96bU,
  0xda2c5963dc5944e5U, 0x23c481e5ff1ffc4bU, 0xd6f7cfab30cc3a2dU, 0x4240aae93005deefU,
  0x4cc50f44c9ef0556U, 0xb8d9d90d15ac181dU, 0x56e9b15e131dab50U, 0xa8c2001e30ecb6c7U,
  0x2c47a812d2d9f714U, 0x3df4a707042a4757U, 0x36683a49c0deeda4U, 0xec6d705e0a0e607fU,
  0xbb57c7df17ab72efU, 0xefb2d0b1dba64501U, 0x54a19be74e68e4fbU, 0xd42fe2a8a1d0d88eU,
  0xaa28d5f454f4e6ebU, 0x9fbd41c743ab6dd7U, 0x1bc66b14ffe65bcdU, 0xe627c31034c48a00U,
  0x11b2d3858ab4794U, 0x277edb0fe3df3544U, 0x21f58b421ca9f7aeU, 0xce103f0522d4b4b8U,
  0xbfa4597feb16c0beU, 0x13813f4c9e1acab9U, 0xd0305e8fcab0a9f9U, 0xd8ad0dd9da9a3ca8U,
  0x2a889e91e643ff56U, 0x5e15b03f881412baU, 0x582ec540e718e6e6U, 0xfef31d5b09288ee7U,
  0x958ee745e3aea7deU, 0xe743e114ebda2ef3U, 0x8bbd83a2ffaa456U, 0x4a68a0aecd46c67fU,
  0x54061322d0ab65cbU, 0x576c0dff95a70118U, 0x1e3581306a22ce1U, 0x9734b158f73057f2U,
  0xd9b9f30406ae1807U, 0xf60849ed0173169dU, 0x2e8d26dcd4c0064eU, 0x5c49a58165fe9052U,
  0x20bdc9394dd12bebU, 0xbc11b096b0f845b9U, 0x8770f48cbb4b5ebbU, 0xdc222a18a934ae00U,
  0xd0c6e8fd33ab8c0bU, 0xf84321a475f0dbf4U, 0x8e4de6b4f82612c0U, 0x1c2ff6bad0263d52U,
  0x39810d47e822ba2dU, 0x3bf2ac1d86222d35U, 0x4a2a2fbba374efbU, 0xfec9068551cd98b6U,
  0xc51ce13762b3320dU, 0x81ed3621da3cf6e7U, 0xb6f906ddd1243ce0U, 0x3d4fb8e5793acfe8U,
  0x7c4019d649fcb597U, 0x4c50c6c1f7d3f403U, 0xd60b5c3a1a510c3bU, 0x5ecfb245d026bbeU,
  0xe9f9d34b9ca3bd95U, 0x4b0722bf10351f9eU, 0x3cdaa78b7f101703U, 0x99dad1f5f8a05dfdU,
  0x2724c8e722ef0e8eU, 0xd6f426aefcf82218U, 0x44f4295ca7a59fdbU, 0x1a2b28102140fcc2U,
  0xdf58fcc631d122deU, 0xec0feac19ee6dcceU, 0xa4b316e1b9c7ec41U, 0xc4f81348a2b11508U,
  0x24f7f6bdca61ea1cU, 0x302d9a589c4e1d85U, 0xa25fd937d8b20d81U, 0x2d4125e4baf05caeU,
  0xdb054286fe4ed634U, 0x1717675713982b20U, 0xdb50f3096f700e93U, 0x93b803ab9f4da3edU,
  0x3fd1e04112d9324aU, 0xa37fbcc2a90afb8eU, 0xed58b74ec2a63c9cU, 0xc84ff173d1c49dU,
  0x264d71e82f023c31U, 0x3da54709b7b8500dU, 0xdbd133286037fc29U, 0xbaa5b91a14bd040aU,
  0x2fe01bc907142745U, 0xf0410823314247f5U, 0xb815c1eec113dbffU, 0x48093d371181cc1cU,
  0x32bacff5d9c9b7ceU, 0xcc4570e7ab2342faU, 0x38bded0d06b8d62cU, 0x164ede153cd40ea9U,
  0x1032a4bf4353526fU, 0x44530a98a31b145cU, 0x17c227d01f2859c6U, 0x42664ca5fc4075a9U,
  0xdb7f983df501026cU, 0xe99ec320332f1a07U, 0xe243281b3fb7280cU, 0xa2ec44d9f6f03018U,
  0xb3f5592f05db120fU, 0x4b5fb1d35c1c947U, 0x43b33f035160f10dU, 0x4410c4b85fc27fc6U,
  0xea4474ceca3e0621U, 0xb84dffed29441ce8U, 0xd501258eaaa681d2U, 0xda52ba550956a451U,
  0x1ee53fe1d4d0bb98U, 0x924dd30630efcff8U, 0x3ff3ef509a32ec92U, 0x53b6ff39a2acccb0U,
  0x53cb18b5a92cdcb8U, 0x33ee4024af44fffdU, 0xb61bd72235168bffU, 0xc8f2e6910d05a21dU,
  0xf5e6f888b883166cU, 0xc09db808155a676dU, 0x6bfbe137ad181fdcU, 0x43dbe20d1b09041dU,
  0x24b02418ca81edb4U, 0x4d5ed35a0e590a49U, 0x377127a559e9f93bU, 0x502f4f22ff0434e9U,
  0xd1ba0604a469ba8dU, 0x261afafb8b23dd1fU, 0x1ddbfab5e2a2bd2eU, 0x7500e8a3d0b62f81U,
  0xcedab11550304c41U, 0x59c40093ce373b24U, 0xe214504c71b8a4d2U, 0xc05f1d8138aab1c2U,
  0xd12bc5edc6631141U, 0x11e62f3608231802U, 0x1df5d6a7ab1e2bceU, 0xbfeadea73148f061U,
  0x4b55e516ada8d321U, 0x8166e23feeb8ffbaU, 0x6ab4fa62369ef93eU, 0xd8ab2b4d41e443bdU,
  0x9edcf6bbe3caea24U, 0x2124b55430cbbaecU, 0x50d0d5e3ae39ded4U, 0x3051e10e5c2067bbU,
  0x3854f89b05f52b9eU, 0x4eb82dc139fa58d9U, 0xc128f3f9f620442bU, 0xaa5515e01d0dd285U,
  0x4705f146a93597b0U, 0x62e196fc2ef90c29U, 0xfc4e2502b815d017U, 0x33e8e8123279fbe0U,
  0x605ea622f57ea27fU, 0x3f257e32bcc552cU, 0x2aa2e03e47b018beU, 0xbdfaa82809f4bc70U,
  0xff8fd9a12e371d81U, 0xb60188aa4bab212bU, 0xb68be5af9d902d2U, 0xf31bde0c0abc11efU,
  0xbda404a90c33352fU, 0x4adf289cf1d9cdb3U, 0x48e349d91c50601fU, 0xa0461ad573912d49U,
  0xad0ce3d15cde8fbU, 0xc588159aba3d8110U, 0x348a438d88a9c9b1U, 0xee4a14a934bab936U,
  0x31e9b2dfe643d439U, 0xdca42e0b35bf2200U, 0xd0b4866454ed932U, 0x13e25a23b9a62d5fU,
  0x75051f3d21b96748U, 0x7fd132d27d0959dfU, 0x6154d9bcc44c14b2U, 0xfa0fbaa72d261f5fU,
  0x37e6bcde562dbebfU, 0x1a460ecce4c83aa4U, 0x398c5da0ab5c54faU, 0x5b1f8e77359f3e4bU,
  0xf2cd6eff397f39faU, 0xbe1424b2d709ed3U, 0x443f4f5709c9c3faU, 0xbb7f3e7cd18e64f0U,
  0x651b1892cc4298c4U, 0xc50af923afc256afU, 0x35efde26f0c0f734U, 0xedd88447eba4a454U,
  0x7febc1c094528920U, 0xc22f20d7dcb606c4U, 0x66ad43f81e49e3b2U, 0xbfac82a51bd43b1U,
  0x443d62015224094aU, 0xebc3e486314424fbU, 0xf0e3e3eacd0da566U, 0xa31b44232a05855cU,
  0x2bff6eecc30b311eU, 0xa9395de2efded4c8U, 0x2aa9551b2b1b8a81U, 0xc82dc71ccf17480fU,
  0x492464008ab15dc4U, 0xb55e6e0553db20c2U, 0xbfbcfa337e35ace0U, 0x4558810ed7bbe2a7U,
  0xea12d35e3dd2f5c3U, 0x897eea5436f59d91U, 0xe29a190c4c30258bU, 0x14a4a9e3d04a51b3U,
  0xe114402d5f6d563U, 0xefe54b4c1e1c4abbU, 0x10e9f53eab55a950U, 0xf20247142ec263b4U,
  0x934d0401a3e1afc6U, 0x4ca6e359a72814cbU, 0xe54c1fe4b86433ddU, 0x2e24ba392394814fU,
  0x4e2bbacc45dcefb7U, 0x9eaf349726ad3e36U, 0xfdee43cb1ef281caU, 0xf7370c9bb8199274U,
  0x41d93a196201532eU, 0xbc03f7f8e5a527d5U, 0xe008eddc1052c4c3U, 0xa9f22d4a1ce73fc6U,
  0xa1211353db2d87abU, 0x6966851dade53328U, 0x7a0a0a23ac38ea6aU, 0x6481e3dc6cd419f2U,
  0xb332b95026c2a2d3U, 0x32d8478865aa4e1bU, 0x337cfdb569ef0fa5U, 0xc6c1fdf2185daee3U,
  0x1652293028215ce9U, 0x521cdb0fa66009c9U, 0xc1fbfb9218358f91U, 0x9acbea06ebbc5350U,
  0xfda8293636513cebU, 0x36afdc741d09034U, 0x7fb51e1df483b99aU, 0x2b7b146c9f8ae46U,
  0xe4e1141965f946ffU, 0x4f3a95f6983d313cU, 0x13a4f3dff92cfb36U, 0x9b6746d421490193U,
  0xd281f690e1faedbcU, 0xe2a2cb5fa38c5851U, 0x4718161425b52fd6U, 0xefaec05f4fc00ad5U,
  0x35a2bfab1e2403bfU, 0x82897340e172b6cU, 0xcbe71124ef9263aeU, 0xe54eb1416ae5324bU,
  0xc501cae0bdd72b29U, 0xdbdefd9981534b94U, 0x9abbc42493bf8e5U, 0x3d406721d0b45e07U,
  0xd4d9a9d54f5c531U, 0xcba691f43e1d2bdfU, 0xe72d81b7314c26d7U, 0xa5125daf0fadf7bdU,
  0x35d525dd023fa0e0U, 0x21fdd9170d4f8bd4U, 0xaf2708f39a221928U, 0xa83ea713b30f9d00U,
  0x4bff3c1b81aa626U, 0xddf71aac4965c018U, 0xba4d630c3da3baa7U, 0xe5422518ffeb04f7U,
  0xefe3d4dbc37feadaU, 0x7ebb19e2a71051f3U, 0xe154fafd3e5f573U, 0xd235fec7ba0e0c2fU,
  0x241e0cd163ed09d3U, 0x3c86dd651cd8cd6U, 0x58c5faa03237e639U, 0x21695f83201f814U,
  0x19ce3f35ceb717U, 0xde022fdcefd6eabbU, 0xa7b8a2ddf129f613U, 0x110a3d564e7f181dU,
  0x2847e23d410eb0d2U, 0x560bf321d445d8bcU, 0x3dd34f93e1c303baU, 0xc533fafd3e5c6ef2U,
  0x29f1ddb0415005acU, 0x23330015e3e02621U, 0xfdd0fb0941ba8105U, 0x3ce6d4c8fbf1d9c3U,
  0x1f54e331d3adf6c8U, 0x4db2430ddf1722faU, 0x15ed40f141d60429U, 0xd20871c7e0b170faU,
  0xdb33f5f6daf808f8U, 0x7fbd494332c2470bU, 0xe959cd3eb9455fc9U, 0xa92d35efb7ecc7d3U,
  0x58eb40f67bf31f52U, 0x6d0e7d9bb314a430U, 0x1d04b067212cae45U, 0x7ba981e80ff28425U,
  0x62f79128a19ab114U, 0x33a6d847e809ad26U, 0xeaabc3d90049bcfcU, 0x3406c2f5a8e08e9cU,
  0x776e01c7fc3d997dU, 0xffffffc3ffffffdeU, 0xfffffff6ffffffd7U, 0xffffffe5ffffffc6U,
  0x18ffffffbeU, 0x2bfffffffbU, 0xffffffebfffffff1U, 0xffffffdfffffffbdU,
  0xffffffefU, 0xffffffd200000008U, 0x8fffffff2U, 0xffffffc8ffffffbeU,
  0xffffffa9ffffffc6U, 0x7ffffffedU, 0xffffffa7ffffffc0U, 0xffffffc3ffffffc2U,
  0xffffffc9ffffffc8U, 0xffffffcbffffffe3U, 0xffffffaffffffff6U, 0xfffffffcffffffdeU,
  0xffffffedfffffff3U, 0x5ffffffeeU, 0xffffffd6ffffffe0U, 0xffffffad0000003fU,
  0xffffffcdffffffe3U, 0xffffffe5ffffffc9U, 0xffffffc4ffffff9fU, 0xffffffb3fffffffaU,
  0xffffffcd0000001dU, 0x30ffffffb9U, 0x1900000007U, 0xffffffe60000002dU,
  0xffffffd300000025U, 0x996011e9e82536b7U, 0xdaa527c0a919ca85U, 0x5ce0bb874e41e3f6U,
  0x5d2e3152c92c3514U, 0x9910270bdc264fb8U, 0x300ca58a3874c81fU, 0xf4bf5c9cde3c5dbdU,
  0xb7d5a48126192532U, 0x41a361dd4e9db63dU, 0x3a1701502e13a6d3U, 0x6a9cbc2596a21d94U,
  0x50da18e5bc64737cU, 0x67f64f19e164fc17U, 0xcf264a6a50b2d1c1U, 0x85fff4521ad5ccb1U,
  0x9b2c81003f7403c6U, 0x94dd5ef431acebd1U, 0x3306a4e09aa4ad5bU, 0x443827084f44d5d5U,
  0x31ed656c9c6962eU, 0xc200d2e873885d7fU, 0x3bf4f2283c8b2942U, 0x76b5239f5cd33bd1U,
  0xbafe1c57371a8b56U, 0xc2d55ff44b44654dU, 0xe494b699f6f3abdfU, 0xcb483b8dfb9e47cbU,
  0x124847ae81c6580fU, 0xd1b1e1900f02bd93U, 0x16c2adcde2d24dbaU, 0xe299d53109bee015U,
  0xedadb3211445a7faU, 0x5db981fbf4285dacU, 0x290c0ad8fbeab0d2U, 0xc5110349c34138bU,
  0xf601a4af6febc428U, 0xe10643aaf09cea7fU, 0x4ccb61a21872ff1U, 0xb4d5e3c3a79b68d9U,
  0xe9c0000f1368c4eU, 0xf95f2afb6cad9918U, 0xbbe008d15901b974U, 0xb468f1ff6d1352c6U,
  0x7f2bd009b9c0fca3U, 0x66282d5a11d6d55bU, 0xddea9f2fcda1c793U, 0x9732f7d2dd0b4f55U,
  0x9c0028f95d10de9cU, 0x122ca12832a4bb72U, 0xa48a77ac1bbad6c3U, 0x3913de5a6640e2e5U,
  0x945c3afcb07320beU, 0x13a1d106d64dbcdcU, 0x8b04c52a15a24fd0U, 0xca3c37b3e8af7118U,
  0x1ca1137f438f6c4cU, 0x112eb6c63327586bU, 0x82052b3d9f21910U, 0x10d0bfe52577a897U,
  0x1de1b1566f14bbf1U, 0xf8de2f34de360849U, 0x80ec5c03ef21bcdU, 0x6b36211320a28f29U,
  0x81f8582730335f08U, 0xab45c01c02f82328U, 0x26edd7902346e9d9U, 0xafd0bec5ff010ecU,
  0x13543e2ee39bafbaU, 0x4ce33fa4af2be811U, 0x20cf31dfcdb7ce4eU, 0x20c900c1c1b9b4ddU,
  0xa7b581eef0ac3ad9U, 0x411dfe280fa08bc1U, 0x906efbe1bcebd1cU, 0x81240d5af339e4f6U,
  0xd8e2fbf9532dea14U, 0xbfd930dab31fc493U, 0xc0f416149d4d5e40U, 0xee0b0967a6b73a55U,
  0xfcfab365eb6de218U, 0xaf6240bef2a0a42fU, 0x1cf9f557d7d6e017U, 0x7f56e98beac76f0fU,
  0x59f5cf3635a6e2aaU, 0x50a10fc617a4d39eU, 0xeeeea0e415bf05e1U, 0xd31511b5d7d00f4aU,
  0xf61ebfcc04cff31aU, 0xb14353df5c3abd0U, 0x1c75f131edddbd34U, 0x636b8c1dcb1f4b3U,
  0x41aec224d153aca5U, 0x1a672f0bd3bf81b4U, 0x1a01ba6c110bf941U, 0xeb501949d1c92a0eU,
  0xe4ddd5565060a734U, 0x3776eed73cac9a41U, 0x943b998ca7091f9fU, 0xbe238111bd164816U,
  0x97fc01c947870206U, 0xf02ee518eaeef1a9U, 0x25cba5264e31261fU, 0xefc36fb6f28b4346U,
  0xce0e5085fd3130e1U, 0xfd15fecac32eb04bU, 0x243e3cd815ded4b1U, 0xe0fb3099bc11d32U,
  0x7f0d5ad6f6ca36aeU, 0xd43a26aa30f6eb26U, 0x62dc3c2fc43b117U, 0xe3ecf31ae7bcc6f6U,
  0xfd46c19fda72b02cU, 0x33e9e04c302706c9U, 0xeade1206df6815fdU, 0xf821fd0fa30db740U,
  0x3cd6b24e1c9dbe8bU, 0x54f919cbfb1f8179U, 0x1a68eee5ade42648U, 0x113e47bcaf38bdb3U,
  0x35b1c4b3f6572d3bU, 0x6f298d5d3910b10eU, 0x765d5c0a6d09b48U, 0xa33435bc0030f9a7U,
  0x12f452cc1fbd67adU, 0x129ed5b39be4a31U, 0x88f30f339cabc52dU, 0x36ce19d181ccaffcU,
  0x4d9829d6fcc0ae56U, 0xc4caee0702f1cadcU, 0x3a2b2237c9edcf1eU, 0xbbc9cab2befdc02fU,
  0x7f3edb37f6cce6b7U, 0x12d9c10846e723e1U, 0x7ff51ce145c1136U, 0x3f2942d2b10ccce9U,
  0xf0b9fa4100baf241U, 0xdeb11100a8da08edU, 0x7fb8fe2267bcdd4aU, 0x5cd9eb0b648dcfbbU,
  0x6013644b39c61729U, 0xfd7784d66b62998U, 0xdb44ff23c32ae43bU, 0x1b504e3bf05c310fU,
  0x40dbab1c5a117deeU, 0x146f85eb93535c3bU, 0xdaeb24250113d070U, 0xbd535822fcf33192U,
  0xe86a03a9011981e7U, 0xf2111f4f18da512bU, 0x5503a6d0f95bffacU, 0x23b72a523dd51261U,
  0xdc959734e60bba58U, 0xdef9d85bf1fcdcf3U, 0xdf02db2f263548baU, 0xcc11e1360005da25U,
  0xc4ebf1164c2db2b3U, 0x57ead4437f26c6fdU, 0xc9382af7ecdde202U, 0xcac629e86a2928c6U,
  0xd9e6d61915e20617U, 0xada6b0c51e323d22U, 0xba2db546052344eU, 0xe501cdc6f67c5452U,
  0x20935433c4505b51U, 0xcbdc14b2416e1259U, 0xb1daeec009c34dd6U, 0x365ba6fcdda63019U,
  0xff717fe5e4d9382eU, 0x2b031c13394cb714U, 0x1b254c5027afe381U, 0xfaf3a2d48a9fb5eaU,
  0xa48f983e30e308d9U, 0xea438fde9b33a0daU, 0x2927c70a59a319a1U, 0x4fc92dd70a2b5246U,
  0xa1d74847b3ff48cdU, 0x1d451143adec22b1U, 0xc3e4dad33e97292fU, 0xff3fa7931508ade9U,
  0xbe352af21d5325e8U, 0xbbe2e016f5cd952U, 0xf0def0e42dff11c9U, 0xf7e8551323635434U,
  0xce023fd581459439U, 0x81c15bb92cc34466U, 0xcee6b25f23f2c4d9U, 0x9e5127447b941b2dU,
  0xd32438eb3704293aU, 0x35a728a4b99b44d6U, 0xc10829bdd4ba5617U, 0x36123949bc174fbdU,
  0x909ab962c142e625U, 0x30c202f1afffa829U, 0x9e690aba00cba72cU, 0x791b3adbc58b2b0fU,
  0xa2e0842c69812f55U, 0xb6a92caa49afd832U, 0x2155089e3db0fa1U, 0xe233914e0004b3afU,
  0x455ac49d2ade2ee9U, 0xe2d9b0747f222b2eU, 0x6fad72bee4a8bc5U, 0x570f5f0c491c9ecdU,
  0xd02e4c0fb91e4afbU, 0xe62bb1668d85430U, 0xc8edfc8d2719216aU, 0x308eb63eb9bba660U,
  0x1519abfe399ff096U, 0xb956d73060bec5a9U, 0xc61ccf00e0d7f356U, 0xf343c60f0609e899U,
  0x32441f4563d89b06U, 0x4ca6cf4a44587fc0U, 0xb46aae6b93c50dcfU, 0xa206d122fd16f3f6U,
  0x8a581c53b4631c18U, 0xae3bcdfc3347bdf3U, 0x50b440d01db0b63aU, 0xc40ac22e4c81d6baU,
  0x46fff73cae49ea0bU, 0xa0f5d6ae57b65a63U, 0xa18f61461aeda930U, 0x1ac171512c2d20dcU,
  0xe3ae44bb41314ef4U, 0xc450e2383ab24d5aU, 0x19520e0cd652edbcU, 0xd36edc0036fe1ff1U,
  0xfc52f31b2defb529U, 0x2a23c4c602e929b5U, 0x5c4628b83607cf17U, 0xaeabd6ec177fbf33U,
  0x31cb40b15a19eabfU, 0xdafaa834cdbef9cfU, 0x4485942ded5df743U, 0xd409814bded8f2a6U,
  0xf6cd08c315482b1eU, 0xffde96dbcce70b15U, 0xebcc8338290cbeffU, 0x3be9b819d4d8f3d3U,
  0x34cb071c2cc5fee3U, 0x2081c1c9df1f36e7U, 0x592caf4135c1e4f7U, 0xed83214e9eb0ae6U,
  0x1bd5e33053fd15f4U, 0xf71557b1c4e74cbbU, 0xeb51fe132ab658f3U, 0x110d2c41fcc7a3cdU,
  0xb8f31dfcb947d908U, 0x5734d4374be35ccfU, 0xefdfcfef262b719bU, 0x31c28d89bfaea969U,
  0xd2c42f564c4b2947U, 0x53811a8090a98c4U, 0x674654f695a181c8U, 0x4796b22b42541c4dU,
  0x170020388d913037U, 0x84684b5aae1850acU, 0x2b39c23b0596a01fU, 0xf0c0a3d25ee8b37U,
  0x153dceb93949a67fU, 0x42e844006a01b6a6U, 0xd13924ace3d412faU, 0x16b2ce128e2f308bU,
  0xe1f4e32cff14a0b9U, 0x1243be5008d30f20U, 0xb6ab9b2ecf38dc3aU, 0xb07fcb0b5ae8e80cU,
  0x3366ef3febe7a6e0U, 0xdee3da42ca35e3e1U, 0xc85ec1f83fe157d2U, 0xa3b6ee0cfe59dbb4U,
  0x23504de3b8cdde2aU, 0x5ae6bbe8069be42aU, 0x4e64c004e6f14081U, 0xdc441ad7462fde68U,
  0xf22ef81566a6e1bfU, 0xbf502bd9ea93eaa2U, 0xd224f7fde0b9fff5U, 0x29e50caba115f410U,
  0x6c2bec2f5d531ae4U, 0xbeff071af15fb80eU, 0x2d5faaed2cdba126U, 0x1048abbd42e52de3U,
  0x29b326b2de00c004U, 0xbe1ba1e052ba15c3U, 0x4ab9db81c4e2a610U, 0xab4bf05c43da5c8bU,
  0x212027a4d5e00553U, 0x58e5c03d2c2f1d02U, 0xd1353331fcc0d1d9U, 0x8bbba593a410e2c7U,
  0xdeace35b179cd0a2U, 0xe94fe4b138b2be33U, 0x42bfc3dec8340ad4U, 0xf12252f381173a23U,
  0x9fc49fd072f2f09U, 0x98cc5eb225c81831U, 0xdfa13ca8af0ff79dU, 0xb12d610136339820U,
  0xe06ce9c9c88138aU, 0xb0812ea9d19ad7b1U, 0xf3c19726bf51220aU, 0x8ecf3dc68b32eeebU,
  0x15a5be96a092ae1eU, 0x93a95bffd6cca8a8U, 0x9b7f9665f62d4dccU, 0x4093ed3ada1e0bdeU,
  0x4eec1e64ba4ce1abU, 0xd5eddb50b14ee84dU, 0x44aa9e12a4dfdc0cU, 0xf3bd5caca55de163U,
  0x2690d9b9e0d3a944U, 0x16ccd8d9f2cafc62U, 0x9f8999e56efa4040U, 0x4e3b8d0f7fc4ae3U,
  0xc5170c32969d7f5cU, 0x27132a1702e1210aU, 0xb7fae50b42a6b26cU, 0xee41f6b75637b3c4U,
  0x32fc5040c0bb056bU, 0x5ebfe60846af9a6eU, 0xa8fc14b12fe3d3abU, 0x81e33ed2ec049fe5U,
  0xdb52a749c6bd2a3fU, 0xf1d349d119b9369fU, 0x2ba62afa78854313U, 0x9ac7a01208d720aeU,
  0x997f91314d514139U, 0x369d216b980a9953U, 0xfbf742e90343dea5U, 0x3c1d3e9e9a5dfcd3U,
  0xda4c9b2e1bd6f90fU, 0x1a60c94f47a4d5a8U, 0x3c6b44eacc26f33bU, 0x2d836ac5989c9f81U,
  0x8c2410618f341851U, 0xf37f23b9d90dec40U, 0xfc3f13e9e0c9e2c0U, 0x3b1ae2c40c383d26U,
  0xe1bd00b6ce07b427U, 0xc3c3954b402e21ffU, 0xf72e26d7f3cfab1bU, 0xb3bddafa5deb1dc6U,
  0x3c1b111c033ef534U, 0x1e405481b0fa4836U, 0xfd33cc21efe44aeaU, 0x9dec185063f159eaU,
  0x9c74d9c09c5f53aU, 0x4e5c6b26134fc74aU, 0x4216d32e0d2b1c6eU, 0xde6133e359d54119U,
  0xbd2250cc634b4423U, 0xae43afcbac5b35a2U, 0x457fb925264bd3a4U, 0x353cbfcc4e3ce736U,
  0x268ea10443e0a9d8U, 0xe9fb26b64f501ddeU, 0xc2162500c9d0fe91U, 0x488cd410893be0fU,
  0x56a6091026481ca0U, 0x6e04703d4d57d1d1U, 0x52953436d95f0266U, 0xf0b1cf7837071c2fU,
  0xb06b3a181dcfc19U, 0xb1beac21a91e55c3U, 0x344e2169ed044e1dU, 0xc007c418aed2b52fU,
  0xde15c6d34b03633dU, 0xe8c7156911dd89fdU, 0xc16c2c41e5bd78c0U, 0x1a1af0a3cf1718daU,
  0xfc942e33c23022fbU, 0xafe6db3a27f6372dU, 0x37b248a2f8c70cfdU, 0x2d84bd645a4e9ff4U,
  0x8152c395204b211fU, 0xddbb050dd74f4527U, 0x2f43cbf3c099ccd5U, 0xc7d6c6db0135dae4U,
  0x1aa1af29dcdaa717U, 0x6b3ea9b056595db9U, 0x78215cfbe7cd41e8U, 0xfcf643d56af7d3e4U,
  0x5753decd5b17813cU, 0x39ead8fc0ecab2aaU, 0x30dac5e74f1dade6U, 0x4c2c333afde1d0efU,
  0xebf94ebc8e0c02cU, 0x43fa902f0c810a54U, 0xdc232359a5183d12U, 0x38e1456cad118ce9U,
  0xd74da2d7a0f8a94dU, 0x180522b22516326fU, 0x317fede1cdbf65f9U, 0x135ea64cecc81c4U,
  0x3205f4dad2efc3b7U, 0x18f7e2526f9bf3e9U, 0x4fd0a177f1ce0fU, 0xb86dd51390783e23U,
  0x2a8fcc3d2e401448U, 0xaf12e3f2a213c8dbU, 0x8dd0288fdb32a08aU, 0x4ce5be4fda2638daU,
  0xa5f7034b1aacec4fU, 0xb6878cbfe4f91381U, 0x3adef9b9eaf3404fU, 0x64a6593c1b2a13cbU,
  0xaabb37bc610b0f2eU, 0x4e3bd02fc381fea9U, 0xb5020ef49df525a2U, 0xdc0ef142a9d8f582U,
  0x15284ef7ccffccc0U, 0xeb48463c3f0b31b8U, 0x11fb19d9b9ea81a8U, 0x2b9e491e433d0007U,
  0x12d1eb97b62ba09bU, 0x8dbb527f561b0d9dU, 0xd3051f49dd252fe2U, 0x7489c3163c66323U,
  0x5cd116f8ae3651aeU, 0xedba43fddf973e11U, 0xbea2ab6d22cd5e6U, 0xc5183620de09fa34U,
  0x1713cb08a10dfea5U, 0x28464a0f70a7a85dU, 0x9d124085957bd2ecU, 0x8c3d95f21ddd282U,
  0xc5f17f1e03270dfdU, 0xbadfbbe965aa5cefU, 0xb8f7dda92b0d01e6U, 0xfd6bf13461aa8c2U,
  0xe536c1efea55215dU, 0xcdfbb2c0b80721ceU, 0xc528e2d7f8b838ebU, 0x156305f42a44e0aaU,
  0x8a16713306609552U, 0x30fea2181c7fd3b9U, 0xe1ed724f04962df5U, 0x11436a065714c16fU,
  0x330faac71430d81cU, 0xfc5e3b4113c0a930U, 0x8e07c3f92727fbb4U, 0xc388e458cbf1cc08U,
  0xdde838db818da8bbU, 0x5ef993d7e0ea3125U, 0x25c039e13140e644U, 0x4a2896f8e334e642U,
  0x92d156db9d8f56d3U, 0x20cc89824c4a55aU, 0x361201cd642a1d7bU, 0x30b3f13ff11f35aaU,
  0xddafcad3a7c75ad0U, 0xe5b7933cbd9ecfc1U, 0x353797bd91c52334U, 0x63b4b7f0033c05acU,
  0x7fe4d82be27660b5U, 0x641b4daa0814f28dU, 0xf93f374f61667fe3U, 0x5ada9b335f066b69U,
  0xe6e3f655bd0ac6c6U, 0x40a2415fc4b62cb3U, 0xb63dcaae2bf9c617U, 0xe7e4bc2e971dcb51U,
  0x5856487470c808ddU, 0x2fc1a0964bd5274bU, 0x1081701ade616265U, 0x6759a38e5f470fcfU,
  0x43bd24458f533f0dU, 0xd0b9b24fb10f15ebU, 0x3613c27490e576f9U, 0x33373dc9b4583a4cU,
  0xe9378d264508003cU, 0x9d5c2fca4113e41bU, 0xcca6a88d4c84fdabU, 0xe4bfd255bb638481U,
  0x9d42552e1a47e658U, 0x82bddd274bab881bU, 0xd104ff2e46501cd4U, 0x1de76836c732e650U,
  0x13b3de9f4211de1aU, 0x265ded3c0d02d633U, 0xce3cbb54ff15fdfbU, 0x541921f94ed1fcecU,
  0xac19d65ccbc60802U, 0x94d93efdc25d6e25U, 0x83042d1147022281U, 0xd72add46ef131676U,
  0x44df010f1406b6c4U, 0x9dd32c0bed286ab1U, 0x4b3947ae62f546e2U, 0xafe981d34942c413U,
  0xaf3b4cffec6ea16U, 0xdd65955007502904U, 0x3249dc640807010eU, 0xf4ab0da6fff62aa3U,
  0xa8993cc4c40a22aaU, 0xedd7c8cc1ba9dc56U, 0x1c515f53cffa4822U, 0x7f02135bb7ffea34U,
  0x28bb180834d6bafeU, 0x63ab29f915a6cda1U, 0x4967c4056088cd92U, 0xb35ab200b807d733U,
  0xfeca23b59951b308U, 0xa8f40a85f352b7b8U, 0x9a93c60585405123U, 0x784b47c8b13a29b6U,
  0x4e4222e3ec001088U, 0xbe86e11427586eabU, 0xab93be2c0a845ce3U, 0x1eb3cd3f238a4a29U,
  0x5ed100b5d44b5c7fU, 0x4300000004U, 0x46ffffff9bU, 0x54ffffff82U,
  0xffffffe8fffffff6U, 0x390000003eU, 0xfffffffaffffff6cU, 0xffffffc2ffffffa3U,
  0xffffff76ffffffc6U, 0x6cffffff91U, 0xfffffff7ffffff8cU, 0xffffffc50000003bU,
  0xffffffc9ffffff4eU, 0xffffffe0ffffff92U, 0xffffffb100000008U, 0x8ffffffb4U,
  0xffffffe700000024U, 0xffffffb9ffffff9bU, 0xffffffd0ffffffbeU, 0xffffffeaffffffcdU,
  0x44fffffffdU, 0xffffffbb00000063U, 0x32ffffffd2U, 0x7affffffedU,
  0x11ffffff97U, 0xffffffd900000006U, 0xffffff68ffffffa2U, 0xffffffdcffffffd9U,
  0xffffffee00000004U, 0x3a00000005U, 0xffffff700000003eU, 0xffffffdefffffff2U,
  0xffffff84ffffffcaU, 0x8f144f3b0e81dbf2U, 0xc2d6ff14cb2fb5e1U, 0x9febe0c5390127f2U,
  0x935c4e8b76223edU, 0x6be1af384fb54be4U, 0xd4f8112ea5a3eae9U, 0xd4f60d5821af19b8U,
  0xb2d25a0256aed51U, 0x1fa8d0325de43b1fU, 0xe5f6e4310ed3a9d7U, 0xadc4371c3021b9bbU,
  0x2132d2c15e2b4d2cU, 0x35b96aedc8b623acU, 0x7ffaef23f05f044dU, 0xd4034adf3adc53c6U,
  0xd05adb625fb4eef2U, 0x183343d9ede9bc1bU, 0xbc330fe1a81ba7adU, 0x370b16a081ab63c7U,
  0x36303fbefd72043fU, 0xeeb7bd38de46d038U, 0xa3d6c2d111ac56bcU, 0x29e5231914adddb2U,
  0x6a39619f32a074e8U, 0xd707e5cdbfac5cf4U, 0xa0e50284e42281fbU, 0x57e2e4259b72f91fU,
  0xa01b629dbc9225f6U, 0xa12c230b0230386cU, 0xfd53101f03c1e2aeU, 0x25ecceab2de31702U,
  0xcff3b5c2a8060a49U, 0xd5b8a261b6f32fdeU, 0xe25dafa5fe1f1f9dU, 0x6881e4200e524b0cU,
  0x344b149f60dab9bU, 0x961191109cfa59d2U, 0xead1210416ddc9dbU, 0xcd457247a128dc25U,
  0x860148fb7dead539U, 0xa02cd2fb7fecf35dU, 0xaa12a8aca587450fU, 0xbb39dd201c43cba1U,
  0x24c90989ce26fef4U, 0xccee710a69d15e19U, 0x4c2071cf1a4eb499U, 0x2d6fc4709e5df2deU,
  0x175bec48aa0693b7U, 0x3b3ae5a7aed231c1U, 0xc1b4eeca1ceaceU, 0x81b3e6c3479be357U,
  0x92fadf3a0b341d5U, 0x54a6bf123fb2ab2bU, 0xd6ea2463d80f48e7U, 0xfc06b2c18b2ba3bdU,
  0x2a49d01f14fb15edU, 0xef0d2cde4f52d9d9U, 0x230d0e28efbdf01cU, 0xcfc32f3f1e0dac0cU,
  0x233a5fa4e256d1efU, 0x2fdada0f435a512eU, 0x7fb751a2d3d2b06eU, 0xe9fd161fe1ec2609U,
  0xe65a1800b5dcc620U, 0x2d3089e14b9eaa07U, 0xc3a761a514154c22U, 0x68a10f3c7695201U,
  0xea59bbc1ef5190fbU, 0x124259ef37d0c4ffU, 0x9b3fa2a81281ff65U, 0xc352de8fa4775327U,
  0x9b906f65e1da4c7U, 0x6c23c463d4272828U, 0x519fbeb929450d89U, 0x4429aadabaee2015U,
  0xb57f05676cc4c4a8U, 0xf73764a4a8a1767bU, 0x98784f6760fc3d2fU, 0xa408c1bd7216eef5U,
  0xd7cbd1e3095c538fU, 0x672c17a7b7c310dbU, 0x144c1f1810c6312fU, 0x1d2829f43038e7efU,
  0x685cebcf02c8f242U, 0xd2253b0c22f481aeU, 0xe762bc9df31ba612U, 0x3bb714c9f8241434U,
  0x58ddffedcdb5dbb7U, 0x4566a606d5d54f70U, 0xe8c2992c355d378dU, 0x24b8df35549022cU,
  0x81af1ac3c53f2a77U, 0x76d9dbe4b17ad781U, 0x702bd9bc29b4fe5eU, 0x2d69d776192c168eU,
  0x55123aefe20850f3U, 0x31253f4918c9f48dU, 0x17f9091cb51bf1fbU, 0xc58ed0b6573f2633U,
  0xbe8b851b03eec329U, 0xad8a10d535f288caU, 0x8b6cc0978d08a8e6U, 0x84585955109061e7U,
  0x31c1393381665300U, 0xbc64d0d63a45e181U, 0xcb130bb0e55501bU, 0x739de044ec3ae53U,
  0xc91c46a0f2ebc5aeU, 0xf9d164a5f63f5e94U, 0xf1df34efd7cbf437U, 0x1dfacf20bd8160fU,
  0xdeebcd57b260aa4dU, 0xda381ad1a7224610U, 0x4d3fb1a820cdf3a9U, 0xd6b22a5ac95e2651U,
  0xa3e748280d481d2aU, 0x60d7a06081bd5bb7U, 0xf5ff3dbfb1c04baU, 0xce5cd9d0e92094cdU,
  0xcfde52120b2c47a0U, 0xe2fb5dc7541bf348U, 0xb8e8081b65f63358U, 0x13f93fda64df2d6bU,
  0x5f343a1440429fd5U, 0x574031123a56e5c9U, 0x442ba91badb13d6cU, 0x42ab03499cebfb12U,
  0xe141a327417fc78eU, 0xffffc5ee00002cadU, 0x111a00002df1U, 0xffffd1eb0000201cU,
  0xffffd4dc0000286bU, 0xfffffd5b00001f68U, 0xffffd024ffffffc0U, 0x58000002f66U,
  0xffffd4d1fffff452U, 0x1e28bdc5b246e4e1U, 0xf62b94a16b918f7cU, 0x8109c1b4434ba6bcU,
  0x50e8855a6c34f065U, 0xc487a81f81695d69U, 0x45d06f4ffbed61b2U, 0xea2eb2d9b54ca94eU,
  0xc150003918711a9dU, 0xcbf824d46f035a7fU, 0xd16dad42c5975e56U, 0x44b60ad5b8fbdc5bU,
  0xd8bceb60f4ddb0dU, 0xb47f47b8c5102ee3U, 0x149fbf36b6256f5U, 0x4d2a3dd3cfdfe2a1U,
  0x7a5137cebeae2ddaU, 0xbdbb4c4ca4a44bc8U, 0x712647bc2f4de2aU, 0xbf5f1b597ff833cfU,
  0xe716495fa9e351d1U, 0x26d758436732940eU, 0xb08e5d703b6742faU, 0x6043b0ed724f3a01U,
  0xd10ef925e2cfdaf2U, 0xa9ce47e04428a77eU, 0xbbf1c6473e81d7e3U, 0xf29ae5dbc277ecffU,
  0xc0f9dfcaa12b035aU, 0x4fc54b36f4e310c4U, 0x30fd1a1dcfe8f20bU, 0xe8e9257f9b4de70dU,
  0x54b0da9f8bb6f045U, 0x9b440a27e233b222U, 0xc56e37c4ccc6a6d3U, 0xdd32f87af3ecaec8U,
  0xf2fc2d133f0da7b5U, 0x811f6146f693c137U, 0xdcf9b9f5abfb18fcU, 0xf6ddc3aa8b8cd8eeU,
  0x3231504b37615eb4U, 0x8d59dd0eebdf9bd7U, 0xa26a4b4b535e93c2U, 0x7aa918f6f049bccbU,
  0x34ea248142da09efU, 0xce016410e81a27f7U, 0xcf1d2df315179e16U, 0x1ec3d145818d0c6U,
  0xeff8171a15cc38b1U, 0x8849170a4ee7ad07U, 0x2ecfd5a5a8fe0749U, 0xe4e1b2f05158cf5U,
  0xf5c35ee487ea81baU, 0xe95bb7d8f569b14dU, 0x2bacb55e7d3b2e8U, 0x103338e264d4e77eU,
  0x9236c41a60233070U, 0xdeb849e8279d4ca7U, 0x4a1bc22a6fba79a9U, 0xdb1716f03695e981U,
  0xca4ec4e65c00c5dfU, 0x8144c10d2d011555U, 0xabe840594e56a659U, 0xe32ff122b8d71747U,
  0x43125d2c0cfc304eU, 0xf4d8a69b2442b90cU, 0x9cb3ba1c8ce0addeU, 0xe5abf10a57cf061bU,
  0xe17d1145a23e5ac7U, 0x4a3cae9db5453a9aU, 0xf285223a21ce3bcU, 0x1bfbfb921ba96e81U,
  0xfb15d9b121d104f9U, 0x1150421831320f85U, 0xaa08a1f4f86840ceU, 0xb79c09bc30c666f0U,
  0x9fe84d4400dbc63fU, 0xcdb6e9de603e7f87U, 0x23f5bcd713b1e028U, 0x9edcece1dfc2ce11U,
  0x12a8d1e90ba6cda7U, 0xd702d745f4e14972U, 0xe7462919c53f14a1U, 0x1429c7c337f2f463U,
  0x41c37f22efa1e00eU, 0x4c7ca57d14df6773U, 0x1e718b71b3021405U, 0xe3280242912b3769U,
  0xb5b9a2b7034b6017U, 0xf2f1550006ccd19eU, 0x3bc729467fe0e40eU, 0x417f5134e0b7d7b5U,
  0xad3c9826f9aaec61U, 0xe26b19b92dd3ce8cU, 0xaf52e00becf1dc19U, 0x9c3ad449e6de2911U,
  0xdfd51b9cf90c3004U, 0xfffff9a2000005daU, 0xffffda14fffff5b2U, 0x15eb000010f8U,
  0xfffffda800001123U, 0xfffff881000014a5U, 0x7a9000001c8U, 0xbd4000009a2U,
  0x7e2ffffe67eU,
};


ai_handle g_tinyfallnet_6axis_qat_weights_table[1 + 2] = {
  AI_HANDLE_PTR(AI_MAGIC_MARKER),
  AI_HANDLE_PTR(s_tinyfallnet_6axis_qat_weights_array_u64),
  AI_HANDLE_PTR(AI_MAGIC_MARKER),
};

