/**
  ******************************************************************************
  * @file    tinyfallnet_6axis_qat_data_params.c
  * @author  AST Embedded Analytics Research Platform
  * @date    Thu Jan  4 17:52:26 2024
  * @brief   AI Tool Automatic Code Generator for Embedded NN computing
  ******************************************************************************
  * Copyright (c) 2024 STMicroelectronics.
  * All rights reserved.
  *
  * This software is licensed under terms that can be found in the LICENSE file
  * in the root directory of this software component.
  * If no LICENSE file comes with this software, it is provided AS-IS.
  ******************************************************************************
  */

#include "tinyfallnet_6axis_qat_data_params.h"


/**  Activations Section  ****************************************************/
ai_handle g_tinyfallnet_6axis_qat_activations_table[1 + 2] = {
  AI_HANDLE_PTR(AI_MAGIC_MARKER),
  AI_HANDLE_PTR(NULL),
  AI_HANDLE_PTR(AI_MAGIC_MARKER),
};




/**  Weights Section  ********************************************************/
AI_ALIGNED(32)
const ai_u64 s_tinyfallnet_6axis_qat_weights_array_u64[4145] = {
  0xce4e091f5db8c174U, 0xdf697fd4595959eeU, 0xef1050acdcfda151U, 0x635320d4f0eef63fU,
  0xa219d55bc026f742U, 0x2f1d62d921d7e141U, 0xb2bd66e40f2a55aU, 0xf80b7fcafda82b3dU,
  0xa6368f4936371dcfU, 0x6f4a67d84404cf9fU, 0x4c50d7f261f2df2aU, 0x6277b5fab06e1065U,
  0xdfec78ea462f341fU, 0xa216f9b6232d0ad5U, 0x1dd2052fcc1eda30U, 0x342cc565e1365c46U,
  0x81583f17e2fb2613U, 0xa92ffce7a3c964f2U, 0x39373cd9d6644863U, 0x3404bfbe2e70ad75U,
  0xf6276dfc0616b833U, 0xcfd36451811714f2U, 0x12672d3b81b99fbbU, 0x3101fab32e8de7bbU,
  0x531e5251c40fdd0eU, 0xfab9bfd3991e3b55U, 0x994cea48f59e4178U, 0xa98bb13c1cae81f7U,
  0x3f4fa439e3895bb4U, 0x2df3c4e0d3c1d80fU, 0xa0f9fe46cbfe0d22U, 0xb7f37d979dd8e13aU,
  0x9c37d3f39c134ceeU, 0xd47f1db8a38ec540U, 0x50095034402cbae9U, 0x78274b5255206a88U,
  0x81f8bd2dd9696f63U, 0x2311406e6e58ca37U, 0x85c6f5c1f02d61bdU, 0xaae1e7c89fcbc76aU,
  0x9513cb8412535eb8U, 0xed5a4b56c6c39e00U, 0xbf75921b12f33bacU, 0x28b04d0ef1e15504U,
  0xec044ade64f3f20dU, 0x4c3ba3c8e6a9bc6cU, 0xea3cc3a4dce53506U, 0x89dc81fa7331ddd2U,
  0xcd3238d686f6d9e8U, 0xe4d9a827f96bab43U, 0x87fc2db012d06c79U, 0x1c376f127859b0a4U,
  0x1559ccd53150f745U, 0x228129a3afcb34d1U, 0x42e786082c5bbef8U, 0xe7471d1f38ffa6dfU,
  0xa4a10b145af984bU, 0xf0984932875c857fU, 0x3aa5bec60c222c68U, 0x10d37768cdcb9ba9U,
  0xe25a093349a06434U, 0x2f0b16f4a20c3a09U, 0x1607bd47bdef3ee4U, 0x25ebe22969f6c438U,
  0xc398f9ca7faba7feU, 0x2fa846ae96bde411U, 0x653735a35d6a1f5dU, 0x6a1f253603360314U,
  0x449a54ad9457f4aU, 0xde83e841b29bf22eU, 0xaa62e653a110f7e2U, 0xab43fa14c3128ac3U,
  0x3a909a4c779b22eeU, 0x9562c93678a8324bU, 0x81d5ded66152555bU, 0x20669b67bcbfe92aU,
  0x5a1053e30b0de2a3U, 0xfffe9ed3b8248fd8U, 0x3fc1ca3a6faebe07U, 0xc7f300d955f43117U,
  0xd6aabd5e2a317849U, 0xe2cd09d821c30e32U, 0xd2cda57fd6549521U, 0x458ff1e81822236fU,
  0x67823133c5d804cdU, 0xfa7f3a46cfd677bfU, 0x1b27d79b0efdc1e9U, 0x1db527dd57ab4ec0U,
  0xe51947e394d6a670U, 0x61422253ae17a24fU, 0x14f74a7f9259a11aU, 0xd2ed19de50ade9a5U,
  0xf1b108b0636d655cU, 0x278563ce2e9b526dU, 0xa33c2157a4d997c1U, 0xa354abc741ac3e45U,
  0xffffcfcdffffd4f2U, 0xfffff2ecffffeb9bU, 0xfffff5a900001717U, 0xc790000096fU,
  0x35600000201U, 0xffffea8f000003cfU, 0xfffffab6000004e7U, 0x58fffffaebU,
  0xd73532a3261632f5U, 0x395fccb5dd81d7d4U, 0xb4a510205fe468cfU, 0xdb81c9fa3e1efcb0U,
  0x23afda2ea94b1decU, 0x32e108133e52607U, 0xa081cebd47c526adU, 0x31f44235aa851eebU,
  0xc94e08190f083a0U, 0x953a4108902e3f48U, 0x7722caf42fb16652U, 0xd23881584878a7f9U,
  0x5a1f3636bc7b8173U, 0x27cb5bb9e0eccb7dU, 0xfd0ba67f3541bc9aU, 0xe10ae75207f5becdU,
  0x170e998a0bd881e7U, 0x5796a8b2b6ff3033U, 0xb28183b1ee55ca61U, 0x7bc55cf01de2ce1U,
  0x7c7fd6e53bd2c231U, 0x59e1ceb4af09521bU, 0x9481fcffd906765bU, 0x888dc49441fb0d2fU,
  0x2581305f668e5692U, 0x10d51278a86be1c7U, 0x747d9987f7bd348U, 0xda0f01c00ee01816U,
  0xd4f1b3e4f1a194aU, 0x81acfd18085cd48dU, 0xe1179aa7d4edf3d6U, 0x7f2f2128d9196729U,
  0x6fc6e481d9084f37U, 0x12ace0de359a8396U, 0x43c618814fa73fa6U, 0x58fd7698e008bf17U,
  0xfe877ea8776281adU, 0x67cc4c5023c9db69U, 0x1d2927f7b35df67U, 0x7c11bce8cca4c96cU,
  0x717f15e72ff97403U, 0x338bda794fb3901dU, 0x9c247a7f272ce931U, 0x6468b52a3545c7c0U,
  0x925267fbc64cc668U, 0x48917fa558018152U, 0xa519383dd287310U, 0x502a81fb13ede790U,
  0x1a17b4a500647ea1U, 0x83bf81ddcbb61869U, 0x26e44d06bcaad37fU, 0x47db38effd63bb5cU,
  0xcc2b55944a5215c0U, 0x7ffc6edf22c26008U, 0x267f0845ed0b202dU, 0x45e11396d6a52394U,
  0xcd51ad2f7f0079f1U, 0x45d9de92cc0ea92bU, 0x7fc916f8dcfe54dbU, 0xa6cf057790d752ddU,
  0x2f81246d4a1c8f45U, 0xa3298a43ef80f1aU, 0xd80e8ef11830d681U, 0x5f21631d30d5d00U,
  0x29669f1ca77f54efU, 0xa0c8f05dba3e5cdaU, 0x26eb12e08ec3898cU, 0x1ee8fa7fb98aa9b8U,
  0x13e41d4dcb29daedU, 0xe68ab41ae3b94081U, 0x1e1c927982bcdd5U, 0x21bbbd9b7fb0930eU,
  0x424cfc24eaf88104U, 0x44671de112d4393cU, 0xe2813ea83fe56b4eU, 0xf5849cc6f9e20936U,
  0x634c7ffe6fd22668U, 0xa35f919e3c34b448U, 0xe1f7a156fd3d1a98U, 0xaad58194950fbce8U,
  0xc6ff1238e1204402U, 0xffe17f28c943f55fU, 0x452150d7d155dd6eU, 0x74aaa80bb576fa7fU,
  0x1432451282fee1c8U, 0x816b0fd55ad5f823U, 0x318768e0f2bc02d4U, 0x7f51f0c072825367U,
  0x81fc29cf993e41fbU, 0x30461ae3013b4cd8U, 0x4a4d81bd50bf578cU, 0x866021810be76b01U,
  0x117f933bc33382c3U, 0xd22ddaae0fce1c38U, 0x4c9601148b7fb7edU, 0xbcdc4a6832a6312dU,
  0x24129c82111de557U, 0xfb56d283b0a815eU, 0xe54eb56a0c12a0cdU, 0x81d6aaf8d3ecf9U,
  0x60f7ae3c2d9dab4fU, 0xed4eb2fb7f6c0a03U, 0x3f817af157a09c36U, 0xeccbfda56381f5ebU,
  0x30459a6ad4e3223eU, 0xb56cf37f7ea7777eU, 0x91cfc82063ce62a4U, 0x455e2c432f7ff4b3U,
  0x67077fc7a3f62185U, 0x3bac9acb67ad9076U, 0x3f25d48547147665U, 0x44ffb3f2815c0db3U,
  0x4b4ab9f10a0eaf40U, 0x8ef334667f26be0eU, 0xc24f1049671c810aU, 0x3bcbab663bd135bU,
  0xd4c3ac9440456cbeU, 0x7fe4f0de57659874U, 0x340754b73740af10U, 0x3067cb7f0fb691a0U,
  0xfdf9df35be3ce735U, 0x578fd90e1381d3a9U, 0xbd2ae79de4a92447U, 0x3c412d1d91e58103U,
  0x358f75845b7728c7U, 0xb046bedf7f69d39bU, 0x40b0b41c47579961U, 0x9779049ba381fba3U,
  0x9ca00000652U, 0x117700000111U, 0xffffef9900001a91U, 0x405fffff145U,
  0xffd00001939U, 0x11e5fffff919U, 0xfffff89cfffffc4bU, 0xfffffc3cfffffa6aU,
  0x28e000011e2U, 0xfffff5f5fffff4e3U, 0xffffe8c0ffffee6dU, 0x6bcfffff3deU,
  0xfffff51700001139U, 0xfffffc22ffffebedU, 0x38dfffffce9U, 0x639fffffd2eU,
  0x1f6afffffb25U, 0x145b00001114U, 0xc12fffff1a3U, 0x1eb4ffffebfaU,
  0xffffee3dffffef78U, 0xfffff491000001adU, 0x36afffffb86U, 0xfffffe14000009faU,
  0x11e6fffffa31U, 0x9e3fffff5acU, 0xfffff42cffffe382U, 0xfffff9bf0000065eU,
  0xfffffcc0fffff5abU, 0xfffffbf9fffff725U, 0x91e00000b1aU, 0x103dfffffc63U,
  0xe83dafaaa8446bbdU, 0x60dc544b983e4dc5U, 0xd329b5a5c6b357acU, 0x6abe1301d116a5acU,
  0xdcd1ecb33bf63f5U, 0xab71ce433a55f5ccU, 0xf7f5bbfd0fee56f4U, 0xf616f3d8349a7f4aU,
  0x87f2e8a0c5c199efU, 0x46e750546642df5bU, 0x2a0cc28b18df906eU, 0x22d2371efbba1252U,
  0x9c59afd133450fd6U, 0x3ad9180941bc4541U, 0xed4e17f1fc1f811cU, 0xc3b4adeceb4c6958U,
  0xb64c3050ebd3ea7dU, 0x899a342c81b034feU, 0xbfff4ff0a0e81845U, 0x9edbf15540a85209U,
  0xc0f4ddea342eb12aU, 0xc7b70bd3c33cefdeU, 0x8dffb66ea60c2ed6U, 0x54e9f9005e64418aU,
  0x9671ddb6e129952dU, 0xd28cf5a2e38c78dU, 0xfe822dabce9920eU, 0x50b3e0e0e2a2b4e1U,
  0xd1d620f6b32fe13fU, 0x3c68f0222a0750b0U, 0xb1c24f78e7b2ea23U, 0xa50b3815612934aU,
  0xb449a94686588fbcU, 0x39eb585d26f17b38U, 0xf2d4eaebf224afe0U, 0x4401760e3d1d867fU,
  0x375b5bc0c79b5d1dU, 0xb3303c1fa36cb70U, 0x5041eff2d9bcf02aU, 0xd8b1a5e1b86d9f1U,
  0x43accee44a5dc1b3U, 0xaa471afec451e2d1U, 0x36491c09c124373cU, 0x166404e3e8425dcaU,
  0x99c666e9f131588fU, 0xa401e5b8a0811e41U, 0xa22fb535b966391dU, 0xe022f164a93815fdU,
  0xd4c18c5c18b51ed2U, 0x48fd52227fc2f8edU, 0x5bc243034131f835U, 0xd187489ea8fafae8U,
  0xc95b0267dce7375aU, 0x8ba3a3c6bf18dce0U, 0x633830f4623e2f17U, 0xb72b1c41e621a2a8U,
  0x29c0c03e46be0148U, 0x1bdc5a1aeb43d328U, 0x2a6639461da1813aU, 0xbdf09e51bfd9d236U,
  0x2e9489ff10b589beU, 0x34a9f052c1eb6e3U, 0x8dd4291642f0d651U, 0xd91c048922c20502U,
  0x4654d08c16566dc7U, 0xbfcbfca4900b3855U, 0xf4230a0bfb5c1cd1U, 0x839a8b9a31ffb117U,
  0x9d1ab235967ae80aU, 0xdbc20ce2a058d895U, 0xe865980a420968bcU, 0xa7f68b83937f5b53U,
  0x583103ef56accb46U, 0xda37b4a7dbba3901U, 0x51423cbfe15d3e64U, 0x4ddff15bd1e481b2U,
  0xa35fbc44336e48b3U, 0x46f53f56bb085817U, 0x44601e34817e59eU, 0x5edc2963f60a48feU,
  0x81b9464fbcc13da2U, 0xb8d63cf4dcee5fcU, 0xc9a3d74f2fa4e4f8U, 0x513e1a17faec3dd2U,
  0x1df90613b24221a2U, 0xa592b53adf20bf1U, 0xa651ee23c4088cd3U, 0x5ce1e9ed06cec8cdU,
  0x6835652b06201447U, 0xa9e319e537d74ad2U, 0xf4beb015cd6be0e8U, 0x911d4c03081d2f60U,
  0xa061aae8a3e08c45U, 0xe25d88a256faf0d3U, 0xa3efe19f0a22cd30U, 0x11d77f51cc020b01U,
  0xf4def5754b08f060U, 0x507d282ed46819eU, 0x1c1d3603a1e6bbf5U, 0xaffb581ccca64decU,
  0xaae21e3548270d0dU, 0x5a6aca9aaad69997U, 0xea39f8fc6ca6a017U, 0x8597aa999bf39959U,
  0x4a0f27abc0d1eeaeU, 0xcba90f37d84c065bU, 0x872bbf8397b43bedU, 0x2d2a5e9d0fadd0e0U,
  0xee503ecbf20547a9U, 0x2ca50852d88a45efU, 0xc0bd8e5810b98aaU, 0xa1630c539b005114U,
  0x36a0c8f52164906bU, 0xb3eb0dbadd31c723U, 0x5b0145c035c420aeU, 0xa335679b562ce0f3U,
  0xb8d96771290ac3e2U, 0x27cd9bb429f5ef59U, 0xaba5042ac49d1b7U, 0xc487d8293251819aU,
  0x7238e91e8f09a5bcU, 0xc0363b2038e9909aU, 0x13d8fc0cc1fe273eU, 0x92e088ff750c681U,
  0xcdccab3ce7ec56d0U, 0x44594f937db143eU, 0xeb3794fcd020265fU, 0xdf0901f760b1d94bU,
  0x16e6c62d89d1d5f3U, 0x2ffe2a812d467134U, 0xd4c6d52c29e82aa5U, 0xac3604643356e8e7U,
  0x1bfe07e33fceaa03U, 0xfe67a2e0385ade42U, 0xb55f3b0b83c15f31U, 0x1c463149b9da8ae7U,
  0xeae9ab8df1c35bd2U, 0x6088647cdc7f2f18U, 0x3e5d68b4e19db12aU, 0xe0f5f7212ae1c9d3U,
  0xd8f612ba6201343aU, 0xe031681e63b2d295U, 0x3d00c22a8f475e0dU, 0x3af89e39e1f15a35U,
  0xd0e148edcb0ea92fU, 0xa5c1e31250c70d1cU, 0xf4011fb60bf0811dU, 0x55f89d1f235ae5e8U,
  0xa9f4cb2cf0f95034U, 0x2bef23c20b1cbcb4U, 0x141228ec5c22033dU, 0x5b60c69ef0475dddU,
  0x3f54c11020f5982bU, 0x9f61fbe61ac4c844U, 0xd475ff97052f084bU, 0xb603c85ce8eb949dU,
  0xdcbe66bb4714199eU, 0xbe461460f4b44814U, 0x8b0b1419e474d5bbU, 0x622477ba9cce647fU,
  0xeebacdde3314b9a3U, 0x9337cdd1de02fefeU, 0xfb653a6deaea9e2U, 0x8c4efbc1b14b8a0eU,
  0xe2b87ece2715b46aU, 0x8f3a67cf683c8bbdU, 0xc6a8a3224a4c4564U, 0x33f11559fb7f3117U,
  0x4aaa339515b7f0d9U, 0xa731b1c69b070c0cU, 0xff7a52ad3ef29ff3U, 0x5a1dcbcf3a6c75a4U,
  0x9a7f8d522f2e0a42U, 0x614b610616567a57U, 0xe5b413230ac803b9U, 0x323cb4f5509d9a5dU,
  0x4b0b9630b5a41562U, 0xddf001a05530353dU, 0x8da505336f5c0a53U, 0xc897d2e9ab239b1dU,
  0xe5f977f27f70d767U, 0x5e11b50e3d4aef1bU, 0xe010e6b01edfb34dU, 0x1b4e27d82bef7364U,
  0x33523795d1cdd830U, 0xd38589ce009fed0dU, 0x10a0f1fd2836bc0dU, 0x66c3eb7086d01837U,
  0xba89b4a9c2432aadU, 0x558a3d9c0afb5a98U, 0x365273c4e114c481U, 0xd0121a675716dd1fU,
  0xdff6b6fda8bdeb6fU, 0x896542c5039f62faU, 0xb0c7a72898462154U, 0xd9c82ee96ebfea56U,
  0x6ad1055ae253544aU, 0xf1f61e06d91f25c7U, 0x3b430a509f368d81U, 0xfcb9fae1f2331f56U,
  0xdedeade3aaeb2b8aU, 0xc7b75b9464138ddU, 0xeec0f3b74a2c6d59U, 0x7fd5ec7abe60fd5eU,
  0xd91b63e6e2a9f7b7U, 0x3eaa1413ac561976U, 0x93753775c2d2ae2dU, 0x9fb62ef009705d96U,
  0x58f0811841fa2331U, 0xf63a240e4d137b11U, 0xd8b54af7bbca5ff9U, 0xa92ce2aa5458439cU,
  0xd647f9a8d5d91cd8U, 0x306b1cf9aa49b243U, 0xfaeacc55c905e6c6U, 0xf4492cef32350e46U,
  0x8f43bf91485b5c50U, 0x18c9b9f9b0483e29U, 0x3c0725213d1c5e9eU, 0xd8f7eb1e81b7829fU,
  0xf702644eb3b4f218U, 0x41331736cddfdeaeU, 0x8918e1fe6cf92a4cU, 0x66dccb50eeddd01dU,
  0x1b424b0540b6084U, 0x16145de52541f5c2U, 0xf27f45c3af119941U, 0x1d204c2704289546U,
  0x9abdc5eb4c872222U, 0x2fa3e4405d129091U, 0xee023d0ad751293fU, 0x40c391d2135a3fd1U,
  0x5cc00cdc302858b4U, 0x39dadcc708706288U, 0xa20e6fd4905b7f33U, 0x2f19332fe15bfb57U,
  0x41a66fe0c875e7bbU, 0x3e03405fb13300a1U, 0xba773c4f00444e0dU, 0x5d93b3da13131f20U,
  0xf31745609e0d6900U, 0x976bcb1c3cd24fa0U, 0xf6bb5731a45e261cU, 0x581434a64923ef7U,
  0xadb8ff355be2a669U, 0x4704ace19f906bbdU, 0x5c6e22742eda94feU, 0x2adb3ffb5bb48b97U,
  0xd1f3136ba8989feaU, 0xfebc2b2fcba79b35U, 0xdfc1ade53850b293U, 0x33d18d141d422619U,
  0x58b6d8af64db4141U, 0x1a81f4f5954139e5U, 0x49661fe7c20e3e28U, 0xded314911264ab96U,
  0x519f366753ba051bU, 0x1cf732f531abf91eU, 0x3173530c369d5c2dU, 0x420ee324d6275ec5U,
  0x385868c5cc32afd4U, 0x70e025be48e55e13U, 0xe2395b68ef4fbd45U, 0x2acf10e9517fc138U,
  0xf02eb4fb013dcf9aU, 0xbeb5dc5856daa0cfU, 0xa313b22db848f253U, 0x17cde34c46219e0bU,
  0x6ca86fd4a84943efU, 0x7f510357bb4fcc20U, 0x61b50e1eaac0a79eU, 0x99e5d2bc13425c55U,
  0x44815b7182edf5caU, 0xd4e2637819fc7abdU, 0x55261d5b070cbfbcU, 0xfaff40e80bac8a14U,
  0x3f6bc8a7bed3a138U, 0xa74eae41f4474c06U, 0x18bdcae0c5e11f18U, 0x7110d5065ad65f6eU,
  0xe7daffef3fc5a7b0U, 0xbd064934b933f4fU, 0xf20cbbc718cf4dedU, 0x53e9a3f89f2df3c2U,
  0x2bf51d16813e7edeU, 0x4419c9b51f17e38bU, 0xc64adfd57452ad2aU, 0xfa15d223b206acd1U,
  0xfdc23e4f0cea63d0U, 0x81542fd7fa45b3f0U, 0xd513a139c03e2a59U, 0x5b2ff9206fc6203bU,
  0xfabe47950bc59dd2U, 0xd85aafcacf91caadU, 0x8f60d10d9b4cce61U, 0x659ed730270ffaf7U,
  0xf33521b9ae44c549U, 0xddece8f097b8477fU, 0xc4b8c30fcc1e56f9U, 0x46079915e94fdb29U,
  0xc3ceffb9ac607ab6U, 0xe0bdcbf0bfea553eU, 0x3008063fcf29fc6bU, 0x9fbbbd3b4fa3210dU,
  0x1928b352842a220aU, 0x1f12006146f211c4U, 0xf700a1b83836f1U, 0x3761ada7b8a9f40aU,
  0xf3fef624b53beb92U, 0x56c01de8b8909fd7U, 0xb3f04afe344731f1U, 0xcad6c28118565059U,
  0xb7eeaebef218af2dU, 0xc125a94181bfa6a4U, 0xe3511c151af22e8eU, 0x424be2ba1a042fU,
  0x88e9e7fa55f25010U, 0xce6b03ac4d4f5afU, 0x230c419c14608bebU, 0xfa5c2d91c935dd29U,
  0x26cc646d2fe5a5f8U, 0x677fa71528fbba21U, 0x9391e7b08cb3fcf1U, 0x58d7f74c8ded0b96U,
  0xfa924fd9d5ed8ff7U, 0xf247ff5927c0010dU, 0x21120a9c9ad9575bU, 0xe3f08a1cdb297e35U,
  0xc8411dd59ee7f1e6U, 0xd381d98f149704d1U, 0xd96da4f804eb39d1U, 0x28f00d1006bf6e06U,
  0xaeecc119c09ccca4U, 0x550bcf00c7f522c4U, 0xec22030430de17abU, 0xc0c8181bee08c8cfU,
  0xceabf2b7dfe2d6dfU, 0x6abb5430f12c8aeeU, 0xd3096a70b68eaadU, 0xa306f3624da0bd3fU,
  0x6f1b68b323c5c8bfU, 0x7b9f2b6e43e50d2U, 0x1423d0af1c11aaa1U, 0x3781ed54e85e934eU,
  0xd8a1c038c12258acU, 0x3a0eb0aa503dcb0fU, 0xb0410116ece36bf1U, 0xd3b216b32e1d3427U,
  0x2416fbec9699190bU, 0x4e5734812ada9a4fU, 0xa8d7284959d2c8a5U, 0xd9d43f27bf320943U,
  0xe5e8b61fdc3a60f4U, 0x4ff1d81aecfc10a6U, 0xfe85025c4e71904U, 0xff0bba62ec6fad3eU,
  0x34dacf05d46afaceU, 0x2436c8b7d11c5f1dU, 0x9dbe0cb5761bf72U, 0x230fd981a7aefd2fU,
  0x5a3930e5983da543U, 0xbf81f0d176dc25b5U, 0xbb1252334ba0229fU, 0xe8621bb0563d543dU,
  0x1e4eca33d5029fd2U, 0x210de02334918f0aU, 0x44e3c930ca89acbU, 0xacaaa9fd02a9add4U,
  0x58c40e501e3290a0U, 0x3715dfb8660644ccU, 0xacc8a036d5ca6a5cU, 0xf84f4fdface46df2U,
  0xd251670e365c9a30U, 0x46fbae2e9a1d69e4U, 0xbe25e926aee81d2aU, 0x6ddc7f9c799dafa7U,
  0x5ae50468893abdd3U, 0x41bef2e80eff098cU, 0xcc9c24c956335e30U, 0xf985fd64e4e75691U,
  0xad8ac8fde7164521U, 0x1c70bf605aec8dc9U, 0xf15dce4101d4ae69U, 0x131bcdab0a8281a3U,
  0x5197e0bad59e0512U, 0xe93c23e02bb34dceU, 0xdda54eb4e4e1ef2dU, 0xb3cba945c485eda4U,
  0xccdce98e602db9feU, 0x169d4dae6cbcf63U, 0xa8582f8962f944e4U, 0xe67fe50a41a72132U,
  0x35506e9950403739U, 0x25f9a659f24ed714U, 0x56b6cfa0d73b8150U, 0x50dce837eebb2c32U,
  0x4867e3081e48bcebU, 0xe8055fd135ba210cU, 0xaadbbb3875179535U, 0x417d0d26b937a15cU,
  0xe09f25209cf01beU, 0x55b962c9e22b9ae8U, 0xf6541f96af029700U, 0x53a0ce20fa9886b2U,
  0xc5d9efc0e9238c81U, 0x9f58201a2eb0abdeU, 0x5618c7ea9aa1000fU, 0xc51b1b4e37c907b9U,
  0xe50c54be4acba21U, 0x710460cb97b359ebU, 0xe38e4a0d1af2ebf2U, 0x8f570a8420b75a5fU,
  0x502be7e9525622b7U, 0x4300544fc7b66548U, 0x61560d8146404459U, 0x386e81172f1f6821U,
  0xbe22594b4b09d66bU, 0xfcc04ea53aca09c1U, 0xf7faede17bca8627U, 0x50d322c04a11c55fU,
  0x1eac063032697f57U, 0x23251dc398baef5bU, 0x69289462bab49de9U, 0xc9381d1a33f640eeU,
  0xacbe082315460dc7U, 0xb7df6fa0676ef2c5U, 0x7fc55aa3dad43dffU, 0x5822216801d8b633U,
  0x5d2bb51b3bbf02bbU, 0xccfbd2dffcae7189U, 0x56273fd74b204270U, 0x4e021f5a493abdfbU,
  0x400c72e6035478c9U, 0xa962bbec185775fcU, 0x5bac564bb6e9ad3fU, 0xdb793dfc4265ea37U,
  0x8f4fc6309d52afe5U, 0x37b6313d7aaddd1eU, 0x3a9303c667dabd52U, 0x7f7d6d5b1e5cd608U,
  0xdc4ee15a73c3531U, 0x76e56db62a10e77fU, 0xf3d682f568693186U, 0xbf9d8cfa48f8560bU,
  0x4ad5c9fc35ab1a18U, 0xef31fd0fff8d9783U, 0x1c634269cf19fe21U, 0xc668307632145ad5U,
  0x6e436e5e47b3115fU, 0x6b70f0e6d4cc6c7cU, 0xff4c53b540ec771cU, 0x5ea9e637f309cf26U,
  0x3f22eb4e0e29818fU, 0xaf5cab60e322403U, 0x570a34d865b55a6eU, 0x651c0db311c8f438U,
  0x5722d516de5031d2U, 0x1834bf6105dd2eabU, 0xe7b429fbf4fdcef7U, 0x10be03fb2b35f74bU,
  0x4a38b5e83362be19U, 0xba3ca01729c50c4bU, 0xcfb99cda1e2d4ac2U, 0xc75431378120ba9cU,
  0x4fdd2ef12504e39eU, 0xd3cde93655e2b0fcU, 0xe34632ae224306d6U, 0xb537091fadf40e45U,
  0xddfc414b112946edU, 0x1760fa029ee736c7U, 0x9317f0dc249ca57U, 0x61bbf16d11b19167U,
  0xb5caa94d02ffbe41U, 0x2c0152facc454c5fU, 0x260c16a2dddb36fdU, 0x596b94c14e1fbb49U,
  0x588f2b0ce4deaa63U, 0xcc264dca53929495U, 0x26eb34813a9841e9U, 0xbed59dd6935ae599U,
  0x5dbb0327cd33bcc9U, 0x4200600fce27fe13U, 0xdfcfdebca437403aU, 0xdf0194d87414004U,
  0xb31e41372b81a5fdU, 0x4d9c099527063942U, 0x164763f9195c96dbU, 0xb893f115c5f1ff01U,
  0x549dc084a3d2e3d2U, 0x3da7c6e5462f19d5U, 0x81b74c6309a316f9U, 0x9bdf54cc97969dabU,
  0xd8198907d74751c0U, 0xd9af1e8a13ef9394U, 0x90e8d45e1911f0eeU, 0x3d1f12cec6d6de14U,
  0x240c3ab2109cdfdcU, 0xe920cc4143074a58U, 0xe2dbe211b2426b51U, 0x681900fec0e8125eU,
  0x8de2b553a29c1df8U, 0x1dd1eb0158aa4afbU, 0x1d0de3be7ffde853U, 0x4aeadabd375a0d0bU,
  0x5f2f46bc12a32e10U, 0xf9d0394496aff225U, 0x98adc0bacc48d1dbU, 0xd2cadc2281515b3bU,
  0x3d7709c350d4ce15U, 0xff09c78334c3a030U, 0x686c2faca5bb3c8eU, 0x2dd9bfbcaf49093bU,
  0xffffff1efffffebbU, 0xfffffd9efffffe94U, 0xfffffe53ffffffc3U, 0xffffff7fffffffa0U,
  0xfffffec4ffffffabU, 0xa600000070U, 0xffffff4affffff39U, 0xffffff59000000b0U,
  0x62fffffec4U, 0xfffffeaffffffe26U, 0xfffffe8e00000146U, 0xfffffe8bfffffeafU,
  0x3300000022U, 0xfffffde8fffffe76U, 0x1a200000072U, 0xffffff86ffffffe0U,
  0x12c000001caU, 0xfffffeb7ffffffdbU, 0x51fffffea6U, 0xfffffed3fffffea0U,
  0xffffff43ffffff3fU, 0xfffffde2fffffea5U, 0xffffff58ffffff72U, 0xfffffea5000001e8U,
  0x1efffffedcU, 0xfffffdef00000099U, 0x182ffffffc7U, 0xfffffea4ffffffd2U,
  0xffffff640000002bU, 0xffffff66ffffffb3U, 0xffffff07fffffe11U, 0xfffffe4b00000090U,
  0x1d292075e63b2aa4U, 0xbf0b1d06932c03f5U, 0x366005ad31f1fd51U, 0x65819baee95a3610U,
  0xf6b4cb3cd83066b7U, 0xec398e0447c6c160U, 0x1b225d95d95e18c1U, 0x2aa068a05457e595U,
  0xf161ddb801d165fcU, 0x81cfc0b8cdfe4fd3U, 0x9ed3456c4cd855e3U, 0xdc1e8c1c28a54d97U,
  0xe8d99b3b0ad29bc5U, 0x3c48d73cca0ed966U, 0xe2c2bd06cf756ee8U, 0xd7f314f6701c5a46U,
  0xafba482b922b9c32U, 0x3bcc6eb095935dceU, 0xb441931973b1db68U, 0x20a3b72f60096fc7U,
  0xf73c00d9364bf25dU, 0x45b3e015de8f4b7aU, 0x7fdd74bc56dbdc37U, 0x9b32a79974b63fceU,
  0x5e3c3eeb4cd8197fU, 0x4caaecfc1faa68a1U, 0x1f802e3e2b2c6ffU, 0xc3baf1bf363bfdc6U,
  0xdcd8f2e4ad3c1196U, 0xf55ae85d5d4a20bcU, 0xca3e29ef0bbceae8U, 0x3af5fb29b7efbe36U,
  0xea44b4ac28510b01U, 0x27cc31595516cd7fU, 0xe5c35aa749103369U, 0xcd37dbc96a2e4650U,
  0x5c3b61515bc53f9cU, 0xe8a902700ca75a09U, 0x1ce62affeffe1908U, 0xa847e919c1f529eaU,
  0x4028214a39b13e27U, 0xead4dcef9e0cf51cU, 0x29df92bab4ab4b18U, 0x941a614606d27ff6U,
  0x611f5f38da47ffa6U, 0xcad6f4c64db410b0U, 0x3e37ad8d7431cfdaU, 0x3a6822033eb45969U,
  0xc4d4bce36048c2b2U, 0xd962433ba207221dU, 0xdc30329cdba1d60cU, 0x2e1fa30926eec368U,
  0xc3c7299e162dd030U, 0xc4e6c62e01d673d3U, 0xb562c2ea25ba3a67U, 0xa4c92b02ce267f91U,
  0x12d759619639a624U, 0xca2692da4d571dcfU, 0x7b0ed16f2c3a65d0U, 0xbd638af7b4a09b20U,
  0xf7b853a6b0f181d8U, 0x879fde3fdbd3e9afU, 0x20216601031c5cc4U, 0xd81badbfe54edaf5U,
  0x31038c1e44baa06fU, 0x28f84b32a417c6f6U, 0xdf5612fe642a1528U, 0x28c85bf4110d3a96U,
  0x2db3881e55140797U, 0x5e414edf4dae1f04U, 0xd281681a1dde3e2fU, 0x40c4a9455db4a6b3U,
  0xc45d2045d02b5ec8U, 0x4c1337cb7fa1bd67U, 0xd7501ded41ec3aacU, 0x4b71e23713152e2cU,
  0x6d1c9630de143c3U, 0x4fabae9b30d3d606U, 0xa93e152e3eb2f411U, 0xbfc1a61ed3f9e751U,
  0xaafa50e95be3566cU, 0x9a31879eff56ea33U, 0x47a156ded3bd2df8U, 0x15a5cd045caa7914U,
  0xebbf7fc6fb1fbf4bU, 0xd5bb70972c9d68caU, 0x66a23739b5094212U, 0xb8312f4d2c93d728U,
  0x893e35f8af4c62e3U, 0x24c7cca5aa480d6eU, 0x6ef331f83bf8c375U, 0xeaed40f19a52a2ccU,
  0x2a347e5637a5ebaeU, 0x4eea5076a65d464aU, 0xf1bcc606b859bb6dU, 0x4d8c9c6012327fb9U,
  0xefe21a20a9c932d7U, 0xd8815b95a31a08c5U, 0xcfbc97e45062ab4fU, 0xb303ef012ead16d2U,
  0x4a4071ca03f744eaU, 0xdf761563011f56faU, 0xa93d356c43c9cc7U, 0x5fbbf45e8fe56e5U,
  0x4c2e2ed34a0ef914U, 0x6da600149ba5adb4U, 0xf2533e0745bf035aU, 0x19e954b9435d11fbU,
  0xae2ed3955579003U, 0xb646597f6ab3a84bU, 0x5cac8bb1c5a2ffcU, 0x201eda674541fa67U,
  0x1713cd573595d6a9U, 0xacc2e5e37920b455U, 0xd814f98861a44222U, 0x4628814d2769f622U,
  0x51110df9621308e4U, 0xca6860a800c742e5U, 0x34009746364b17aaU, 0x6455f3250e67cc06U,
  0x4337a83d66f4160fU, 0x7f1b086a9b13c8b4U, 0x181323e6711491edU, 0xec3fcb50e6938e2U,
  0xcfc1add249c6c7cbU, 0x69e494de04cec7f1U, 0xb263956f21c1da5aU, 0xbf4caeea0e22fb27U,
  0x6929fffff99aU, 0xffff8dc8ffffb54eU, 0xffffa0b2ffffa123U, 0x7c6000002801U,
  0xffffc88000001bf1U, 0xffffe343000032b9U, 0xffff4a0d0000455aU, 0xffffcb7afffff55dU,
  0x46183498eeb601c0U, 0x3d22b63b62d005e1U, 0x60c514469c340996U, 0xc69967cda9e81911U,
  0x6850e9a8dd103950U, 0xabbd8158509321b2U, 0xd72e49f5c1b4a9a2U, 0x1bffcd5bcd81b64dU,
  0x92b030a3d2df3390U, 0xb717593a044191dcU, 0x8bff81c6fe99332fU, 0x244ceb4b356658b1U,
  0x34d14a0e19f2d594U, 0x721243d05719102aU, 0xd265b154a120e652U, 0xaf61a48fff31022cU,
  0x2144b9742c4213f2U, 0x433930d11b816858U, 0x183adf49292f15eaU, 0xecd5dd4b549e314cU,
  0xc81eeb2c7fbaa10cU, 0x5b8f55b4352a91a6U, 0xdc1466bd644c360cU, 0xb18aeddef2f025d4U,
  0x4d01456403443249U, 0xb724f2216f7317fU, 0x6603cc48fdb786abU, 0x1cf53cda3ebf3d5U,
  0x6d4595ef3ff1a2acU, 0xcd3cd6a31b54139eU, 0x6f2e5849b7b6b38fU, 0x26f2154ab15fb3baU,
  0x707f0b2b6bf998b5U, 0x59ceff2ef46ba062U, 0x852d12448cf3a331U, 0x8c0ed7a73b786d8aU,
  0x2545c4587fdc452aU, 0x12c9d2221ad605baU, 0x3f6a0270735343a5U, 0x489c38e870a6d5b1U,
  0x9aa1c238c1ceda2dU, 0x2f6918cd1fbe0bdaU, 0xff902686238843f9U, 0x524b0c12206dee8U,
  0x9865c9330a8f910U, 0x11812b54fe4198c6U, 0x8fc202c23f40c391U, 0x98cee328fc9bce82U,
  0xd29c00cbb8cdf454U, 0xb0e1c047a7120bb4U, 0x4d9efbd090edb2efU, 0x5b0ff530cd3758e3U,
  0x4742c5c0b68c5e12U, 0x37af55dd81eaf29fU, 0xee7c0db0a98107a3U, 0xb813f1c5ebf0da5fU,
  0xcd7e59d49747e722U, 0x17f6451bf93910U, 0xfb1547a05ffd6b1bU, 0xf069bf502ff17ff9U,
  0xbbc52e0ef428e4a8U, 0x206746ea0a38f3c3U, 0x3b1c6f517fa85bbaU, 0x74a5336c3fb05afU,
  0xdfdb6b913f1b826U, 0xfdc61f3248563460U, 0xbc9e89e2a9e0f047U, 0xd6f51f7b4abb8145U,
  0x34fae8aa9e2600bdU, 0x4502204b50235d5bU, 0x5618b339ba645111U, 0x85abbef7b2ff5afcU,
  0xc605aa4aba815aecU, 0x350fcf91b12c78caU, 0x9a95121fb6aae238U, 0x3425ece5fefd3eb4U,
  0xc49820e58c613a16U, 0xd3d81ca08a61dcd3U, 0x279933c632ee8cc1U, 0xa9ab2eb2e74f6995U,
  0x6df3e1511d420ffaU, 0x86e8c899171a85bbU, 0x35078352a18100dfU, 0xe965d34b84d3f370U,
  0x897f1ae6d83f01a7U, 0x1714192620d645dbU, 0x836af062c09d584eU, 0xf8f0e4b21d412dbaU,
  0xf4482be5362fc32aU, 0xf3d6c3910964e6eU, 0x225a3637f9332f4aU, 0xb744ee5336ab51aaU,
  0xdc3816e3de412ccfU, 0x5fd0e8f47f25f323U, 0x2477aa4e41aa33f3U, 0xfc237a54100f22fU,
  0x253400000f6aU, 0xfffff502ffffdc97U, 0xfffff7f6ffffee5eU, 0x3bddffffed4cU,
  0xfffff01a00002fd2U, 0x6e6ffffe2d8U, 0x2a9700003279U, 0xffffd6b1ffffe501U,
  0xd4a8f47fff69db0dU, 0x6ac2048fd0ce5596U, 0x81e3372d9f7060e0U, 0x8b7ef443ac24c268U,
  0x26a4ca437481cd35U, 0x8cedd3a57434537U, 0x16e71a8aef9cb481U, 0xec5232071ef4035U,
  0xb7b881f4b6a637e2U, 0xe0137ccc466d2de5U, 0x4a06c44cd81b67c3U, 0x5b94fe21f161a7fU,
  0xa6378fb610b81c23U, 0xbfdcd8dc25428101U, 0xebdf4c4df725009cU, 0x4546f3a7e1b6607fU,
  0xbdbeb14de42681cfU, 0xf4fad4609f79ec68U, 0x4297e45eefd3d58bU, 0xfcca6eef81dc7c22U,
  0xd4459f307152d102U, 0x14cca081742c4c3bU, 0xe3c8023048c3c0f4U, 0x54a92a0dcfb81a9U,
  0xd27fe47e68452115U, 0x8b5802b3c3d71922U, 0xf4edb802ed7fa7e2U, 0x57023c14aea9c9c1U,
  0xf74dd45c3f5448c6U, 0x327fa66be027e808U, 0x3e8f25201938111U, 0x95fc0311a07953e5U,
  0x81d0a17ed1961fafU, 0xdb1f01e7f7c988f0U, 0xb97f54714ccb441dU, 0xb4cf1c00e9751bfeU,
  0x41bc01b5cb26840cU, 0x5c7efc407f919f23U, 0xc96a053b16be819cU, 0x70df0bf6b261ca0eU,
  0x7b9abd16949e69cbU, 0xb565fb7fcdb37c20U, 0x3ccb3bf1784ed0e1U, 0x7fd804cdbd93a5aaU,
  0x94c61701334e6020U, 0x81db52f3a2306b75U, 0x487f56b3cd3ea894U, 0x53f4522761525f35U,
  0xd5deb9284b47908bU, 0xb65e7f9fcdb4d608U, 0x7fbb620ca3280cf1U, 0xa536fdba4d5ca5d9U,
  0x96d16a244c56e0f1U, 0x93155aaf813b67a0U, 0x17227fdf27cf6a6cU, 0x690bc0b60b64c32aU,
  0x3905227f78f12cb8U, 0x8ce71f8bde11c636U, 0x9c2dfd3e53bad2a1U, 0x61eb814767888fcaU,
  0x817832cb34bec2feU, 0xd865c018eb53d1c0U, 0xb321c5a1715dfd81U, 0xc899250cc75e4bcaU,
  0x228912bccfb35f2U, 0xd24063b017f38d7fU, 0x160df67f066a834cU, 0x91536e43dac03475U,
  0xb49233363d35337fU, 0xa10df44c573336deU, 0xda84352081551c7eU, 0xb6c05d3add2637U,
  0x88f94b9415bf0fbeU, 0x461581bf0d77a529U, 0xe47f2fd7d2ffcf05U, 0xd86a22419dc1d359U,
  0xcbe381cb10f85204U, 0x7ab93cb88eee8ae8U, 0xdd19499fd00d2555U, 0x52528d387f004226U,
  0xb344b47fd4edaf66U, 0x2b054ef8b5ec194cU, 0x71eff141e44007ceU, 0x7845a8812834bcefU,
  0x7f62fb6a93d4ff00U, 0xfc816bc542c1f3a3U, 0x4cc82850593d7ff5U, 0xd1d205df293ad6dbU,
  0x8674b64d3ed3370dU, 0x2a66a76b7ff1486fU, 0x6f64c59b7ecea581U, 0x62ffeff5b5d757d1U,
  0xdf167fcbf7a684f6U, 0xf25656cf3d53a6b7U, 0x293a7fa03a436204U, 0xb89c0e1b43c43b6dU,
  0xb3e0eaae927fe3d7U, 0xf336fb9194237dd8U, 0xf51e430d09cb40e7U, 0x24277fcb38c38534U,
  0x588460ceaf1fe52bU, 0xe39cdc9e81cf8af0U, 0x387f1f070477a311U, 0x5a552a018c7bc7dbU,
  0xc6e37eb118cd4402U, 0xf346ed9d17f8d781U, 0xb688043b6874f39dU, 0x425f4e8188f8d465U,
  0x49d9fa1fd88882dfU, 0x7316a9c26e7f634cU, 0x90156a4739dc3ac8U, 0x3518cc46d10eb281U,
  0x2ee8907fe63c0c36U, 0xdfa382b2664ca48U, 0x234b05e0b674dc08U, 0xf9f97dc8257f6365U,
  0x227fbee70bfbc512U, 0x29265a25892a9a8aU, 0x9c812c4afc079dU, 0x2a38eb706980581U,
  0x9262e47f69f9e75aU, 0x2da5d05a434f5fb7U, 0x6079054bc0c4a830U, 0x15ebceb07f15ce9bU,
  0x5c6d7f210de6dd9aU, 0x6cd41564d4157bd5U, 0x307a1989f06debe6U, 0xf354986c48f16481U,
  0xfffffbcb0000072fU, 0x7eafffff5b1U, 0xfffff02b000006f2U, 0xfffff8a3000012d8U,
  0x83600000656U, 0x16cefffff82cU, 0xaa5fffff312U, 0x851ffffe7dfU,
  0xffffe9fb00001b23U, 0x37afffffec5U, 0x61600000067U, 0xffffe446fffff584U,
  0x290000100fU, 0xffffe8e000000222U, 0xd9afffffdb5U, 0x6f3000003faU,
  0xffffeb97fffffecfU, 0xfffffb15ffffeef6U, 0xfffffbec00000a4fU, 0xffffed93000010b7U,
  0xfffffb5ffffff8c4U, 0xfffff1a800000171U, 0x32fffffe3cfU, 0xffffebd400000341U,
  0xfffff5a900001177U, 0xffffea9a00001d8dU, 0xfffffecf00000aa5U, 0xfffffffefffff974U,
  0xffffe645ffffeb27U, 0x23c400000101U, 0x10ffffe9c4U, 0xfffff646ffffe82dU,
  0xc137e52ea1324eb6U, 0xcee0bfbe7fed3754U, 0x3ad7c05411fce13bU, 0xaffc6fe0e34cd3e2U,
  0xdedcf555b28a350bU, 0xa6a9b49bc9b5adefU, 0xd6f28e11dcba1c1eU, 0x7a4cab45d6a9f436U,
  0x63460103d9134481U, 0x565f2dfaf9af6ce1U, 0xa1cc99301cd12c35U, 0x42e4b1ca65b73786U,
  0xcc3638c5ff1c450eU, 0xaabe88caf28fc3f2U, 0x313dd209a037ad88U, 0x682d876607fd11a3U,
  0x4b250348de04c1b4U, 0xc9b16aefed4f1a36U, 0x39d9561e176a13d4U, 0xba0bd44c4d9d6531U,
  0x344ac73520c8dc30U, 0x9d6b7f93e2aaa062U, 0xd443491842eb198bU, 0x3727e6e8a11aabbfU,
  0x4cf2c927e22a2532U, 0xffec3f40c716db1fU, 0x42bbee44d1d5e7ebU, 0x17f6c44315bdafd6U,
  0xf8f328f0d0bac911U, 0xe9f0f621f5bdfec4U, 0x1cec2e33127f0b1dU, 0xe2dbee27b436f2fcU,
  0x7c3131cf056cfc23U, 0x4074bae6fdd69a07U, 0x14c4f85486c97463U, 0xd32b47190af5ed8cU,
  0x8e7b02e11b7fad17U, 0x4c9b4fac6331f1a4U, 0xec1e1dacda25c734U, 0x35b4409e2ea81f1eU,
  0x132914b8ca12ffaeU, 0x26132042a4df17dfU, 0x3d337e5c0a71711U, 0xd7501b15f7f398baU,
  0x2019e35f811b1accU, 0xb8fcc315b6bc67ffU, 0x4fafbdb0ce2bbfeeU, 0xa1c0f53ab905012cU,
  0xb8a52cec2dc5502fU, 0x3a915c3e534bb54fU, 0x14fd631af4be4648U, 0x4768149735efebdfU,
  0xaf3fccf7f40169d7U, 0x665f332592406cc2U, 0xe1f68b2abf4dca06U, 0xd46db96b466ee81U,
  0xf3da216f19a8cc0bU, 0x2ca7c22af64d1a4fU, 0x32eee78c2c4efe1cU, 0xd3f5cbf257cfdfb7U,
  0xeb145ac3f91d0746U, 0x4f1026e8f4d7f6eaU, 0x17c8e94b34327f1fU, 0xefeb4409bf18372dU,
  0x5d628e8f726092a4U, 0x66ac3ef6a961950U, 0x26a4db42ac51398fU, 0x8f79f34286133d1U,
  0x627652821697db3dU, 0x5dced7269efadd57U, 0xf3f55e2dcb32bdc9U, 0x47beda7fd7ba29aeU,
  0xefe34420348ae49U, 0x2acc3f4011e94d56U, 0xc2e4330219f207abU, 0xbaebcf02c248c7f8U,
  0x1eeda8a8c9ff3281U, 0x5902231c46d5083dU, 0x8bd34b4b3e0654ecU, 0x51a7bbaa6346b194U,
  0x51652f81eca746cfU, 0xc475faa2f4fd760U, 0x71209e2a1bbb5f0U, 0xaa1dd2bea3644e93U,
  0xbf6543bfd50e5fc1U, 0xcbbf1809a6c1ceddU, 0x6442fbde54eb1042U, 0xc3fbe694575cd8cbU,
  0xa9ce258480de7d0U, 0x4aa9a7be750a491cU, 0xa50b8aebea15fcd7U, 0x87b7e725423af647U,
  0x3f331c9cb7140f2eU, 0xf6d651b9f7ca2320U, 0xef180721d54d813fU, 0xd6d9665b13c4ed2fU,
  0x32eac5c83049ca43U, 0x2ee2dc7945fb19adU, 0xbaed987f282fcfc0U, 0x2c01b93edffd4354U,
  0xcdbc0b12fbdcccdaU, 0x63e34a1ff2cb3ef2U, 0xfb3d2dd9cfe5e261U, 0x5caa1c2c01d9f1e2U,
  0xbcbcc04c38d85b07U, 0x750020f57e4fc8cbU, 0x81a453961d5a15dU, 0x230b5083eadfd2e9U,
  0x1ca44106cb30a981U, 0xc20ff0511ec4b09aU, 0x44c44a654894d2ceU, 0x5b0e32c2cf25092bU,
  0xe8cac1d10daefbbeU, 0xdf27b9ffee45399fU, 0x8f031f8c5e81e389U, 0xf13730f31a24250bU,
  0xfd0e2cf411b1db99U, 0x6582415ecc270958U, 0x2726488302ef3f93U, 0xc42c39533fcd41a6U,
  0x476edfde580f1828U, 0x47b10fb7b8dbfbdaU, 0xdb226434dcf3fb3bU, 0x98b89454a8f7bb45U,
  0xc2302866a5a4bcbaU, 0xea912927b819d963U, 0x541b0c33c67f561fU, 0x50b2b41c4bfac315U,
  0x8c0acbfd2b2d2becU, 0x60ce1bd37a53f56bU, 0xdd3bbdcbfc3fd6dcU, 0x245b1313171f2f13U,
  0xf5ef3d1a5d61b781U, 0xd986b126112303efU, 0x5292c9e4bbafeaf4U, 0xf9d9d4fda3406acfU,
  0x3fecffc3c02ba75eU, 0xd011253be5534357U, 0xee3dfacf5ab02fffU, 0x19cf0f65dfe4a7a2U,
  0x2525cbc798512a5bU, 0xfd32e3ece2c42c30U, 0x470caabe597f37c4U, 0xbc40072a4fac3897U,
  0xf4e296d09bb25e25U, 0xc801bce80245e7e1U, 0x4698fdcedbd4e43aU, 0xc3b3bf53fd372956U,
  0x2122acec0aa43d43U, 0x36073881ee014d1fU, 0xa09bfcf83df5460dU, 0xf1a0bd0bba230038U,
  0xe24cd1c91ab1696eU, 0xc0bd7f733b093db3U, 0x237fbe2c6afce59U, 0xb72906dfde5efbe7U,
  0x957dd2c8cdcf111dU, 0x25d6591f224ff3edU, 0xf01cbb0b11d9f13aU, 0x2ca639d0b5e5c0f4U,
  0x9bbd042e74b850aeU, 0x338c992537fee2dbU, 0xca9d9ad4ee43a8deU, 0x8bed0bfc57040c67U,
  0xcdcb1442d02807e5U, 0x78a34d37550b61f8U, 0x94f1f811e3640ceU, 0xbf70efd6ea2ab09cU,
  0x4fe0c128df11b3feU, 0x88592a19e2653144U, 0xf333210a846d8186U, 0x25d3f2181baa4a26U,
  0x5893ea20d682de53U, 0x460814f57495c503U, 0xc2e51cddf3aa279cU, 0x38a3d4d31a5d08cbU,
  0x431ef62c4dbd4446U, 0x1ef053da43e2fb11U, 0x735d747e93ede02U, 0xd36b8d2c2fdcccaU,
  0x3b1df8067fc8dcf3U, 0x1d24fb45522f05d4U, 0x34cee93606351c42U, 0x72d1e0cc06340af2U,
  0x57959f53470425eaU, 0x5d97e10235b0c6e6U, 0x3ff62063c427c44U, 0xac6a92f5816aa1cfU,
  0xe86a2776312f9a1fU, 0x285b980f34613a11U, 0xfeb2529a41a620c9U, 0xcaa0dbb6efda26b5U,
  0x119e290ba4bd701U, 0x2ceabf0cdc1245a0U, 0x1681aa1ec0ab1ed0U, 0xb313aaf81583380fU,
  0x43a3fd0f31e43d0eU, 0x1fc75948c9a5191cU, 0xef13e0d2e24ede8U, 0xae46034a4efefdbfU,
  0x23d5145058bfb42dU, 0x5a4ebf42d948f439U, 0xbf38acf9431e1dffU, 0xde8188d0d61817cbU,
  0x19a12a412802e0e0U, 0x493049056407e2ccU, 0xc4c7ee1e02a8f22aU, 0x51e134ebd890b921U,
  0x9dce07c3e8e5ef69U, 0x5a3a5f903db5efc5U, 0xd44264c467063d23U, 0x3926d175e034ae72U,
  0x608acf5d7fc86bb2U, 0xa6c87a8baa08a50U, 0x5d1221e1454759f6U, 0xb3069a400723c946U,
  0x5bd40a6c24263b57U, 0xa7bca992f2401021U, 0xdb235505a45bd690U, 0x1b2eb0e6212e3ef4U,
  0xc957cebd2d9fe41bU, 0xf7bd36e962301a08U, 0x7ff40d7b356fe02eU, 0xc6b1f551d4dce7a8U,
  0x32224ff0ccfa4d48U, 0xdc0e064335ebf72eU, 0x67c00b2d194d7c0aU, 0x27e9b2d6ed65c8b1U,
  0xc939eec9e02ad1f5U, 0x5f38def3e659f1e2U, 0x38c8cc3fe4b07f34U, 0x651e234fff4c53a9U,
  0xe83bdbace2b83aaaU, 0xe61f9a47355b4e98U, 0xe6ba4ca2ce893ba5U, 0x17011c22e44730e1U,
  0x43d7abd7c2bcc8d8U, 0xe950b7a4bbf3eaf5U, 0x2faad51eee4f8581U, 0xd33a19d8e139e945U,
  0xcc221194f09ad083U, 0xe3d1b0d154ea553eU, 0x69e42553bf74b6afU, 0xbfb3c3fa0743e807U,
  0xe3540bb37f61eccaU, 0x343cc5a6c96d6030U, 0x17f28c0bfb8fa374U, 0xb207a0df3b001e13U,
  0x9bdfde54225449e1U, 0x34725b4cc4cf5ddaU, 0xafc725edfe1f7af9U, 0x9f48b2e1427fb75fU,
  0xd682e33cb75be9aU, 0xd642636b411c0d6aU, 0x388975af32461e04U, 0x97da26545334a23fU,
  0xf713bdefb31cec7cU, 0xb265ffb949610acdU, 0x88ed9903f65630a0U, 0x843999e62f33a7e8U,
  0x6baaa83fa6867f3dU, 0xe4478e9cb4038130U, 0x1bc1b5d29650332bU, 0xe15e4b881f62a7bcU,
  0xae5946be10165306U, 0x18fcfe3777d0dcb7U, 0xfaa65b99ce57a546U, 0xa853b5374140fe2cU,
  0x247d32d07a9ca4b9U, 0xdb8c282c7f74209eU, 0xba06c5f503440ee2U, 0xbd159e41efc0a2f4U,
  0xf4ba3f3c3cc8c62aU, 0xf39c7e235aa440d7U, 0xe2a8cfee2e116eeU, 0x54f2edb52fa556c6U,
  0x53b522fdfb5f052U, 0xecc34b3f1890bcU, 0xe8b39358c2f405e3U, 0xe981027109393d14U,
  0xfcf11b97a411fb16U, 0x42dfdadc4648b04cU, 0x2a538e3bd770f125U, 0xc1f32e9f489abdbeU,
  0xde58065de236b7eaU, 0x59049fffe1be3da6U, 0xb3cd54b0f4c0f7d9U, 0x349429f414e38117U,
  0x67e8546c552a60feU, 0xf26004e08184b5a8U, 0xe9ab493b39eb583dU, 0x5505aaf25c3b21adU,
  0xa927022f0156f093U, 0x45a9123b31f494cdU, 0x40131a95235f0440U, 0x910528a5c810c0f6U,
  0x52365c4efe0cb7dbU, 0x58bfc51065cf421U, 0x32edeaaac2850a91U, 0xbdd5e64d4f968dbfU,
  0xa90600999fbe97feU, 0x2ef602ee466645ffU, 0x9facce55344a9281U, 0xb74294816b5baafbU,
  0x3d0d3de26a66a0e0U, 0xecc5d06e1007949eU, 0xd95509cace2fa61eU, 0xf9583a7fdda92ebaU,
  0xa902f2a9396447caU, 0x31bb6d1c0c4d6db4U, 0x8af1d6d02de02a56U, 0xa1134d53033dfcaaU,
  0xddd6bbecb0312f31U, 0x34ec345db35bdf85U, 0xddc6c1a5bcb12736U, 0xbcec1bd1a0e936dfU,
  0x10278164184aa2c2U, 0xb5210edecc5b4cd6U, 0x6e12a020f07e9a0U, 0xb94f0c0a3dc24544U,
  0x11ffc3071f13c4d5U, 0x5b755d406bce12dU, 0x3adb3ac4482a02ddU, 0x3136090b26f2d40dU,
  0xaf2df4b97f36a9c3U, 0xe22b2e013a34f823U, 0x32cbd4c0e5570578U, 0xf020ed013615ecc0U,
  0x4dc2654dd30cbc8U, 0x7259d08f97e251aeU, 0xe15da02e1ac811e2U, 0xd5d3bcf40134addaU,
  0xb3e9520aa98eca42U, 0x61d4ed4d19812f18U, 0xe3b71bcc1265f272U, 0x37dacb715dd73a47U,
  0x2c8be1639de0459fU, 0x20d3d1eeaed36612U, 0x162b13a3cd0db820U, 0xcd20fe1e99af5398U,
  0xb9c07fe89dd06183U, 0xac084be1e37b67a1U, 0x95d2faa22d44ece6U, 0xdea63d1ded22c4fU,
  0x66b828ff5758d3d8U, 0xadc658d14bf5b602U, 0xbd493c47deb2d753U, 0x460bfdd84dbe5b28U,
  0x398ff592ac02e3e5U, 0x1fa42e2042af08edU, 0x8116afdc08cb0733U, 0xae1e8eb450d7ad08U,
  0x3811a4d94fb1aaa6U, 0xf1580b7f0a19915bU, 0x3b572bc4b949b4edU, 0x9442a8e49dca389fU,
  0x3ad52824ad345ca9U, 0xc62a1eb4ca45727U, 0xb6bfcb478d18e952U, 0x5c4f8ce341ead109U,
  0x22223406e21ab438U, 0xca104e2e2ae7adefU, 0x22a5149f4081649cU, 0x2f1930093219a3d3U,
  0x98f444f1705d5f4U, 0xf8296c3f9f3740e4U, 0x48f98939a7300e2U, 0x184f3363976554deU,
  0xea8113b63f2ad7d7U, 0xe72b07eec3d81056U, 0x150bb8f00cdab32bU, 0x4c7cd1d933332dcfU,
  0x3a0460e86ed493e3U, 0xada83a1d260e18eeU, 0x1b2133598fe13441U, 0xde45dcddb602d630U,
  0x95cb355344e5dfc3U, 0x35bd8b7239011a38U, 0x38f1d88d4ebbebebU, 0x68371906b8d6beeaU,
  0xf591e860b9b7f124U, 0x943ab5e5342a47cdU, 0x96aca3da51c09e54U, 0x1b813717e7de1c65U,
  0x441d336238ea81f4U, 0x8ed4d40e4af9ea8dU, 0x610a2ab0e66242e4U, 0x5df4c765d80ed62aU,
  0x14d8a3970d8302b0U, 0xa3b9203dd0329e2fU, 0xa3f7ac972fd6a2a4U, 0x434e44eaea9c0540U,
  0xf052c134dc2a0a17U, 0xa4b9071666569947U, 0x3632fe9e48e3c109U, 0x4df4e80cd1fbc5d1U,
  0x3cb54cd0513c8ccbU, 0x18cf1de099dcf7fdU, 0xd6c1b40fc9260109U, 0x7fb60e5ec01702d2U,
  0x34fdb973fc5dca21U, 0xb0f5e577cffa220cU, 0xf20ad5d541b7cd99U, 0xecfd91133ffcbce4U,
  0xb12b224c349d4710U, 0x95eb19c21c03703bU, 0x20f6a3faabf4556dU, 0x3f446c08ae7f94eaU,
  0x323a4c0abbfb0f07U, 0xb7c7c52e09dfd7bdU, 0xdddfcf9f8043d32U, 0xc9e6e29d0625ce43U,
  0x6d19ec211f49ccaaU, 0x29c46733eb21013cU, 0xc8af11bb25c7341cU, 0x7f3b3a26f27e3ee4U,
  0x96ba580fe236dfbdU, 0x3a3713def0bb9032U, 0xd3bc138a0703570bU, 0xd23065a337c73879U,
  0x3d2a565bf60e00a6U, 0xbdaf17fd0587238U, 0x29c9df33245d0297U, 0x31d0993430185da8U,
  0x4eb96dac429daad0U, 0xac06814d5216a696U, 0x64ecef4cccc7d748U, 0xde6fef664f2ddc12U,
  0x1295c787107c654dU, 0x5004380482d36092U, 0x538a6eb3070ae27U, 0xdbdbee2afb6b34bfU,
  0xd43d624bb7ac6016U, 0x4c4ca5cb30b09de8U, 0x3ce93c56b19a4027U, 0xb3df9967c49cfae6U,
  0x36b9ccbfd49d81bcU, 0x2d251ba4e0eb75b3U, 0x4c5729d9c13bd6b1U, 0xde9839d4e0d163f1U,
  0x4d24e3b4d16a2abeU, 0xea05c13f9f55aa22U, 0x4213b6f12daee321U, 0xbcc3a850a4d98149U,
  0x1dd510b42af357dcU, 0x34ecee0147bb3cbfU, 0xe9fceb2b41564c34U, 0x4dd53cd1b641d33U,
  0x4a0fd0a22a2777caU, 0xc8e0efd10da4eda4U, 0xe300524dfb074c8fU, 0xf78a96a7ef05cbc2U,
  0x7f96628714aa6713U, 0xb8cac9702f2bd1U, 0x294daa512088b7abU, 0x195d4326193e3e19U,
  0xcc0a66fcdb831dd5U, 0x4fb89895040237b5U, 0xc2fd3c8f9c9be3f1U, 0xfda5c43b7594ad51U,
  0xdc04b31ce40981d1U, 0xa9026820c8211d0bU, 0xa64de7a44e1bb8b9U, 0x2f31eeff8fcfb4c8U,
  0x19428145d89cec0bU, 0xebf6d85641219adbU, 0xfac934debb5cd8d6U, 0x644c4912039bb697U,
  0x5ccd380e04dc1317U, 0xf40af0f8fc28ef44U, 0x4f9d4235e9ae2adcU, 0x5edaf6c7324b3eacU,
  0xda041466e3a1523eU, 0xc5e93808eccaf63fU, 0xd549f3fe699f74e6U, 0xf025f1bfb2ba425aU,
  0xf8462f113ac9bd97U, 0xde3c63f37f35e5f0U, 0xfd895ca6846c4019U, 0x6aed26e1a6e9f9c7U,
  0x25dc8897fa97d5c8U, 0x15d8a0e6dd8fc253U, 0x39eca543f35f1de2U, 0xf44c93f08a9afd8U,
  0x28d76448174c3d8dU, 0x81a9ff5a4f4f32e6U, 0x30da033e42050052U, 0xd400165209a1fb3dU,
  0xad1d7374521a923U, 0x8c98ef3241e150eU, 0xd555813b402635e2U, 0xcfea08fa1788ab17U,
  0x2e31b70244212f2eU, 0xbd53e8bdd6e4f7e4U, 0xcd2fb20983cad6f5U, 0xcc5d81cf02f20d8U,
  0xf0814824993dd7fdU, 0x23ace2f835b41032U, 0xe6d3d6fd09bb19U, 0xee2f06425ba5829bU,
  0x4bd8ca4265a122daU, 0xbafd9e473b11182fU, 0x3d52cc0206d99f8eU, 0x3ff946a71635f6caU,
  0xdd069130af7e697U, 0x8c66eae325dcc8efU, 0xc4538ce7aa040b4eU, 0xdac300cca7c6e2c5U,
  0x40dae2fef43042c3U, 0xcb4f9ea035b33f4cU, 0x2f4d443ecbc7461aU, 0xb9ffa162818a5d2bU,
  0xffffff0cfffffe97U, 0xffffffa500000080U, 0x72ffffff11U, 0x158ffffff72U,
  0xfffffeaafffffe89U, 0xfffffd41fffffe52U, 0xfffffcd0fffffe6aU, 0xfffffda3fffffe39U,
  0xfffffe25fffffe1fU, 0xc3fffffe35U, 0xfffffd8bffffffe2U, 0xfffffe8b00000001U,
  0xffffff5400000019U, 0xfffffe18ffffff23U, 0xffffff5cffffffe3U, 0xffffff50fffffe51U,
  0xffffff890000005bU, 0xffffff6affffffaaU, 0xffffffb7fffffe7cU, 0x52fffffdf5U,
  0xfffffebeffffffa3U, 0x78ffffff7eU, 0xfffffe50ffffff0bU, 0xffffffc1ffffff06U,
  0xffffff67fffffee2U, 0xfffffe04ffffff07U, 0x20fffffe70U, 0xffffff21fffffe15U,
  0xfffffecffffffec3U, 0xffffff73ffffff69U, 0xfffffcb4fffffe2cU, 0xffffffa7fffffe6eU,
  0xdc1df0f91e06f006U, 0x20000bff19e9eff5U, 0x850ea3c00ed13f3U, 0x113fd14051df50eU,
  0xb062fe2f0e81809U, 0x32afcff05e0f41dU, 0x22fc191516df42edU, 0x1810222316e7f4f0U,
  0x141ae81129220718U, 0x1d20011aeded09efU, 0xfe43201903122314U, 0x1216e5fc01f8f91aU,
  0x1714191affd51e1cU, 0xcf2404e5e1e61814U, 0xf7f81f041a25feeeU, 0xd05f7fb10ed2219U,
  0xae60ef303fb0208U, 0xd1d1d2208f4fc0bU, 0x205b14f810f71e1bU, 0xf9daf8122d1bfa07U,
  0xf00219f509e3040eU, 0x10fc020907f5fa05U, 0x418fc180825f6e4U, 0xc121ffaff17f40bU,
  0xeaf1080efd0910e9U, 0x23fe0323190cf6faU, 0x441ebff18f2141dU, 0x2de8120032f3e012U,
  0xfce9f3f214ed3204U, 0xf3f1100d0ae4ed19U, 0x1e2b0cec051022f6U, 0x7f2f2fa2e10f5ffU,
  0xf60b14ef0714ebe3U, 0xd2c092de5171129U, 0x1b33f408fb130916U, 0xfc10dd2d451809e9U,
  0xeee9e315faee23f7U, 0x16fe10e4fd0e1618U, 0x1be3ec0e371c1f10U, 0xfd0fee05e0240817U,
  0xe20b0fec06e501f0U, 0xec34f01c1b192105U, 0x1b4cf70a17fbe7f0U, 0x170d08240ef9e2ffU,
  0xf9ebf714eef62e09U, 0x8f4151af8020125U, 0x2cf91c0209e40ce7U, 0xde231df00b2d0200U,
  0x706efeef90ced1bU, 0xf4f822071221f200U, 0x33350df1131f1ff4U, 0xe4f0ea0a08ec10faU,
  0x10fbda02011611e6U, 0xf91410191ff3f512U, 0xebfd12f50c07ec18U, 0xdef2fd24231df8f7U,
  0x1d12f1e51310e613U, 0x1c02fa15071416fdU, 0x26f41501f6ebeee5U, 0xe15eef90d12fce9U,
  0x10140dfce0e30013U, 0xed1becdb091b144bU, 0x2103f8022c070c08U, 0x1aeaf51f29df0d05U,
  0xdede08ebf8ecff17U, 0xf8f1ee12e31314f5U, 0xf90df0fc15df1a0cU, 0x21e80618161a0be8U,
  0x1502190f14081d0cU, 0xea07090e09f7251dU, 0xfae90efd2919250fU, 0xecf71fec081cebf4U,
  0xffecf20925e2fbf2U, 0x31b23081d23fb12U, 0x1710ffff060adc15U, 0xf60eef0fed0c09e5U,
  0xe21505f00a072906U, 0xec14fef6e0f40b16U, 0xff1bf21a1624fbf2U, 0xfa0909e821f8e817U,
  0x13f8e6e2f5f7fe1dU, 0x5e3fb111c22e7dfU, 0xe519f0132af0e50fU, 0xe9f6fe3205ed190dU,
  0xe9191ce6ee0ff1e0U, 0x131913fbd71e2925U, 0x1c13f1fd3c01261dU, 0xeebf52936361313U,
  0x2817fae305ceee2bU, 0xd9f41c3703f616eeU, 0xe314fc030ee2eb01U, 0xf408fe30e6f321edU,
  0xdb0ee3efdeee1514U, 0xa4008181930f700U, 0x17fffa16f40610e0U, 0xee31f81efa0fe80cU,
  0xf811f70ed2f619f5U, 0x2f312e304e1e3e2U, 0xf981efcdeefdf70dU, 0xedf91ff4ddf00e08U,
  0xf7f9e3eddf02e2eaU, 0x13d6e5092226f5faU, 0xc9cd0108f1fac5ecU, 0xdb061008ae32eaebU,
  0xfe1115f1101b0b01U, 0xe3ed21e2df0112f2U, 0x7a811e5e5f11810U, 0xdee5ecdd17e20a11U,
  0x30eed051213bbfaU, 0xf2ea071d0e1028d7U, 0xb060824fad10810U, 0xd4e1160fc01fd7f3U,
  0x201513f0ee060fe8U, 0x1009e4aefaff1119U, 0xd2cafd06e8220e02U, 0xe2130904f212eefdU,
  0x22dce8e3fef0feeaU, 0xdec02ef10e51711U, 0xebeb2107f8f712fcU, 0xeff9dcf5e3ece2f6U,
  0x31105e2dff6f9e5U, 0xfbe90df3dd101ffeU, 0xeedcff02def10d06U, 0xf313f6cbe7110226U,
  0xe3f0d8e4fcebf906U, 0x1ff60c1d06120e0aU, 0xffeb19eaf7eaece6U, 0x1b220f00ee15dbddU,
  0xfff124e7feee250cU, 0xf5eaf0dbf6dff9d7U, 0x1cbd021f0806f316U, 0xd8ed07f1eee71b0fU,
  0x240204e3f222dee7U, 0x24dde61b17effe0dU, 0xde1fe7f2fcf5ed0bU, 0x607eedb1ffbe415U,
  0xfbde0bebe028ed1cU, 0x11e4e3e1fae8e21aU, 0xf3cbf61de8140ee6U, 0x608e6ededed1025U,
  0xf5f9ec02031ef0dfU, 0x1cf4ec20d9fd21cbU, 0xd51efd22c1000e03U, 0x18f5f700d6d21109U,
  0xa02f5ebf20b10e8U, 0xe2fd0ad61a07e511U, 0xe6cb09fafadd171cU, 0xf5ddf3d6cfed0127U,
  0xeaee12f605f1db10U, 0x16e6ef1df8e9eef6U, 0x70f0706d0f80010U, 0x20ed08e5f9f30c09U,
  0x8171fdd0f1704e6U, 0xfcef0fe0170b2005U, 0xdcfee2f0f6eedf1bU, 0xf6e4ea0119f51b02U,
  0x10f910f3fb06ed1aU, 0x131e07f31dfa16e4U, 0x3f8dd17e5d8f4f5U, 0xfef9fafaf6eee214U,
  0x1be018ff1c0cdde5U, 0xe30cdff100eb05feU, 0xafdff05dfe716e9U, 0xfae6ddf412e41307U,
  0x1e050ef8f0edda0fU, 0xf0c0113ec03ebc6U, 0xd1e505f50e1018ddU, 0xe6dd1811e1140fe9U,
  0x10ef606eb02f503U, 0xf0e9e0e31e00e5c6U, 0xe80d0d07cc07e8eeU, 0xeed16c7030409f7U,
  0xfdee8ed1cde13f6U, 0x1313e612f005e4d5U, 0x1ff1decded3ce07U, 0xf90fefe6ceecfee1U,
  0xe418f6091bef010aU, 0xae1f3b7f2d9f71cU, 0xe5ddf4f6ed0dfbf7U, 0x7e0ebeee3ffdb08U,
  0x9000cef20e3e713U, 0x218f3fa10f6e2e9U, 0xbf21a02c4e9bf18U, 0x15df1c14d6d3e2e0U,
  0xd0e30918222ffaf5U, 0xfb1cf1e701fcebf1U, 0xfa030223cc0419f6U, 0x1d81be0f82508ecU,
  0x40b1026f9e3c221U, 0xebef24e6f103eddeU, 0xf91c0ccbdcfdf723U, 0xf61016eeed06e2U,
  0xcdffffff33U, 0xe2233f51dd1cfe53U, 0x3367e150efce8168U, 0x8113bead02465b6cU,
  0x7e8986eb3a011b4U, 0xec0d315c45705d49U, 0xf9ec173a3c717f25U, 0x1ce872f5436f510fU,
  0x83692f0b3377e13aU, 0xd7cb10587fef9f49U, 0xfbd25cc2f32754e9U, 0x15c1c90be428bf06U,
  0x6281406f10077fd6U, 0x168bd8a8b3140539U, 0xffb9eaf33f04be2bU, 0x79bea8d841e50a05U,
  0x41bd7f3c65fdcbf1U, 0x31987f2413c740c1U, 0x89dab14a08b81950U, 0xe599e6b519e6c670U,
  0xc3c9a95558a17fbbU, 0x8b17504567427447U, 0x11811136508e848fU, 0xd85b58872862dc84U,
  0x36688c5d52946740U, 0x97b71330ed8e1981U, 0xddbad197f0454bdU, 0xf0f801bae9edb574U,
  0x9b417a18dade1996U, 0x877f41ba5ad765f7U, 0xcc492decf8d003dfU, 0x628c37fc2eaea38U,
  0x26332d8c50a34567U, 0xe152ce6f51fcc95bU, 0x53c596581b8fcddU, 0xd30a30abc95f6c96U,
  0x34267f64ab81a26eU, 0xedde81ff51f01512U, 0x97369023dcb4130eU, 0xbf09ee63e72fa240U,
  0xefdf5cd75669350fU, 0xc023b5e3ff647f34U, 0x7abdc473f4b1ba0eU, 0xaa1c48e87f595745U,
  0xf9a37f4d2930606aU, 0xd82f525a195f53aU, 0xa713ea72e7121c39U, 0x472ddc1eec157f79U,
  0xac81b12892e547f0U, 0x14df1cf5c3bc4a28U, 0xe0c1e52257a5b169U, 0xee48810e5909f4d2U,
  0xf781915d2ca1d491U, 0x3e02e10ffda1f2f5U, 0x5327234c3aa499ddU, 0x157f431f1a62ed64U,
  0x8ea0401fd6b55d09U, 0xb9cc9d7fc4a64e6bU, 0xcb6ad2d1eb6f357U, 0x2afdcd667b3fe97aU,
  0x5fc817a7eacc81d1U, 0x4c57e0005997e279U, 0x9830cbfce2eb812eU, 0xcf14a932dbcf5db9U,
  0x1562eade2e210c22U, 0x7f563fd226cbc83aU, 0xb2a381c2dde75de5U, 0xded7c9629a06dddcU,
  0x71da454f76cc9e4fU, 0xe7edae127fdf7053U, 0xfb52115ef8fbe737U, 0xc93599b40e695d7fU,
  0x6cf23cf1936421e2U, 0xcad6060912687360U, 0xadf199f45934d408U, 0xcbd21ec0fc447f3bU,
  0x42d1b913a94312ffU, 0x2a0bce6281e01df9U, 0x7fe4e1e87a54361fU, 0x7f7b75d0f2c8018eU,
  0xf1104071b551e1a7U, 0xa2139bf5b227e6f8U, 0x36afb25c69abdb75U, 0x4e7724351d10bb30U,
  0x7fc5eb2547717f75U, 0x55995d2ffa5b324eU, 0x7ffcb5a26f0bc360U, 0xe5c404daac9d18bdU,
  0xc7ed2b5d9870c2a1U, 0x2535560216230bd4U, 0xfcc4ee42246381d7U, 0x4f8446d30e8e2f3eU,
  0xbec41f1b162a927fU, 0x131f7072c2a61be5U, 0x144972fc2bacfe81U, 0x667351fde8f1651bU,
  0xba58b2a65b37b2d6U, 0x5ed71a3581e22ed9U, 0x4a0bbfcf41e37fa2U, 0x143bc6a1f1c493a5U,
  0xd8b9ba505eab5359U, 0xa351587fd331b6e3U, 0x8126095d92c488b3U, 0x33b6d6e1c9585f14U,
  0x3613befccb16e2deU, 0x4224e234db7fbdc4U, 0xd1dff54ae86bbf35U, 0x37f847812c9730e0U,
  0x7a631b3d3a40e5ddU, 0x2c218127fe19bfe9U, 0x20a2b9f41afb0a22U, 0x1428b62da18c95e0U,
  0xd7953344c1ff07fU, 0x6cdda37f245220d3U, 0x7fb9250ec8185499U, 0xb1422cc2e3bf229fU,
  0xd7d96503a3637febU, 0xd548d314346efda5U, 0xd1810e28174c2514U, 0x17adfbbed0cea4e5U,
  0x82fc725df4dd5cc6U, 0xf77f7d07832eec74U, 0x510ae7faae89b840U, 0xcba812f778563ca2U,
  0x540d6ef97f9b1dbaU, 0xe4add17f08e7a069U, 0x86cbba1fc385292cU, 0xe7474350a06c0b01U,
  0x2bada6c2a209495dU, 0x2578db813bf02281U, 0x86a25b52fdc053feU, 0x900bc9ac00e352eaU,
  0x3408ace229f74b55U, 0xdc376a7fa4c45808U, 0x2c0405d97fbac8d6U, 0x37c0eed0b33c74b1U,
  0xe6b01b6917c5475cU, 0xf81708be81a7d6aaU, 0x140990fdd0c1e2b4U, 0x749d7ff38bddffe6U,
  0xdffa2d6b3e661ce8U, 0x81a9f5a34a1cb063U, 0xb1dc0d93969a4706U, 0xcac80864f63d0eecU,
  0xbf47c1a71040810eU, 0x14ffffffe9U, 0x3300000012U, 0x1b00000002U,
  0x1f00000023U, 0x17ffffffe3U, 0xffffffe40000000eU, 0xffffffeb00000043U,
  0x2400000012U, 0xffffffea00000004U, 0xfffffffeffffffe1U, 0x11ffffffedU,
  0xffffffd3fffffff3U, 0x1f0000003dU, 0xfffffffcffffffd3U, 0xfffffff800000016U,
  0xffffffcf0000001cU, 0x1f00000000U, 0x90000001eU, 0x220000001fU,
  0x1c0000000dU, 0xfffffff90000002fU, 0x900000025U, 0x80000002bU,
  0x35ffffffe3U, 0x23fffffff8U, 0x12ffffffeeU, 0x8fffffff8U,
  0xffffffcf00000000U, 0x1bffffffd8U, 0x30000002fU, 0xfffffff7fffffff6U,
  0x2600000025U, 0xb511b970df62ab12U, 0x44a962c3ecf2f1f0U, 0x4c2b86cc590bf9c4U,
  0xa12d1d1c98d25f09U, 0x53b524c2b4eef500U, 0xbd930f0ad22379edU, 0xd61cfba63000c0f0U,
  0xa4cf35981b814153U, 0xed12ea0f258147f0U, 0xcf87498c1ba7c90cU, 0x97db5096a4432ba4U,
  0x2c8c243bd525d416U, 0xa3179daf593809ddU, 0xd0ab4b8bfef5b8a5U, 0x834123d3b0f4b28U,
  0x1188f94320fca3f6U, 0xab4c094104ee33e4U, 0xcdeed8f5be7f2b18U, 0x43c1b076b4224dfcU,
  0x1d0c083dd03c3098U, 0x31e770b24648f661U, 0xb7e7240147bf4feeU, 0x72d00c9fd0c1d3dU,
  0x8b575cdf01c26feU, 0x7f9ceb10ea4af801U, 0xe1f68a837ef0db5U, 0x43f47411b2ec02c2U,
  0xa4261718f9b9b64aU, 0x60b75940b6f72301U, 0xd4c92be2b32b1b00U, 0x64a1382b9c1df0c3U,
  0x10f0946187debaabU, 0x3e345aa590bb9a3cU, 0xa1e6ab693b438905U, 0xa400f01b715bb32dU,
  0x58e27f4e514cca98U, 0xe185f387ba564615U, 0xf0797200d0b1016dU, 0x356577beca737620U,
  0x486c04a37f8fd5cfU, 0xe6d54d417eaf4316U, 0x4dfd3532ee7663b4U, 0x31ea6a0ae694c73dU,
  0xc9e8c1b3dcee146dU, 0x6535e86e7dd1f353U, 0xc337ed0d307f34fbU, 0x1f1211a000b3b03fU,
  0x7aac6ca922af3c5aU, 0x43d6fe55ef38cd38U, 0xc131a095410669acU, 0xe526be9f4e8112a0U,
  0xc2d02a86c1fc02a2U, 0x96b84c68f30b4f58U, 0xa42259319fe73ce9U, 0x56178447f869cdffU,
  0x381c62ce15232e32U, 0x8143e1975160747eU, 0xfddfa4f1c34168e9U, 0x9717d673f0d20e36U,
  0xa1015178ac55117aU, 0xe231fac035012efU, 0xa5025821df7908d2U, 0xc7f198b3de8a462bU,
  0xfc25eac9bede27eaU, 0x7f01966bcb4fb55aU, 0x1011560a94775666U, 0x30ab984406a5f440U,
  0xd261904c5a5a024U, 0x6b4424e898a9fcfcU, 0x5c03e16daf3e2133U, 0xd27748a1f032d652U,
  0xdf3c281dccc731b6U, 0xe992421225dc9735U, 0x270fd6ff18bc43c2U, 0xc0d723be375e01cdU,
  0x52cca6e57e113f1cU, 0xe6742fbaca45ffcdU, 0x9634d40b6118b244U, 0x559bcb7f53ca1bfaU,
  0x2ccd5a56546b1feeU, 0x784fd41bbcf14587U, 0x13b59cc030e1d8dfU, 0x2e2ccac374d3f9aU,
  0xcc23b9978f9851f6U, 0xe169751db00ff228U, 0x7fce57b9babe73a1U, 0x826fc7464f6135c6U,
  0xc135930ab0616733U, 0xa36e269ee5ffb66eU, 0xeeefdff85052137cU, 0x2ced03e11317ad88U,
  0x5422411e080b616cU, 0xff9d844c15068826U, 0x819fd600e3859b59U, 0xa80fadb8d41ca9eeU,
  0x2e995d01dc5fd46fU, 0x30a469c111f29497U, 0x49b76b7ff61c6071U, 0xc419732423eac3a2U,
  0x46061936eebe57bdU, 0x77f969f8fa0d72f6U, 0x7bd853eb652ebab2U, 0xce1d5157392b133eU,
  0xbfd29727658e459U, 0x19a864d15432fe1fU, 0xfdc1a0b1c317bb81U, 0x9a67cb14013f31b0U,
  0x5bfd8a140c931c26U, 0x52125339f600d3d5U, 0xbf2fe365426f6127U, 0xff4dec6550cc50baU,
  0xffa2263b02b96a25U, 0xc490cd08cb8f881U, 0x4b362e10dae526efU, 0xdfaef8dca7e62f35U,
  0x2ba308318309e328U, 0x9e6c23423740bc8bU, 0xc24b5cf7c7d70033U, 0x23e0d6b5e6c76425U,
  0xee0cbfd0179d4ad3U, 0xe3a7c62015eda31cU, 0x3412b347f3fbff55U, 0x1ec4f00110bddac8U,
  0xbb34cc3e00db4735U, 0x994687f4938d038U, 0x11661ab8213fb5d6U, 0xda1cafa1472f6338U,
  0x14c4273a17ebefa4U, 0xffffd3d5000017d2U, 0x395a00000222U, 0x6dfffffd19eU,
  0x15a000000bc4U, 0xffffe80500002bdcU, 0xffffdca0000012c6U, 0x3315000009acU,
  0x1233ffffe271U, 0xc80a0b270c6d8147U, 0x523fc390bbf36461U, 0xfb285c9391f91702U,
  0x61c11c74bc45ae4U, 0xa35c4182a0f69f0bU, 0xaadd44fea0fd241cU, 0xb96b602fa753ead2U,
  0x4c277f4a5314ce0aU, 0xaaa6a213a9d377ffU, 0xe8c55d171cee63f7U, 0x6a624bb3e169b8c1U,
  0x5e659bde707c99edU, 0x550b3c9aeabf717U, 0x420c9221c7c84bd8U, 0x41b3e847281665d9U,
  0x5464ff56dfcee9fbU, 0xec6d062281eef6b4U, 0xe95a02f65736e5f2U, 0xd1cfe2c77fdf46e5U,
  0x97e30dd3eee05069U, 0x18bd82710d623646U, 0x74c19f055dd8d59dU, 0x5733c3e0a1e67528U,
  0x33b4079947cb043eU, 0x31dd67e2bbb2fd1aU, 0x65818c5b3e0d94f5U, 0xe813662398f21f83U,
  0xa01b374b4dbf60e5U, 0x2bf158531ae239dbU, 0xdbbb4f665d493316U, 0xe00e197c0c6d1422U,
  0xe920691c37d40d93U, 0xccee377aeb17b9fcU, 0xb5846267e981f0b0U, 0x25ca584919cb1ee1U,
  0x4298ddf5ea596ca5U, 0x5e40055b5af4b4adU, 0xd51cd014e0d91449U, 0xd4a0b29c4b3cd224U,
  0x200afe09ea1381ccU, 0x5a3dd7061ac48dd6U, 0x5446dbe50a41e716U, 0xb537d350505140b8U,
  0x59664df301bc2c4dU, 0x44f2b26b1ce2103U, 0x137f2cda4d0b845dU, 0x16965952c546c3b1U,
  0xca6fced0134f43acU, 0xeedd46b331fc813eU, 0xdd4a203a26f0d64dU, 0xd3bdfdf5b2a7a4cdU,
  0xe35ba5ed99432a2aU, 0x478cbe36ed1f473eU, 0xfbbbc3421df2d5ceU, 0x313bd93ee71cb6a2U,
  0xd2fe39a374517881U, 0x1ec95d1291dc62bbU, 0x2ddccf8f941915efU, 0xe5dbb3e098f5645bU,
  0xf72485fcbecfb6d9U, 0x146681464f53cc57U, 0x2c4b18f03c555c66U, 0x19dd313725c322f3U,
  0x24dcc53e2463efd0U, 0xfb43ca2a2ec4d523U, 0x10fb04e2c5172e18U, 0xc6db729bc79ce062U,
  0xf54b421b935ab6ebU, 0x6d2c0b6e11169ac6U, 0x81a3c333ce0645a0U, 0x2681dae212e5f604U,
  0x603ad94cb18202adU, 0xdbc0fca6b7cc103bU, 0x5489d38c1b8ea10U, 0xe226b9d91dfec052U,
  0x270feb1781d522f6U, 0x47f7e7bec132a231U, 0xd041fbe4bed4fbdaU, 0xf71ef8ead4f82cb3U,
  0x3c4b01a3d6cf25f1U, 0xf719c4c8adfcc9b3U, 0x7a7b33ca59dcdfcU, 0xe81fb61de7d9393aU,
  0xd719fe423ecc8162U, 0x6d849613bd3c1cb2U, 0xd441fbb2b74587a0U, 0x390fb0d6ba3881a7U,
  0xaeda186bc8d32d3dU, 0x491212101e1ccf50U, 0x6fd011e4b22d75ceU, 0xb6a3813e22fee625U,
  0xb3d4ed9a2bc8a835U, 0xa8073bd13fc34ccaU, 0xe2b4a6aead531ba4U, 0x1da5cfd9eb2f95ccU,
  0x14fab83d4be34732U, 0xffffe88000000448U, 0xfffffcacfffff96bU, 0xfffff8eefffff13bU,
  0xffffe174000002edU, 0x162900001078U, 0x1899ffffdf0eU, 0x185700001d3bU,
  0x229900001279U, 0xf2e1837434d20a95U, 0x81bf4e6ee48e9025U, 0x63ee45fe97d69c9U,
  0x2c810df362e507e8U, 0xf4fe81ca33fb4f5dU, 0x2243f53a7934baaU, 0xe7fc41c640255a3U,
  0x98c3731cb75df69eU, 0x351df12db7012b19U, 0x2c765018e1164c81U, 0x9c95d8f763128335U,
  0x315aa2fd597f9e04U, 0xdf279246f9eb20c1U, 0xe23431a2da81fcb7U, 0xdb92616bce40ea75U,
  0xf89a5f69f1a17f0bU, 0x3eff7f56afcccdc6U, 0x4c65942e640acf74U, 0x85a8c236119b6d09U,
  0xb98d7fffb888fe7aU, 0xa7e8b67e1258a803U, 0xe3815ee7bc9778b9U, 0xf07fc5fe0162b963U,
  0x7cb878b7cfa0d1a9U, 0x7f604bdcf97f0252U, 0x40c5100051a72d35U, 0x81b029ae549ce200U,
  0x4da6059ccfb81a21U, 0xa40004315428b6ffU, 0xb7a5a67fe7f19c57U, 0x55a22bae082c01c6U,
  0xc2856cf581f2ff4dU, 0x81e75acd0da7d742U, 0xeeed90b31ecf6927U, 0x444dd306c905d8eaU,
  0x43b8c0bd81f032efU, 0x6bd4277c9be7141U, 0x528126be10e77709U, 0xaa89ca68d5d191b9U,
  0xbac18170b8d77d95U, 0xe3c8decf051a24d5U, 0xb20bcbd67ff0962dU, 0x4cc3f89ac5ba5ae7U,
  0xd413cc818326f106U, 0x51e871e57f65fa53U, 0x16c8f0ca1a03aa9U, 0x3572e5cd081a67cU,
  0x7014ca6729cc8efdU, 0x92f51d4361faf04dU, 0x6fdd7fe6d5a04a56U, 0x81cd0007bc9d2336U,
  0xcef7262b040c8b1cU, 0x76bbda9ef19f1b81U, 0xa0d6c38423a939feU, 0x9d81109cc7bc1959U,
  0xc9f6432df2d555f3U, 0xc7b8993a3f2f7f54U, 0xe5410a004263cbf3U, 0x62444d6c60bf30dU,
  0x177f83e246657526U, 0x410735e10fefc89fU, 0xdcba35b1c1f57f63U, 0x62351125e7f09f1aU,
  0x28117eb49b3232eU, 0x75cbbab47beb4e9fU, 0xe43e5d8a8bdb7fb2U, 0xf4727ffa298bc13U,
  0xb2251ac681efe9b4U, 0x21b9940b32ba3b1eU, 0x6acc816647c239abU, 0xb89cfe7f4171073bU,
  0x70eafae5ec5803f8U, 0x815481b8cf036647U, 0x7d1e063b9ac4569fU, 0x418191962cbcddb1U,
  0xf2dabdf800cc396fU, 0xed0a0b3b72a7f0ccU, 0xa23bae9f81b1d8c2U, 0x663e4e5af04b3670U,
  0xea12d981a653a605U, 0xb5a1864781efa422U, 0xda56cb9da210d0fbU, 0x25f4ce0c7b21c981U,
  0x973e3d933c15751aU, 0xe095e995bcaff719U, 0xa1fcadbc1bd67f78U, 0x17a0454ab7e2813dU,
  0x4fecd492eb0e6b7U, 0x824f323617fe6d4U, 0xf2a777d2d6bd1e97U, 0xa674d1594ef426bcU,
  0xb91f782a694981faU, 0x21f164ca033c814cU, 0x9bc20a515439087fU, 0xe01c13a54f11c68bU,
  0xef7981e98258b9e1U, 0x9839968c23ac1b8eU, 0xda250d4e7f56bd39U, 0x9932ac86ab364931U,
  0x7f9ef998344414c7U, 0xc4bd604570b180dU, 0x157cb837f9148115U, 0xe858ac3c57e2f38U,
  0x81585ec4710def97U, 0x4a81cf180e67921cU, 0xe678cc5ce19f0843U, 0x6e033ba6b35a7f62U,
  0xc8a8359ea268ae0fU, 0xd5595d9425204b0dU, 0xb8136bdcbfb29baU, 0xedb1815da11ba97aU,
  0xbdb6b202c3ab3330U, 0xa754dfe1b2287ac4U, 0x4f6d3c815b722bbeU, 0x2605dfe73881ed70U,
  0x4cf0649999d4ae5dU, 0xdc40292fd84f17d5U, 0xcaf9b1e27f11c51eU, 0x577f6665e50f9a41U,
  0x797be8939f1efb65U, 0xc416ecc95239308fU, 0x60f304d7a8917ffdU, 0x30bd74810d335d60U,
  0xeb7f21e291cf42d7U, 0x4b64f1817cbc7f08U, 0x26d8db51759778f0U, 0x59e39e0ae50881a5U,
  0x7b335c8a43aa4aacU, 0xfffff65100000ce1U, 0xfffffd67ffffff70U, 0x124fffff414U,
  0xfffff40700000d03U, 0xa2afffff433U, 0xffffff8800000793U, 0xf51ffffeb2aU,
  0x7c40000066fU, 0x8ae0000095bU, 0x15f8fffff70fU, 0x10e6000009baU,
  0xfffffa3dfffff943U, 0xa88fffff3a4U, 0x7f30000155eU, 0xfffff33bfffff614U,
  0xfffffcaa00000040U, 0xfbf000002edU, 0xfffff5e6ffffffe7U, 0xd9d00000089U,
  0xfffff80c00001322U, 0xfffffc8100001806U, 0x69d00000dfbU, 0xfffff61500000074U,
  0xdc0fffff541U, 0x4b700000161U, 0x504fffff8acU, 0xffffffd5fffffe6aU,
  0xf0000000137U, 0x2a9fffff6b5U, 0xffffef97fffffe18U, 0xfffffa5e000001dcU,
  0x25dfffff05eU, 0xb17ec94d00da5c2fU, 0xa25296eeb3cc32fdU, 0x8c2f5c3f4854f45aU,
  0xdf75d95cc811ba51U, 0x5e818b13ddc77a04U, 0x62524807cda59936U, 0xec0ddb21f009e6a5U,
  0x715fe4f2d09328adU, 0x8b9cf602a09596fcU, 0xd87026b02abaae46U, 0x6c32368b816cdf31U,
  0x2da093b9686930b5U, 0xa3ce85a6531f4127U, 0x94b6e38ed53dd0a5U, 0x45173107d329e735U,
  0x3f17996698a6f099U, 0xe955b02151249de7U, 0xb682fcb46b11ac32U, 0x1924860fc0c22ff9U,
  0xb6326de013564e7aU, 0xdfd1126d3f5c4002U, 0xba804267f3640d1U, 0x146019383002f29bU,
  0x40136b6602da7f51U, 0xfa035049b67f9943U, 0xdad42f7fa5a127caU, 0xcabc5d191fa93ba0U,
  0xbefbc721c4a15515U, 0xd8a441300b5db4e2U, 0x1e08370dc5dc8d3U, 0x313367c224ea5903U,
  0xb4630c782e5152e9U, 0xd214f1d60ee5f99bU, 0x5c08c2f88f2b0690U, 0x125d2b3f4845f600U,
  0xdacfe9081f2b9df9U, 0xb0bc71332a0cde02U, 0x7ff338cd55322bc1U, 0xae12c862b494b8f6U,
  0x859c57bfd2bf4424U, 0x1addfa1c8e76bb4aU, 0x99f326481904f3fU, 0xdd40c82b40307398U,
  0x10f209e05ffaddceU, 0x36b163f3e555e3f1U, 0x4b1a5db8ddcfb97eU, 0x8c1e65f3f8c5faa6U,
  0xd2815b6a8c9094dU, 0x418161613cf06b7U, 0x3c0b34e89ac9293bU, 0x2912adea43f2fbbfU,
  0xb9f2490c3410cfc0U, 0x1b2de6b57bf03782U, 0xbbb738e1b272cdb6U, 0x5c1841c22f12814cU,
  0xcdf39638d0bc064aU, 0x23e77f3a04f8ae0fU, 0xf1d0e76c89e01f2bU, 0x56bb0691e531d0b1U,
  0xcc6b70c00d0d6c02U, 0xdcfb4c35cd071f98U, 0xfb17634bd9f3084bU, 0x52280ffbb8428fe3U,
  0x2d5aa2e23116eb39U, 0x2d150d226b2d29a9U, 0x524ec80b2cf12896U, 0xdd28c2c11b999fb4U,
  0x52cf060a08f1072dU, 0x91aaf7c37fd30533U, 0xea92c10bf114cebfU, 0x61d3b305d0dabf2cU,
  0x58eb73c8213f1f9dU, 0x2e6ceec2d839d916U, 0x5f55957c6073b73aU, 0x694bdf5d61df0690U,
  0xecb50e45d9c3ae49U, 0x6b4f9a0cfd6105aU, 0x45259c1cca052f1aU, 0xfc62de5381a4bef5U,
  0x29bee6b7f1489be7U, 0xb3e35472aeff03c4U, 0x974caaea07f8bddfU, 0x17bf0523ca69162eU,
  0x58d7f29e6d2707ebU, 0xd238d83eb933bd5eU, 0x29c2ca819cb0f616U, 0x55f293c2fbd319b0U,
  0x8a8f311841d2c733U, 0xff389364659f2810U, 0x55d9cb8b177ebe51U, 0xad5696848af375aaU,
  0x2e288199d9bef2bbU, 0xeb5465bdcfd106b9U, 0xf5eaf09fdc8fcaaaU, 0x9bb10340eadc29cfU,
  0xfcc177d64991302dU, 0xe6db1fb06a3ea67bU, 0xa00724d6aa7aa20bU, 0xf0a26705b49b461eU,
  0x33dfb049fdeadee2U, 0x503c46afac155a64U, 0xbc933f411649d82aU, 0xd14e857f0da75bddU,
  0x65a2c5f21d21afaaU, 0x3f59a24d0340aef8U, 0xfc7fe7b550d45598U, 0x5d0c05518d4ed325U,
  0x571db22fb3bf2b9fU, 0x7249fbfd700700d3U, 0x49fd6d08bab6f0c0U, 0x9a2bef6240db1cc6U,
  0xfd51dbdcabaff70cU, 0xe48138db3769b26dU, 0x2b10c06e2e09dbbeU, 0xf5a316fb134a4fadU,
  0x5b3da82cfe0a36f3U, 0xf9ea3750a4a74776U, 0xf1ec57149e573c86U, 0xe699e723c55fbd02U,
  0xb31b4eefb251fdacU, 0xfdab5f332d563428U, 0x3155d87fee44c1d5U, 0xbddbb34b1357d0e1U,
  0xad0ae6c6ba000107U, 0x4bb55dacf314a48U, 0x4e0039e3f4e2b017U, 0x2accacefcf410b02U,
  0xaf1c3d9b3ec8b529U, 0xf0044bc170670a31U, 0x51509f14b3bfab9eU, 0xb2b1c0bc212f137dU,
  0xa4b75ca07f601131U, 0xbd609d43b50a43fcU, 0xa0f34014e20f0be0U, 0xf8a32ec5a11ca1d7U,
  0x3d21456d922db637U, 0xb69ad2d4b04508c5U, 0xcbdca962f2c2a5e7U, 0x362ee42eff2457e2U,
  0x4bc52fa34da5275dU, 0x3f2ffd48f29a86dbU, 0xef5908a9f9e42c47U, 0x34bacfafe63e1236U,
  0xd425ce8b7fb2c325U, 0x2477e7c67e19b2f9U, 0x4eb706cbde504859U, 0xab446c10a33de581U,
  0x19318e69fa2dcfd0U, 0x241f153a9947d7e5U, 0xb9c64da88cf31f0dU, 0xf5426230b90bd011U,
  0xc0de67294bedc0e5U, 0xe1751d91340e013U, 0x2518b81ef2fdbd94U, 0x4740bdbfba6a30a4U,
  0x58ade0f006f259afU, 0x1a14eb57002397e4U, 0x59327f99e25b1314U, 0x331bde2446bcf3d4U,
  0x9abb30e944299963U, 0xda816f290d234c43U, 0x52bf01cddd3a4c04U, 0x14b8a41bcf440fd2U,
  0x3abc316d09ecf8e9U, 0x21b812ebfe0433c3U, 0xfd51713b403946b1U, 0xdf1a1ebcd743e705U,
  0xc2b6be0319102827U, 0xa4d13468b15c3356U, 0xb6e36b97dca933c6U, 0x21b550196e0f62f6U,
  0x21b239c8cc119dd2U, 0xd799bce1928d81a4U, 0x3260a751e54458dcU, 0x38a81f5c2ecb4301U,
  0x9d0011683ffe7fcaU, 0xed2cb73b9dc5e12fU, 0x8242c62ea31f7eaU, 0x5bf238c0480ae5d6U,
  0xf3b659f419a2e7a5U, 0x4b593cc3f8a5cfd3U, 0xe2ad0aa53c3460fcU, 0xc8fed520c20ecb16U,
  0xc2b53f81af4539bfU, 0x6ba8631e6def0229U, 0xa3f86732fc384436U, 0xc248aa2e560d312eU,
  0x48faccf50559d156U, 0x5a152a7ca71058ffU, 0x9830490a0bb05a32U, 0xa0bce6d17fe01acfU,
  0x4abad643165dc9f4U, 0xaadb9a53ae659a0eU, 0xa91c9e4523304373U, 0x81de9df59f41cb62U,
  0xbc3ffebe72426ef1U, 0xa817a34657fcab11U, 0x2e44315c60af6550U, 0x77269be7d81ae59dU,
  0x96c4fc6b4b19bbU, 0x5af9664dd969f611U, 0x22f996d3e3ccb133U, 0xc9981c44a02e6ac7U,
  0xb0a51743522b8cfeU, 0x440489e8814b4dceU, 0xe0e938f1b15d14f0U, 0xcf73fe0433c4905cU,
  0xff47dbbfea223df4U, 0x12a75bc05b3c815fU, 0xd4c054be65dabe55U, 0x7d5d5cef2544eb6U,
  0x2b12f72df868d1e6U, 0x2e84761795e9a9deU, 0xcd73010b9585b9c0U, 0xceaea92b319e29aU,
  0x21d041f33a87a1deU, 0xdedf8a9fd1396a11U, 0xc0487a32daba3b37U, 0x275993caf63c1681U,
  0x966bad0fd0eaccfcU, 0xc0ba7bd4776f4572U, 0xef32d020ccccc22bU, 0xeb68cc3dce17ca69U,
  0xb5d0e9dd72db288dU, 0xbfb2c59099f229e9U, 0xc9e8e581de324475U, 0x3662dd0aa8f72f5eU,
  0x1ffcb3b0ad47ac27U, 0x5a2ad19a6c229f64U, 0xd2b024f858cf24d9U, 0x1dd6bae0088f1678U,
  0x2b3899ffd6e70640U, 0x7c1da93cd3fde9c8U, 0x9c7f5711ab4ad21bU, 0xfab90560d9e31aa5U,
  0xd617c736ecaa010fU, 0xec31b43f3d0a1a03U, 0xdba3d446fbd8cdadU, 0xfd9ac2a4388ca45fU,
  0x741252a8d60e3fe1U, 0x4e3b1dcc586c9aa4U, 0x8fa15796514cbfcaU, 0xe771a137619bd390U,
  0x4ea0146429f431abU, 0x89a31a74041b3cdaU, 0x414333987fc6324bU, 0xacf5ed1e19d7c2acU,
  0xe2c6d6555e12f20fU, 0xfb8ea623dcbeebc0U, 0x6b656f8dd043f92aU, 0x3ba68a5631eead24U,
  0xcab7001b47d35bfcU, 0x5531f0cb3513018eU, 0xceac2dbf6db20cfeU, 0xf509be34b68fe19eU,
  0xbbdf9e168168e31dU, 0x18f70e81c7113e75U, 0x660042910e95de3dU, 0x9188f67a8ee67365U,
  0x73be0175961c2ccfU, 0xab71d2291226ce4eU, 0xb5f6908cf8403dbeU, 0x2dae432f7333aa30U,
  0xc6993ebc9a030f5aU, 0x3811bfdc2b0e4aadU, 0xb1987568e21e2a91U, 0x22c0e74437bc7433U,
  0x1e2b944b1af098baU, 0xceebb5d7b32bbedeU, 0x7fd9c1e764c4f3e6U, 0x1eee43d412b9ac08U,
  0xe8053b42e6d84c37U, 0x1f9d6e56354e24cfU, 0xb075020cb7c3c562U, 0xfec6e336604f1b47U,
  0xe6cbd5594e49ee79U, 0x641daf7febd4613eU, 0xc5dd9698f376c136U, 0x92745ae5084398cbU,
  0x47324fa91fd42eU, 0xd9a6f990e81ae51eU, 0xc3dec54854a07010U, 0xbe6984a019506bb4U,
  0xc501b97f48174dbeU, 0xc66a4069a7535473U, 0x684e2d4d11e423dfU, 0xce04e5590004f8a6U,
  0xdabe21ea97296e99U, 0x2c28586642982d54U, 0xbb2d43efc507c371U, 0x34f4d10ce3e76d38U,
  0xda6d5036b949d4efU, 0xc3abc46230c99d8bU, 0x54a7a85e924306a3U, 0x5815afe6b25ab281U,
  0x999f8fb7ca20e01U, 0xe50fe9d8b71a6f99U, 0xbb3556e8150a4d04U, 0xf1aee36cc2583022U,
  0x46963c0c96d2b581U, 0x1460960d42a557acU, 0x5cc93564feadfc1bU, 0x619504f5510e4e08U,
  0x7291991295b4e50bU, 0xf481f2b78ad18da3U, 0x9ddf63722b5c844dU, 0x6a1eb1559da808e1U,
  0xcf49e33159b6c7c3U, 0x8f34c983ed1f5cc8U, 0x9512690d60a33b4aU, 0x80c39d690799062U,
  0xbc34d6d493500132U, 0x5f949e9e6117c3ebU, 0xbde7d12ef7c26f21U, 0xb3055055d5af017U,
  0x37cbd670e407ddcdU, 0x8e9e176ff7e8b27fU, 0x3f40d939e9d63b7cU, 0x50fc1c9205c94b9aU,
  0xb2dc418eb5a19c19U, 0x347511d4aa3b59adU, 0xa8900a4c98b68821U, 0x27daf0495ad5eca9U,
  0x463afd67fc7bda3U, 0x6ea626b11a556e3fU, 0xbc9bce1bed2645a7U, 0x35cf03a7e2d3f516U,
  0x4ba671d24353e2d8U, 0x1081bd3ef8345e4aU, 0xaffac1c54a0db185U, 0xb4294e67fde81241U,
  0x50e4df3fb62e1efU, 0xfed4d11a452c5b04U, 0xa38b53a2490c9b0U, 0x60578482be6043cU,
  0x5acfe27e5730570U, 0xdd7b407f72a93b57U, 0x3e09ebf1e0643e52U, 0x77b310552ce2b83eU,
  0x6451f4d35bf31aefU, 0x9578092288995ac7U, 0xe4f592060f696022U, 0x9ef2c101fe13e8f6U,
  0x2a72ad39e1c4609bU, 0x2fc647d5ea661ea1U, 0x25f032feb7ca6733U, 0x184c38da37c7a24fU,
  0xc06e1853605e0331U, 0x10455f973f72ec7aU, 0x938ee274f00ae01aU, 0x65aa3d66a29d9736U,
  0xabd2c04b815cbd58U, 0x5269330b4cc9bb3cU, 0x6e239c9206dd524fU, 0x3c6d94a46e339088U,
  0x6d2839517906975eU, 0xd9610f50f253ff79U, 0xa86eb6111c5fb5a8U, 0xb8ac682de3d01fbdU,
  0x863e34810fa98ec5U, 0xf822c4b347019c3bU, 0xfc77abda4b008754U, 0xe2e75ca7bad7ddb2U,
  0xe69cb2a88d4c31U, 0x3b0258263a065fc2U, 0xed3e0ce13eaee01cU, 0x6459521c478d8d3cU,
  0x8a3b250c1668157U, 0xfca9cbc4314b6781U, 0x1fcf1ed1c6a2fed4U, 0xf453d1dad7719fd0U,
  0x517ab7e49e740c5U, 0xe994ccfa14989b4aU, 0x4bab222270901538U, 0x6422b1e00f47bdc2U,
  0x98b84b42caa85a0dU, 0x1491aacfc3f73b4bU, 0xb50f39e8eae2a81aU, 0x3b5dd30935bf457aU,
  0x3560eac95548e54bU, 0xae37aa2fceba5256U, 0x9b57d7ad9c571c61U, 0xf8ea52af022b247fU,
  0x3b900ca3bbc651e1U, 0xbb166309d3a4f0a3U, 0xa181cdf43a43a1ebU, 0x78abf90e0d76c89dU,
  0x128bfc21433fbb87U, 0xcb37d4824ea06c60U, 0xbe3688cfe099ab5cU, 0x426c62250ce75819U,
  0xbc0d56788eaba766U, 0x6fe68a814f2c0e6eU, 0x688b22e9185d83fU, 0x473a22c52bb5ee5fU,
  0x3029f6a5b86b01d7U, 0xf6da97a9d5bc0293U, 0xf72d5d7daa0df0c7U, 0xd03dc015acdf2ddcU,
  0x9b267160369ed3d1U, 0xd4071822bedea524U, 0x34af4af0ddaf725U, 0x42b1a4f64d2a55beU,
  0x9b7d35cfcb5da80eU, 0xab3e40d81162dd1bU, 0x10ca92b02d0f47b4U, 0xe3aeb982e542c2bU,
  0xc332a134f7c3a581U, 0xe5d096ff23811eb9U, 0x886a0d304b465f9bU, 0xd753db41010faedfU,
  0x3871d41f98353898U, 0xb06b8e9ac538ecb3U, 0xa8092dc7499b556dU, 0xab604552ee39d4f3U,
  0x9b47ae1fda7ba38U, 0x56e4ce591cd12033U, 0xfd67586ab14bdefcU, 0x31aae7740bf7abe0U,
  0x34230fefd6b9bb96U, 0xfaeefa1a00f35efU, 0x88d9f481edc1cc29U, 0xeddeb0d195e7a411U,
  0xd94ef50b8eb89079U, 0x527d81f72da2f919U, 0x71b007c223b942c4U, 0x734cdb5faedd6a22U,
  0x2af2b314ef56e595U, 0xdfa712a01beaf9d5U, 0xa46a95dc65e105a3U, 0xe15ac5e32c20b6cfU,
  0x48f4cbe088c34746U, 0x4be2c09dcb574ae4U, 0xf5e98527f2c2eb1dU, 0xeae1e2064c9b540aU,
  0x3381a0cab5666716U, 0xc99eaf12bfec8c5cU, 0xb9402315c5fdba64U, 0xb03bbf184508cb61U,
  0xc5aedd14fa00b155U, 0x7aaa049ff9a1cc00U, 0xee0509c50957dbefU, 0xf2d0bacb5e5b23fU,
  0x9e5f5ba530b7bd42U, 0x47fcb0ce033efdfeU, 0x8daac747b9e1f7f5U, 0x4a5cbfaf7f569007U,
  0xa01039332d79b6c1U, 0x32ce651cb85420fdU, 0xc0292458f9cdfccaU, 0xa1e22d3ff840ea81U,
  0xdd30a1559d40274U, 0xdef81fd21848974fU, 0x9bf46ad4d41adb4U, 0x29f32f372a02aa3fU,
  0xdce90029c92b4af0U, 0xc3dff1f038673ea4U, 0x9dc2634d95f40531U, 0xc92ffcaecda2ea39U,
  0x939a0b0fae75a3efU, 0x9a336b1bb4ba3d28U, 0xe9e6a75fe374457aU, 0x7dcfa4e2ec41f0dU,
  0x90e6e12820697f48U, 0x25bf1f257fc18bbeU, 0xf155a4b2a92256cfU, 0x384c48680c57dab4U,
  0xce465348c05699bU, 0x53ee6b2a3827c747U, 0x993c1a4663dd3560U, 0xe91e7cbfff30a03U,
  0x532a6ff858f088c7U, 0x59a0c2b3f523fa2cU, 0xa60be01ed9d3c215U, 0x2931c2bfe40550f3U,
  0x695cf11c9048e937U, 0x18f9c501534feae8U, 0xfc0edf466d326825U, 0x81bcc60dd1fbf0d1U,
  0x1ddcb2b19d6234afU, 0xedc5ecd293a7a2fcU, 0x61b692f65802621eU, 0x6f6542895a375dfbU,
  0xbdd300e199ddebf3U, 0xad72e3d98f64d61dU, 0x6e9a1fed9c4c7d1U, 0xf2de8167889a560fU,
  0xe49d3622d5c35526U, 0x5e00a567a4f125c4U, 0xb1a06361cd75da96U, 0x3174e2cb849a9db9U,
  0x17341ecb7f07e5a3U, 0x35b2491154ca5326U, 0xf1ae730dd5068fa4U, 0x7fd88f4f045fb68bU,
  0x4c7b0eebb7d015aaU, 0xb90f9ff4ae59c3dbU, 0x8310eba4dd179bb2U, 0x403357956f5d2b1dU,
  0x818b709b20169311U, 0xe59799bc75b10ea4U, 0xaf591502972c4247U, 0xc76dd70e388790a8U,
  0x9770e8f8a8a93fc6U, 0x3e1922177f524393U, 0x95b2c6efadfe4998U, 0x1320c7db9bdb9b31U,
  0x94ef661ec1bbdaaU, 0x3aed523427a3ef5aU, 0xccfd00e8fd62434eU, 0xff11a2baa79f5d14U,
  0x3c953941e8b54723U, 0xffffff8fffffffc0U, 0x1800000002U, 0xffffffd7ffffffd1U,
  0xffffffc7ffffffeeU, 0xffffffc90000000cU, 0xffffffb2ffffffc9U, 0xffffffe2ffffffe1U,
  0xfffffffdffffffd2U, 0xffffffde00000040U, 0xffffffdb00000002U, 0xffffff8fffffffd9U,
  0x23ffffffdcU, 0xfffffffb00000004U, 0xfffffff2ffffffb9U, 0x9ffffffdaU,
  0xffffffbeffffff9bU, 0xffffffdbffffffa2U, 0x2cffffffb4U, 0xffffffe7ffffffceU,
  0xffffffd1ffffffadU, 0xffffffe4ffffffeaU, 0xffffffc800000002U, 0xffffffc9ffffffe7U,
  0xfffffffeffffffe2U, 0xffffffddffffffd7U, 0xffffffd9ffffffacU, 0xffffffe3ffffffceU,
  0xffffffd9ffffffbdU, 0xfffffff9ffffffe3U, 0x37fffffff5U, 0xffffffdc00000001U,
  0xffffffc0ffffffbbU, 0x29a9531dc1554e39U, 0xaa87b0602ab8d3a1U, 0x6d4d454755a89aaaU,
  0xfe9803189295d7acU, 0xe7d6de6d0f414716U, 0xb1ae816eb38a1584U, 0xad4b5662e457345bU,
  0x5bb9a26aa21c8769U, 0x4b4833d411b1be3U, 0xfaf2312b68e9bb53U, 0x88a4db81c0ba4726U,
  0xbfee5408bc9bca56U, 0x1117d53707aab501U, 0xd5b4c716b851d2f6U, 0xe6bd1e5af4fceeU,
  0x183b14c6e1195a01U, 0x2be835f0d7e2ee4cU, 0x6bf0dd1d43a11cb8U, 0xc7152806a3ad10e7U,
  0x772d47101d521d4fU, 0x69143bb703f9e57fU, 0xfa92ccf9f2059c8U, 0x210e942b2a401d4U,
  0xae14fdefe7feaaa0U, 0xdf393925daa95116U, 0x9724be0512768745U, 0x317dde3b431d5f1cU,
  0x4799975957c86467U, 0xf67f9c639b2201aeU, 0x5b0a62f31eaaf8a6U, 0xa60dcfbddc54e0f1U,
  0x62d06d4a66ace5c6U, 0x9297bf69bbc48103U, 0x8df908f7f71b88c4U, 0x240fbaeaadf7b85fU,
  0x5db61115da85bce9U, 0x33b9e69db9664cd0U, 0xfbc22118bd71638U, 0x51823e3528f95aeU,
  0xd52489e9de9b0837U, 0x3a150f9a61e35100U, 0xb97d7fe05b19595U, 0x5b5d46f835bfa824U,
  0xfd2be49203a23957U, 0x3d1f2f8eed26d5aeU, 0xbc23811cd5cdfe03U, 0x15b4839f98705b0bU,
  0x854e0a0a6d16bd52U, 0x9e96fde59c5bf642U, 0xa40c2791fd18f459U, 0xc8ccd1d5ef878514U,
  0xcbf286fc97a51b6eU, 0x54570263afd07fc6U, 0xbdd32be32f3801e3U, 0x6fedf2aa5535edfaU,
  0x9edf29d2729b7bc3U, 0x1721263702e8adbaU, 0x414640aad1497be4U, 0xe99a0bd34dab711eU,
  0x75646d6cec6ddebcU, 0xb4ec703a1c8965b3U, 0x403b4081f5adf23aU, 0x62f31f6c0b9a3096U,
  0x6d3db02ca5056e35U, 0x2afb500f3447ff5dU, 0xf369ff31b210d1feU, 0x6eadc6050fa03cd9U,
  0x25ca8adfc1207fe8U, 0x4f400ec676de1f03U, 0x80f661538d0eaa6U, 0x9bd54cf3bd60b8adU,
  0x186a9bc4e78ec41fU, 0xa44f55a9e4357181U, 0xbae96be75d63ba28U, 0x60554beb0fb12569U,
  0x5090cd9aafcc11c5U, 0xa6624e4a45e696ceU, 0x54afaec2371f4dd7U, 0x67cecde6c7e3bf37U,
  0x55b63842da5c5c4fU, 0xd7bae0c61552073aU, 0x4eb7d126656cac27U, 0x790b2b0c3c1b2bb7U,
  0xc16e507f6f58ec69U, 0xf14fb4eb760a6457U, 0x3b6ac13922b9a319U, 0x26be3dad5902708fU,
  0xcb334cacdaba73f9U, 0x3cb63450f9ec900dU, 0x7f2f4d4ca55c2023U, 0xb09ec537e2304e15U,
  0x34c9cfc5f308b1fbU, 0xcd941ac7f1e644d6U, 0xafb71832b814420aU, 0x8cc4badae9c6368bU,
  0x38e7e1cc60f3dbeaU, 0x82c44fbfb12d74a3U, 0x647376d358a2d11eU, 0xfe7d110d6ca602aU,
  0xac581858da054ae2U, 0xc6b76e41f447bf9U, 0x17f17ac56415cfbU, 0x3b46ad58fa31089U,
  0x12cdb3b3fc2b36ceU, 0x99b4e947590172b7U, 0x4733af4c39a0c8f5U, 0x950c53497f27d15aU,
  0xf16a2513cd4daab0U, 0xae970cdae2c4c93U, 0xc5d2e79c70c3b86dU, 0x5e77643f6b56f8e9U,
  0xa0d75777a273aa20U, 0x402c82afb3692cf0U, 0xaf2a7d4e1aa2586cU, 0xb3ca32339d52d0d5U,
  0x1a2bf2b6398da6b0U, 0xa950c0ef9a12e99U, 0xbcab2d3529aca481U, 0x7a028c59f31e603fU,
  0xe45c02c3d6c2ec84U, 0xd2fa7f46f50c16e9U, 0x54fd0f2640c93642U, 0x28b82aa3b836f169U,
  0x51221a9d5520641cU, 0xecc9ed265f5da4eU, 0x952effa0aef0a422U, 0xd5ed94cbe3bb3df2U,
  0x2a1901f874e241c8U, 0x337ffffff5beU, 0xffff5c8effffc60eU, 0x8dae0000c194U,
  0xffff9b8c0000514bU, 0xffff7db400002759U, 0x9eb1ffff24beU, 0xffff821effffd776U,
  0x59940000df9eU, 0x1fb0c22f576014b3U, 0xba1fbeb8e1b004fU, 0xb9b29cfa182bcc0fU,
  0x26163f15225ce4e8U, 0xf6f1a1f0037f4fd9U, 0x96290dfc8ce7b4eeU, 0x23b7cb57d783c6e1U,
  0x94f4d6314985903aU, 0xb4b70f22ab9fc350U, 0x63d19c892ae90c5U, 0xddf5aadcb9477fe8U,
  0x1f57f2bdf005caf2U, 0xe9d8e24dc30d0506U, 0x949b452309e04126U, 0xec9fd3a5360a5f28U,
  0x153a3eff3d1a886fU, 0x9ba2d097199a5371U, 0xfe4b7ff9f3c2d4e9U, 0x9317c65fe7559416U,
  0x281ff93bd2319c93U, 0xe4448e7381e61265U, 0x8cbb79fc1f1a0c71U, 0x376098954dfed8cdU,
  0xa1eb65f91f2e6f39U, 0x14693bdcca8e10f1U, 0x40c2c3811d1bfaf8U, 0x1b36ee258ee84900U,
  0xe19ac49ab8c50fU, 0x2ad644d091d5b9e3U, 0xa7e04b45b62dccf8U, 0x77d51e2d5a2fdb96U,
  0x4018d7f472b3de2U, 0xe50319d3cdc91338U, 0x3c97d896d700e51aU, 0x4f72167e7d913630U,
  0x9e27b849ca0078efU, 0xd2e25c5bf8bc59bcU, 0x2047af41bde634c5U, 0x4dc03f0ceabab404U,
  0x929d23be3893f7d5U, 0xbbd0cb0c88ee9e79U, 0xd30219e962638146U, 0x1a7be443bc56f30fU,
  0x47f999913e96e5cU, 0xfeea15b5673ec1a8U, 0x25cb60606cdb031fU, 0xe5e94240cab4c401U,
  0x226560f2399f1f31U, 0x8138e05ba4f46bdaU, 0x5169fb315dcd5545U, 0x452428ec631926d8U,
  0x96675ed55a484fd1U, 0xaf6fa5152b695945U, 0x9a860ac5bdcb1853U, 0x3a60c5ae05a236a5U,
  0x5a06c307e4c4aabdU, 0x103aa38101e21dafU, 0xecc0031bd02a5f49U, 0x56ada306e905cac5U,
  0x623096e9500ac303U, 0xe9d4f926f11b05a5U, 0x175ce00bace21612U, 0x54f14b6b3309ce5eU,
  0x10961503f4961637U, 0x6ba45e7fdf0daa94U, 0x313f6f1d90bc841U, 0x2d67f27fa709aac1U,
  0x9aa2ed7653178488U, 0x57511fbe43bb101eU, 0xb3f63b0359374efeU, 0xf40e026f99cecc6fU,
  0xe9581b6e1106263eU, 0xd1a9b77a9fe1c4a4U, 0x39be9a24491fd040U, 0x3537bcb863e2dc68U,
  0x41dcefb19fb657e5U, 0xd6ed7744815991d1U, 0x2f23e21761b32522U, 0x37500a10964d2912U,
  0x4275e017451eccb5U, 0xfd4455471733d9c5U, 0x90749219739c6e0fU, 0x7cf863563c01819dU,
  0xbf270ceed4ce36a7U, 0xe2ad9e6acdb5440bU, 0xcc17270829eb114eU, 0x59e4cdb14d9297c1U,
  0xf138810ab60f2798U, 0x96fa600d36f2e5c3U, 0x9ac732fd49a63a46U, 0xd85dc862b234f1c9U,
  0x5115f20c630e5b01U, 0xfecb70437fd96bf5U, 0x66831d19151e7d38U, 0xa511eb9c1594a306U,
  0x2fb4b28f9ca5d2b8U, 0x339100000b2aU, 0xfffffc39000003f1U, 0xffffeee000002866U,
  0xffffe22800001a98U, 0x1aceffffdbdcU, 0xffffef56fffff7e8U, 0xffffe60b00000ca4U,
  0xfffffc6a000019b7U, 0xcbc7ae107ffff7a3U, 0xf34f1d511e6d503bU, 0x2907aee15ab0815dU,
  0x5b1bc3b83fd0c689U, 0x2f36947fce3d0337U, 0x46e930d4dae8bdacU, 0x63dc1c43d5c3fab6U,
  0x336cff095462407fU, 0x638197b27c8dae87U, 0xaf206621b39e1984U, 0x97a606038171e6bdU,
  0x3b57484bbcbfb77fU, 0xe3f0e6b4d56783c1U, 0xe99033be9eff6b81U, 0x3081d361d555c564U,
  0x71eed0fdfc601e58U, 0x57ea8c2a31157f34U, 0xe9afb325919e9c64U, 0x1b96bd87117f1247U,
  0x3a7b93e09d8e3f7U, 0x4a9189e9f6478e35U, 0x41336adecac78155U, 0x29d3d5d13edefea0U,
  0xc529597f873103e7U, 0x9a3a6d181f429752U, 0x93ae384565e77f15U, 0x9c0481d3560a3fbaU,
  0x57e1eefb1fa56717U, 0xb4d2f7ba347231ffU, 0xd6c281b153111fedU, 0x30ee5f4b3df750e8U,
  0x186d81ce9aade30eU, 0x98ac51810e3ee80bU, 0xdc53f2fcf0c50ce3U, 0xf814a6b21938c81fU,
  0x81e80659be869decU, 0x274facedf481e5abU, 0x43bc29c591bd4bd1U, 0x3ed34a72e2817f97U,
  0x25d55dd601719f3cU, 0x5cfb81aee1113d97U, 0xcb35bed901e3f7f4U, 0xe14af3fa262bd678U,
  0x5088d5a663797f19U, 0xe0a8a069e581bed9U, 0xbf0f2ca5b3d0d830U, 0xd6d311ab7472cbf5U,
  0xf97f2c791a15c0dbU, 0xe87fdf10c7afbc24U, 0xf120ef709d5bb423U, 0xdb645048fcae0f18U,
  0x7ff70eb538d2361fU, 0xa2119c9b1abfb63eU, 0x18a296816b4d6faeU, 0x35b3b98147ce1a3aU,
  0xee23b0fcb36eee60U, 0x7bf681130ba84f09U, 0xe03e789ca179dc52U, 0xb5cc9a3aeaf8db43U,
  0x550b8d7fa01e44ccU, 0xac7f59ddf6c627b0U, 0xb16d3fbd5ced3630U, 0x71510bf758682dccU,
  0xd813c43bc49a306U, 0xc120efbc9bbfd853U, 0x46edfc7f647218f6U, 0x51f895287f11ee7dU,
  0x2533f1c89eb1e44aU, 0x9674c8a87788da81U, 0xb19de36ff1b5dc44U, 0x41a0f229a90ba3a7U,
  0x4a333bd97f9c4076U, 0xe0b89ac89a9ef418U, 0x94c10efee4308b7fU, 0x93c36d932ded05d3U,
  0x4aa77fbc0a738b6eU, 0x2010adeba1e3717aU, 0xfd417fc0fb1f4390U, 0x5f064a6adcbb3381U,
  0xba9f65c2d0cd899cU, 0xa8ac8134a702d913U, 0x38ed43d921ef2f0dU, 0x421eb50a010b2639U,
  0x5132002c9811915U, 0x2cf17f83b6071adeU, 0xd079323ba3aebac3U, 0xdb26a03a068e1b32U,
  0x5bf00f7f41200146U, 0x7f956d6e09f8f68cU, 0x7e273a11ffc1fe15U, 0xcc36b7349a51429aU,
  0xf940400d79e77f59U, 0xc4d99e1b59818152U, 0xbdfab5d970ec61edU, 0x1dcb0fcafa2b819fU,
  0xcc19ec65e8bf7faeU, 0x4f559ceab32ccb6dU, 0x8d815cc7df94dc53U, 0xf94061814d3cd211U,
  0xa1edd8cda2c1be8fU, 0x4364ca23535ebaffU, 0xe1f6fe7fd4338e9eU, 0x3a7feed5f3402e0fU,
  0x321a6cb5bb2b047U, 0xb1d03b5d53c12098U, 0x7fd3e62f2043979cU, 0xc45d5c8196cf379bU,
  0x267aa6fa965fd148U, 0xeac0bb0e813c393bU, 0xe76ba87b05b36f25U, 0x21f8f06b26518152U,
  0xfb059c61f39f3f08U, 0x281f5882af91f39U, 0x48b1002797e3f3e3U, 0x679281ba1c0b7619U,
  0xbf424bd43467015eU, 0xd014a86dacf9bbfU, 0x637f9cd33d0bc0aaU, 0x17843a42517f9401U,
  0x446777a35b14f210U, 0x5df3ac4d7f508966U, 0x3853cab831e6c81cU, 0x81c15e55b0fd069eU,
  0x1a78ef148e3f681cU, 0x14a4ea46232a8169U, 0xa06bad08a2a5e0ecU, 0xa0eec00fc34faf99U,
  0x154fe9e60c112681U, 0xa96fffff336U, 0xffffe824fffffe30U, 0x4fb00001bf9U,
  0xfffff1dd0000196bU, 0xa34000005f6U, 0x4a80000075dU, 0x479fffff090U,
  0xfffffacf0000084fU, 0x148d0000092bU, 0xfffff7e2000012e9U, 0xffffee6e00000fccU,
  0xfffff5dc0000189bU, 0xfffff07900000002U, 0x3b700001108U, 0x3bcfffffaedU,
  0xfffff5d6fffff6ceU, 0xfffff94efffff80aU, 0xfffffb0200001582U, 0x2fc00001988U,
  0x1003fffff7faU, 0xfffffd610000088cU, 0xfffff154000006a5U, 0xffffef1bfffff28fU,
  0xaa100000965U, 0x122200000a35U, 0xfffff92bfffffb8bU, 0x4b5000001a0U,
  0xfffff900fffff8faU, 0xfffff5db00000d7bU, 0xffffeccc00000bd7U, 0xfffffc89fffff370U,
  0xe5100000990U, 0x1401de29a3bfa04bU, 0x53dadc51fff37feeU, 0xaf25546567fcc09aU,
  0x1f3f9ae6a5e6eaU, 0xe4e637c9d109a638U, 0xb545b802bd5913d1U, 0xf7afaa215027f74fU,
  0xbffc633d9ba01d4dU, 0x1bc7a65f71ef920aU, 0xaf60afcbd03535bfU, 0xab6a61a21a227f3eU,
  0x714dee2cbbf61dcfU, 0xd649ab2c3a0db7cdU, 0xf93e91a88a5be24dU, 0x395652ee651305d7U,
  0xdef1bdec6e0c18b9U, 0x932e8a0b1721aeb3U, 0x4953214eb79138cfU, 0x1c30a4563e9627c0U,
  0x407c4f9b1e69a3aU, 0x843d81afa8d290c1U, 0xfaf7040f103e2c9bU, 0xa52d213a8d8c880eU,
  0xb3adb37532ced48U, 0x721dced1d5a103d0U, 0xa9b352c21a47ca20U, 0x5bbf111abb08d11bU,
  0xd34a7f11daaa3f55U, 0x25fde95c19d2d953U, 0x493434fdfb2ae8b1U, 0xd2a2bbb7041d1244U,
  0xdc209e14eec43e2dU, 0x24582e0571320cccU, 0x2fcf4651cd8ea252U, 0x2dd8f4f45f374218U,
  0xb14ebde6da66eb45U, 0x2bc2a0ffa81e43b8U, 0x2a9f28e6b90f45e3U, 0xdbfcadf8cad9c9d6U,
  0xef3581d06b091624U, 0x389f969ac839e60aU, 0x50995e3437d82c71U, 0xa8ec5185401cf6e5U,
  0xd503b01b10f7db39U, 0x17aac808fc4018c2U, 0xa7ea0b69087ff0e3U, 0x5b59b2de04bb49bbU,
  0x5b122ff0a6a5ae00U, 0x9f76e44e41392dccU, 0x1ae40ae40fe834f4U, 0x4e7f2bc0d3f21336U,
  0x93208b3d93e8f109U, 0xb7d5984dc51ea719U, 0xf5cd880fa5fea101U, 0x742100908a304994U,
  0x4be7c466e4a42c97U, 0xb5d73d46466cfa62U, 0xde2c15b556222df5U, 0x4b87963bfeff4090U,
  0xda1db6b915190508U, 0xd8c315f39ad3b83cU, 0xb49650311321107fU, 0xa2a9a1a3cb3c598eU,
  0xc1dc2bf4be927ff3U, 0x88cd22b91c725141U, 0xf45f3c4d9ac6cf62U, 0x43a5070abb85e69dU,
  0x1cd2fe1d3218a940U, 0x39278413332a8115U, 0xadbe84a8342305d7U, 0x56cfe41e086129f9U,
  0xd62fc6aed8046e63U, 0x36982d37dea69ddeU, 0x660d4eab87cf3a11U, 0x50252e30f9ad908U,
  0x4e35d5164e952737U, 0xe80a5cc1d27f0fa4U, 0xd8ea1ed947b0ff72U, 0x7b2de8e08ed3023U,
  0xf1aa891adecd0223U, 0x3c96cc118c27981fU, 0xb40a57199a1a681eU, 0xaff6ec9602487e7fU,
  0x2054c1e2ea670f32U, 0xf74ea5a6b4ae1eU, 0xfcd6a1a137f6ab20U, 0xc92d37768a332059U,
  0x11eed809ed5d5041U, 0x3e126a6dd3ef9a6U, 0xab991133c6e426b1U, 0xa90e4225cfae2e02U,
  0x482456e261a5f551U, 0x962f30992ed3222eU, 0xb33e14e6a841f381U, 0xaa64c2aa20ab2b45U,
  0x1c283007874037e2U, 0xcba1f95b04d9223fU, 0x19a9ba3ce9f2c0adU, 0xb493bad759134b2cU,
  0x88db16f2d924cb1cU, 0xd63ce3fe15c2b88cU, 0x813e86ddf8a41fabU, 0x48e3fbb42cb359cfU,
  0x542506200e4504d3U, 0xd7270e0bee263001U, 0xbbf44c11d5525a50U, 0xb2214270ea9e350bU,
  0xca61a7816ad063e9U, 0x6bafb60bfcd34e8eU, 0x5875c4d49f5ddf23U, 0x8b62693d865bdf8fU,
  0x44d099b30910b1fdU, 0x4da4b4a158ec4d43U, 0x63e60205afc9dda2U, 0xd16454e907181f0eU,
  0x29856f49f4f57e9U, 0xdf22184ec44bbb62U, 0xa5f7e478c71f61dcU, 0xb5973dd19a5dfbeU,
  0xb43511160c0fc07fU, 0x5fc4d2bc16cefdd8U, 0x42ed288aa7fa8dd8U, 0xdfcfdde45081d1feU,
  0xe2eddacf915ec49eU, 0xed92cd342b3ab7f0U, 0xb68a14a83fd0b7beU, 0xd3200d1eb091b688U,
  0xf81cf50630f23ee8U, 0x23dc3ce90de216eaU, 0x10a706012b2a0654U, 0xf6e1d75a4918d4c5U,
  0x1350afe3eb17b0e8U, 0x902bbc24cd1c4e89U, 0x1981fab15b9c22d2U, 0x668c0f0a744c0ccU,
  0xb62df2d4f36230cdU, 0xbf31ac321304d0bbU, 0xe30b3e2936f81e0bU, 0x93bdbe0594905a93U,
  0x613dff2b229fc655U, 0xcef852dc38a6e02eU, 0x359e20b602f6ec26U, 0xb61f2ebf1dd7f34dU,
  0xdf9b812aa8420fa5U, 0xb0d6c490483d58d9U, 0x32caf1cee9b7e6d2U, 0xf7cbe4d7cd122b81U,
  0xd15443670f2c33c1U, 0x18629e02bdae012bU, 0xf4cd0889ae171a46U, 0x2b37b50e2b5a272eU,
  0x65c922262fc65b09U, 0x20df3fefd636679cU, 0xe84333e1e45312dbU, 0xb46686817497f704U,
  0xcb1cb666aa2d1041U, 0x223db7ec4fd50c9fU, 0xc5c682aecb21ba10U, 0xd2f047ff6910a6b2U,
  0xc574aa9be0413a5U, 0xc0c950f1eef3c381U, 0xf9f8142634524cf3U, 0xfc382ae9e6761f31U,
  0x39d20bcc58b8f5deU, 0x9b17f83f65a1c701U, 0xa2553c2646563038U, 0xb13e334e57faf455U,
  0x671c3e3d8262b314U, 0x6a665a368abe2cdbU, 0xfb8138bf9b22ef1bU, 0xcc610d12deedfed2U,
  0x3b7905cf3ed46920U, 0xc04eb162601a274aU, 0x62a36aab1d649634U, 0x9efe603ba60bc8edU,
  0xefe96baa2106e17U, 0xd3a2064ba81adc2fU, 0xb31c4e342e8107b2U, 0xbacdb5fc335f01d9U,
  0x19a41030d48c10cdU, 0x8d53c35929a338dcU, 0xa962698f036bdccaU, 0x96a63a01d1d1d2f1U,
  0x1322f5337058472aU, 0xa962c1818e461f31U, 0x9fbd9f25dcfe3ce6U, 0x9ee5e576e5a1cf70U,
  0x64c36550ae9f1473U, 0x991771d4eb6d97b0U, 0x1be9c267513d4c57U, 0x7d49b963c5b14e1U,
  0xd611bd4097040e25U, 0xfaf53101de45cde3U, 0xda471a0ebd085cabU, 0xdabd3eb4ecd16835U,
  0xc0b32e2d8945fdf0U, 0xd22dd24850f5b18bU, 0x9f1029b201d2e6caU, 0x2c81e4d7ecdc6d5fU,
  0x914913c724d135dbU, 0x2c81b3099329482eU, 0x5b14e90d37a9ce38U, 0xc454d79cfef74fa7U,
  0xf9943b2acb16b43eU, 0xa1e69bbbbc1ff1dbU, 0x1dcbd00a0dea0208U, 0x3e9fa1f2d9a92d2U,
  0x27d8f7ad65f9c842U, 0x4b9bee69c5b369a0U, 0x1a56f32f523f9efcU, 0x91f1f60a5efce8c2U,
  0x16f2e8126b1704daU, 0xd73aecc06c18c5a4U, 0x12c0ed4db10425fcU, 0x347a46acc80135U,
  0x19b7e87f5e45aaafU, 0xe8c211440dfb9e4bU, 0xd2b3564337e7db97U, 0x127d36f1d123eb40U,
  0x60cc1e1ea6687fe9U, 0x58e2e8221c285ec5U, 0x29429e99f26d5b61U, 0x8623a9d79ba8147U,
  0xf4ffa32980baae7U, 0xaa4559e6bdf41119U, 0xae046e25cdb35137U, 0x26a4a6c73009f8e2U,
  0x4f23dd40c1816554U, 0xf9a4b49fd28712d3U, 0x2e3dea5efe022931U, 0x45cc33db4675b6fbU,
  0xe09a0361a9c24967U, 0x2d8ece1311ec3604U, 0x42dba4563df6e4b1U, 0xc81f0239ec0f3019U,
  0xf2e881cf03c05ab4U, 0x154b1f2b9a2759b0U, 0xe6a13dff4e96404bU, 0xd6449d0a18c934ffU,
  0xd4552b9da032b3cU, 0x4a3a1bbbe22ad648U, 0x359a62f926bd0ea3U, 0x15ac820cd19e974aU,
  0x55db0edfd6f519d4U, 0x2644b8812e99fc38U, 0x45c82f61b13263beU, 0xc8ae91f4b6d1f60dU,
  0xd01260c0fa767619U, 0x5e401534c8e75f22U, 0x45074c093806aeb4U, 0x81c713f0093ea429U,
  0x1c1d3e51aff7c9feU, 0x34eb1fc81bca3b9dU, 0xad2ce448a3415c69U, 0x44e95831db9ecc5aU,
  0xe64037c9b93556efU, 0x5b40e87472b1147U, 0x54b5c619dcd489d1U, 0x495a130b5553cda8U,
  0x4f54f16bfbfc6195U, 0xd1362ffb5fc381a9U, 0x4dce2a1d0b09ddcdU, 0xec5999d495c2adecU,
  0x25f8d0f3a0e8cb96U, 0x720139edf942ee48U, 0xb72fcb2cd53846d0U, 0x136452397fdc02e8U,
  0xdd22e4df6ddcb4d4U, 0x1290a08180edb75U, 0xd92ed45d1a21fae1U, 0xd390a35fb2371798U,
  0x7eefb6d318d36b7dU, 0xf79a3824244f63bdU, 0x6850a70c7d73a5dfU, 0x270f298ea16c36b5U,
  0xab502cba878d122U, 0xb3082a938be79d1aU, 0x94c5b13ea903b794U, 0x850e9532bc60d87fU,
  0x7e8fd00a1a2f8487U, 0x28ae5898c54b3af8U, 0x933c0d500020c7e1U, 0xa2de5dbcd2d0e650U,
  0xb9ba3e8837d256adU, 0x568cc1d33e817a65U, 0xd1dbd062afde9745U, 0x5d354eddc0348f10U,
  0x80112a1c692a392U, 0x3e1360eaa6569ecbU, 0xb162fbce42ae540eU, 0x9aeb942081c4003aU,
  0xdfdbd6b744269931U, 0x30268a2ed18fd102U, 0x68c8c51af9b7206eU, 0x2e54a81e1f63b41aU,
  0x8d65ca6f4431df2eU, 0x7fe9c0a8670cef62U, 0xcd971326d192d152U, 0xabee825cdafa8718U,
  0x50637086fff2c6f2U, 0xb2155015cfca581dU, 0x6de6ec3565f931e7U, 0xbef6c8b0ea94d51eU,
  0x12a03b2a4754b532U, 0x94f2466d63e08f43U, 0x29c3600e4853b9e5U, 0xfa10dead6bb31747U,
  0x72d09f034894c0a9U, 0x6f0d83e7f3b20d4U, 0xf0be613d29a3e04cU, 0x9ce3f18ae1d35a6eU,
  0x3e9c35e669ced6d4U, 0x384cf6bb48c25189U, 0x87951cd5de50f6bcU, 0xf5cd228fffb3d2c2U,
  0xc89a4adfebd5aa12U, 0xc7e7a5b3e3b42581U, 0x4dd299202cc3310cU, 0x6a1ac846b6da204dU,
  0xe1881450da65c228U, 0xfef818445e2736caU, 0x6ed6ba07d16d54a7U, 0x81401ccd54de48dbU,
  0xa53b9ca50625d0dfU, 0xcb13e248b7568d5bU, 0x28b7d05324c69390U, 0xcecf0da847284741U,
  0x6191de2227064cf1U, 0xffaa2ed2a36c126U, 0x79db1396f620275U, 0xa22345cba05cfc1dU,
  0xc73ee5acb329e5b2U, 0xf5e4e8cdf0361d42U, 0xc5c8081ad50f62d7U, 0x480d0ec5dabb74a9U,
  0x85c8285981b461d3U, 0x271eaff11c696f9cU, 0x6c5be1a24e6928ebU, 0x42cb661fce56f20aU,
  0x2010241f0a60ee7cU, 0x5ee341b7b86cab1dU, 0xbbbe90770db92ac8U, 0xcf37e0397f86b2ddU,
  0x65f15ab6ecb3eee2U, 0x5133ea81d84e459aU, 0x4efda6b40797b00eU, 0x59eaff270ae027d8U,
  0xf21ed4e5c8c23547U, 0xd1a03cdcb705391fU, 0xc33cdcfee313c721U, 0xdfce4b040d43c358U,
  0x9d5699b25ce7083aU, 0xedb5ad2086a5d1f7U, 0xe9ba9ecc6925fd0bU, 0xeb0e33ab7385622eU,
  0x405f0c6bd163411aU, 0xf1bee836254ca579U, 0x6263132b420b6281U, 0x3ac83a02dd4c1f5bU,
  0x2f6c5831940209aU, 0xcb13b44608299f0dU, 0x7fbb3121d6f9fdeeU, 0x3843de17641ce8a8U,
  0x1329a72cf42f3c4aU, 0xff03d32dc0f4aa67U, 0xa9a85af5b8ab0ee6U, 0xfbda1a22e137b8a6U,
  0xa55622633acd2037U, 0xc43036d791ccdfebU, 0xbd7d1349e624ef22U, 0x2f6a08dc6bdd5fa8U,
  0x9e6824ece17824c7U, 0x794f3a3f921bd179U, 0x40937f51e53e2122U, 0x9550a95dc0dd5890U,
  0xe46e81edee899f45U, 0xdda718704ac5091eU, 0xfe28e2f7f70b363cU, 0xfc9b9d16369b1bd7U,
  0x1c460ad5a753d9cbU, 0xfdba61cb03b1a3b5U, 0xfa385ab155c942b5U, 0xe1b1a9e4e54a0f81U,
  0xdda18f45011c6b49U, 0xb082d31a7db542aU, 0x63e009b01b2594a1U, 0xab84b2c4cab9a7cU,
  0x4cc2e732ef38bffdU, 0xaca91ed2a4911903U, 0xa232a607dfc97939U, 0x4126da53a667f42U,
  0xc61d7ba518eff517U, 0xf7cd47b608ce72fbU, 0x443cb46c9e37cf5bU, 0x4a4271314c9793c0U,
  0x76459d776dc26190U, 0x13095e048e3c6644U, 0xf447fe527be02485U, 0x4bf27ff15118f770U,
  0x5fa9a515a6dea221U, 0x3918a2f7da252561U, 0xeff815094ad43ebcU, 0x24aeb0e7092d2a8fU,
  0xae80be74d196281U, 0x8b5393aab94dc644U, 0xbde3e6c4543622b6U, 0xc6e3f6f5cc4194caU,
  0x472b652d69e63514U, 0x909a4cd7fb936f8U, 0xe54e8610aaca1600U, 0x95bd5962eb97ba8dU,
  0x8fcd15efb12f3b2aU, 0x3b3eb8e3a5c3d69dU, 0x31e7ee4a33f89ac1U, 0x1f5428ad331a1567U,
  0x1796e7a1bd889475U, 0x38e01142c6d222c0U, 0xe4d0a9445939f048U, 0x1fe21b45822381a2U,
  0x3c19d5de1b08badcU, 0xc53cdbcea51de446U, 0xeea7c1c47065d1e0U, 0xf4bb42573f063dc2U,
  0xe46b532fe5b942c2U, 0xa502a64c20392f1eU, 0x9d26041c22065bd3U, 0x92e8e8815ca53e92U,
  0x32ede166da971fb4U, 0x5c5983194c8e3211U, 0xbfcdef082b9744e6U, 0xbc5ff4c3e2ee9abfU,
  0x3633ed07f704ae24U, 0xb8c9e2c316a21df0U, 0xcc29edbc18cd458cU, 0x552115bcb7be942cU,
  0x37d43a08e129bdd1U, 0xbc3481ba3642fe95U, 0xd1e5f93f57e3d1e9U, 0xeee4ff3fda93f157U,
  0xeddc1f052bc9e8d1U, 0xea25e6ff9c8a3f39U, 0x3445b5c01ad3df0cU, 0x3145b826795aea38U,
  0xf81db70b5f2df6edU, 0xec345e01b40bdbb3U, 0xde344aaeb95964beU, 0x2c4b45e76def43bU,
  0x81ae046eda93fbfbU, 0x817040c2e2f1156aU, 0x52e9670a3cf1d085U, 0x4af0a5e67fc430fcU,
  0x50e5bea049d80490U, 0x6d95af9ea833fa46U, 0xc492bfd3dc46b06bU, 0x166c584952c6cfe6U,
  0xd75c2dfcbd314696U, 0x1b4a2fea1ebdcea6U, 0xf5df0d0343a643f2U, 0x1121e2b31fa9dc48U,
  0xeed040f2dbfdd240U, 0xaf14f39630bb9698U, 0xd0c12c1e6dd70232U, 0x53e289b5c8b43720U,
  0xb25fc0b081c91a11U, 0xfd412c0be6ce4e5eU, 0x3ffca3034864c714U, 0xe53aee22bfff3c7fU,
  0xc7a34cb6dfbde70bU, 0x39d01cfa15ba53bdU, 0xa3ee6832dd9b62fbU, 0xd92c9368ba56fc4dU,
  0x543551c41d572b4eU, 0xa345ed32f8533ce6U, 0xf87fa1b022b7b6bcU, 0xe96b6d0b362aeba0U,
  0xfda9eee1e8c5f0d8U, 0xd645585e28556570U, 0x54630765019f1050U, 0x5d50bd31c75c6c00U,
  0x53e511441db8baddU, 0x21706791a135f5fbU, 0x3afc8bb9ca005de1U, 0x92c1a4265fecf53dU,
  0x37ad1d2cddd4eac0U, 0xe518ec465a29e45eU, 0x8d2cb44d5525c5c9U, 0x4fdcf3b614c4e4c5U,
  0x2fed3f4bccf881a9U, 0x2c82ec26a54c648U, 0xd772f7b620d48a16U, 0x3d98d724514aa116U,
  0x1a591c34327d0e0U, 0xdc3f0874200299bdU, 0xc7ed1ab7adea5a76U, 0x61e0d09cc5edad3U,
  0x1cf2b11ef6967fc8U, 0x490fdc3036da23f4U, 0x234de6d90afa2606U, 0x60042a277fff48fbU,
  0xeb07dfa9ba0cf5aeU, 0xf321dc35fde9e4d2U, 0xe2f7c9c5c1e9c9bfU, 0xd7033429f41510d4U,
  0x49f52742cbd94352U, 0xa036174a2132f2d4U, 0xef9c4a6fc48c84fU, 0xc328e995d531ee2fU,
  0x95be9b39feda77b0U, 0xc58169e6eb4e01c6U, 0x1e6966313ff7e3e6U, 0xd536600cd74b3fcfU,
  0x53a17a7365eb4afU, 0xffffff6bffffff24U, 0xffffff9dffffff2eU, 0x145ffffffffU,
  0xfffffee8ffffff1aU, 0xfffffff30000003eU, 0x1800000023U, 0x3ffffff19U,
  0xfffffe6effffffdaU, 0xffffff8fffffff3fU, 0xffffffb70000001cU, 0xffffff0100000079U,
  0xffffff8fffffffcdU, 0xffffff96ffffff72U, 0xffffff20ffffff12U, 0xffffff42fffffff9U,
  0x47000000d3U, 0xffffff18ffffffc3U, 0xffffff16000000a3U, 0xffffffe5ffffffc4U,
  0xffffffe8ffffffc2U, 0x37ffffff7aU, 0xffffffdbffffff92U, 0x13ffffff9eU,
  0xffffff5efffffeddU, 0xffffffa1ffffff7aU, 0xffffff93ffffffe7U, 0xffffffebffffffcbU,
  0x4cffffff52U, 0x3effffff05U, 0xffffff3800000035U, 0xffffffcbfffffef8U,
  0xffffffd5ffffff77U, 0x44a74465aa607b3aU, 0xd7d00e89b5760838U, 0x17f85e4cc84bb0f1U,
  0xc452438d2015cff2U, 0xe209cf99121e2c67U, 0xfd084a14c8b8ec09U, 0x43065d0f62acc1a3U,
  0xbee936dcab81bec1U, 0xa736e8cd2b0b9c49U, 0xb6e6388aa91ec3a7U, 0x2de1602a81043b9bU,
  0x8f4464fdf2b86826U, 0x6a010ce50bf1e1fU, 0xe488a735baa667c4U, 0xb3576208a84efdabU,
  0xbc4aef588a04ba4U, 0xdce32cec87b366dbU, 0x63f73e0063e003dfU, 0xe463acba347f3238U,
  0xeccadba7e7ac4e98U, 0x62acbe0b3ee1a9beU, 0xfe72e5cef7bdeaa5U, 0x4503d6049740c553U,
  0x12ca6143f512b3faU, 0xb9d6a4816629a2efU, 0x6efb142bd7c06c87U, 0x5cf9f7a5977c7f71U,
  0xb854fe3bc7cad01dU, 0xca8a4008dd63de11U, 0x5c8eec4c07a5e9c9U, 0xefa350273eb4f31fU,
  0x682ee447418f9a35U, 0xdf24d621e343abc3U, 0x5aed8728979935d0U, 0x1f222d063a7d02b5U,
  0xdac945040c7f274fU, 0xc1063702ad5fad66U, 0xf073e85533181c4dU, 0x30eafddb088519d7U,
  0x39d19ec375a3d09cU, 0xec8e1531f3e0621bU, 0x6fdeabe51a573f42U, 0x873335976f5f3d21U,
  0xc2286ca8756212fcU, 0x8a607eb251020a9cU, 0x21dac07f1998917aU, 0x492b65910d105f68U,
  0xffcc492d51c2d5b4U, 0xe95f9813cbc2a6daU, 0x49814cb6d2a9bf6fU, 0x192d47395a2aa856U,
  0xd1e3d32bea9c8207U, 0x951e2b01e9ae174eU, 0x2c175421c3cdb18fU, 0xaa70c9e96bfe8503U,
  0xdb0d99ca7143e10U, 0xa3174331d1dd1b10U, 0xc73aacd83e32b003U, 0x5f8998e472fa0bc2U,
  0xdf0fbaf6c2be6d43U, 0x71ccf2eafbb22c36U, 0x98ab0963c049e12U, 0x4b98ed1132b7c12bU,
  0x39f290411b7f9063U, 0x817605c439104f51U, 0xdd7bc0fb8eac1afU, 0x47ebc005a6e2bc2aU,
  0x43b438470f4fea94U, 0x3ce5f76b16fa3c35U, 0xafd91dbe0a9889b8U, 0x94e553e2f15d10d4U,
  0x2cdd9c5eb785094eU, 0x2030a1d9614fdfa7U, 0xee7f46a5a5466153U, 0x566154170f0d3733U,
  0xc6f8f930622119d3U, 0xc44c031c492d2740U, 0xc950d6dacc48180fU, 0xe92adb1edaae1fe9U,
  0xecdaa0bacd4f1a15U, 0x9bc4eaff252bad49U, 0x74a4cd58386460e0U, 0xf8c5ba81cf4291a5U,
  0x6cd338cf21a03703U, 0x2432aa72b4e57a0bU, 0xb46c2c405bb74429U, 0xfedd3b2eba520d9fU,
  0x7641f93742c094cbU, 0xd843c86f73c8db21U, 0xf8b4d9ead34a5641U, 0x953a92ae1f18ccb5U,
  0xd504fd81657e52b1U, 0x6ee0f7d50344f9d8U, 0x25ab147e1d447670U, 0xa5875f9c040f2d0bU,
  0x97f81cd3620d5fdaU, 0x2440ba5210ea7a52U, 0x641072b634039aeU, 0xd6351a50dee2ced0U,
  0xf6e62f2662b621ddU, 0xdcb799d5ebd27f9eU, 0x4031419a40b9e912U, 0x4d9416bd9cf2fe20U,
  0x2e63bb35dc56f951U, 0xe27fb19f3c077b25U, 0x7018a72660f1d9c8U, 0x2245ed2166256e5aU,
  0x5a1505b71d50a4a3U, 0xbd427c32183d6ad1U, 0xb233d0eb0f04412eU, 0x1d52f01287005461U,
  0x5ac52a536ee324e8U, 0x21059edcc95d29b3U, 0xfe7fbf71e13e31b1U, 0x36dd6d5565ee623dU,
  0x384dcc1567df980dU, 0x985ad91f421d79b3U, 0xbec8ff53c00935fU, 0x14923b0bf1f97314U,
  0x2ebd2ec6b024e891U, 0x4b5ee129e1274e19U, 0xc277ae3137ace850U, 0x2c29f602b754ce46U,
  0xa396e2136abb8a04U, 0xb9d96f6c59efa9b7U, 0x79ed09a7c05c2b2U, 0x45326b5eaa665d69U,
  0x78d87fd34285cdf2U, 0xffd1000042c0U, 0x37b300005b6bU, 0xffff380cffff3556U,
  0x582500013b4eU, 0xffff345e0000c460U, 0xffff47d40000232bU, 0xfffebb99ffffd410U,
  0xffffbccfffff4e6fU,
};


ai_handle g_tinyfallnet_6axis_qat_weights_table[1 + 2] = {
  AI_HANDLE_PTR(AI_MAGIC_MARKER),
  AI_HANDLE_PTR(s_tinyfallnet_6axis_qat_weights_array_u64),
  AI_HANDLE_PTR(AI_MAGIC_MARKER),
};

