/**
  ******************************************************************************
  * @file    tinyfallnet_6axis_qat_data_params.c
  * @author  AST Embedded Analytics Research Platform
  * @date    Sat Dec 16 14:23:13 2023
  * @brief   AI Tool Automatic Code Generator for Embedded NN computing
  ******************************************************************************
  * Copyright (c) 2023 STMicroelectronics.
  * All rights reserved.
  *
  * This software is licensed under terms that can be found in the LICENSE file
  * in the root directory of this software component.
  * If no LICENSE file comes with this software, it is provided AS-IS.
  ******************************************************************************
  */

#include "tinyfallnet_6axis_qat_data_params.h"


/**  Activations Section  ****************************************************/
ai_handle g_tinyfallnet_6axis_qat_activations_table[1 + 2] = {
  AI_HANDLE_PTR(AI_MAGIC_MARKER),
  AI_HANDLE_PTR(NULL),
  AI_HANDLE_PTR(AI_MAGIC_MARKER),
};




/**  Weights Section  ********************************************************/
AI_ALIGNED(32)
const ai_u64 s_tinyfallnet_6axis_qat_weights_array_u64[4145] = {
  0x6cU, 0xffffffd70000005fU, 0xffffffebffffffc4U, 0x5500000009U,
  0x14fffffff8U, 0xffffffe8ffffffb7U, 0xffffffd700000006U, 0xeffffffddU,
  0xffffffbd0000001bU, 0x65ffffffebU, 0xffffffd7ffffffb4U, 0xffffffffffffffbaU,
  0xffffffea00000016U, 0xffffffe1ffffffd5U, 0x40000001cU, 0xffffffd600000022U,
  0xffffffcdffffffc1U, 0x2fffffffc4U, 0x39fffffff7U, 0x3800000007U,
  0xb0000000eU, 0xffffffdc0000004eU, 0x5700000003U, 0xffffffedffffffccU,
  0x3c00000008U, 0xffffffcf00000013U, 0xffffffb2ffffffcbU, 0xffffffc400000063U,
  0xfffffff9ffffffe5U, 0xffffffcc0000001dU, 0x800000023U, 0xffffffdfffffffa6U,
  0x9df6dc68e5ab008dU, 0x5bd1eb54c10761b4U, 0x3f2fd0917fe2c200U, 0x38a808b50f2b6845U,
  0x640a0ed50cdb54fU, 0x8409bdca4b40f4c1U, 0x31c73012a7881a5dU, 0x4351c30510846021U,
  0x5d10c03b282efb19U, 0x20e0696e0e04df9U, 0x406dc03bea3f89eU, 0xba08dcb2cd00c8bfU,
  0x18d0d9fcfd492653U, 0xe4c6000636dc4105U, 0xac0dd8cfb64badceU, 0xb30a5d7fd232e4cbU,
  0x9eacc1c7f5514ebcU, 0x73ae0202faf243e0U, 0x35ff3eaffa0fbd18U, 0x1655e59e50150485U,
  0xb64501290630b927U, 0x81be4594320d16c5U, 0xda5397e1becd8157U, 0xbdd23aca14fed302U,
  0x15dc61ddc967f87aU, 0xeb7f412362ac21baU, 0xab820d87af31b53U, 0xe8081ab129c70dbaU,
  0x6d347b752b2f060U, 0x4ec9d8fee879e6d9U, 0x334f9f5a2e319f4aU, 0xbaf1af04f86b04ccU,
  0x9acc67ebffea3939U, 0xdf6ee857568e3cdbU, 0xa94c9530660c6304U, 0xec13a939b33bc2ecU,
  0x3a0710f156c5c354U, 0x9eb4b734ad6b03e7U, 0xd93a3d81f8014864U, 0xe2ea1da9ae0ae108U,
  0xfce5df1bbfc85b0eU, 0x260344a2d71ad7cdU, 0x611eca48fcabaac6U, 0xe96038c2d2000bd7U,
  0x575dcfba0ce7ebffU, 0x59fd5ca04a7fc91bU, 0xce5f5b095bd5ceefU, 0xf3df064a1523e3b4U,
  0x6be8094c2eaa36feU, 0xae82d1d9e4f1be0cU, 0xf1a83e1c924bb15aU, 0x624f5a7800292041U,
  0xf452ccee410624d5U, 0x5a10e32c4e8c5781U, 0xc33f09cebbefc6a4U, 0x1afd0ecabc379122U,
  0xe734e2201bfee620U, 0x81452acaf1e440f4U, 0xb90d43421f147857U, 0x4883c0e2e23a2f54U,
  0x8f0d45c811ca27f9U, 0x5fbd7c5c17264913U, 0x338b68b90abe7d08U, 0x50221c3a45bf6af3U,
  0x5ebecb1aac42fc26U, 0xe4c72d81ce1718e9U, 0x6430e74ad52c100fU, 0xc1163715eb072033U,
  0xa7ae281d5119ca4cU, 0xfd9a3bf1f4349e6U, 0x26c6c21cffe8e7abU, 0x375218ee0057bd36U,
  0xf7a91fe169b9bd9fU, 0x351657481f374665U, 0x2c55d43136273dc6U, 0xa12edc099bc427b1U,
  0xf10978b7fcf33448U, 0x812c2cd67e1264U, 0xafbd2b53db6aceecU, 0xaad3defa058f19e3U,
  0x121a54edb25510eeU, 0xf04873f5c10f0a7bU, 0x64c7d0cb31e343bfU, 0xd0c4cf9dc83268cdU,
  0x33b2ff53e0e60b22U, 0x31c009e3db4c5d81U, 0x57ae07465ff95908U, 0xf2dd56c821263ad8U,
  0xc2314a5d19a1b0fdU, 0x5b31cca5e2175cd8U, 0xd3594dd4d72fd728U, 0x617ed2b54aa419dU,
  0xe2a0c04d24eecbd9U, 0x25319b183a812157U, 0x61553bef01a3dacU, 0x2d09341c48c021feU,
  0x7f4d0f6cc724db3cU, 0x2f81ebe346b4e5c2U, 0x172033aed911e0deU, 0xc828153541f7403bU,
  0xc31500dd0e01381dU, 0xecc4cfe49b0a693U, 0xa216a6de56520c50U, 0x55e3f00312ed17e6U,
  0x956fbf523757349fU, 0xd63dae7fbed0b912U, 0x468a05ddf7f5e901U, 0xa7ef7adc050eca2eU,
  0x99cb5d0146b2cabbU, 0xc451c8e71b359af1U, 0xbe0c309d1b6831f9U, 0xfd0840bf67dfddc3U,
  0x12f92e1c9aded2e8U, 0x9cd95109fab33047U, 0xf8a31648e631c99cU, 0xffd009f5b81bf436U,
  0xfe09f31ba68124eaU, 0xcc1758bcab7740e2U, 0x2ec1e2618a621f7U, 0xafa82cf047081a20U,
  0xaea181decc0515b5U, 0xe399fdbf6ab4b12U, 0x3cfdab67da52ee37U, 0x908126cb3136e544U,
  0x74b3fbf94e6cfad6U, 0x8fe74710c109e1b5U, 0x5433093590fd2446U, 0x5348f8c1f436c43cU,
  0xacf072563bcb90c0U, 0xf8e63f52ec1f0ba1U, 0x13ae7fdb70122091U, 0x6d64a59b6eaabd7U,
  0xf0c727a73a8a93d1U, 0x3f20b8819fe9ef2fU, 0x8511e46d64da3702U, 0x26fc554704e54c27U,
  0xe77b3e5fc0b1e773U, 0x2e4b8138e5ace0c9U, 0xd2af0e50e1aa025aU, 0x3a5ce559ea299f64U,
  0x1ec7bca79875e3c9U, 0xe9e82d00d9fe285fU, 0x2641f7bef910041bU, 0x551ccccb4a284194U,
  0x325dc78fb9d43203U, 0xb0c40ab9b38c377cU, 0xaf273ad3e51b0902U, 0xe7fc35f7ac6ea90cU,
  0xac236729812ddad6U, 0xd24310293ad953d4U, 0xa527ef32bd331bfdU, 0xd6cf93e8a47523f6U,
  0x3a0a23d802559651U, 0x464eb5ddd9e1f255U, 0x18aef64911fdf1afU, 0x7f1ecaeccf9b1d2U,
  0x3127a144bef018d8U, 0xbfa84dcfcf7f51dfU, 0x1df299a5a4331ddeU, 0x2bb902b5f13ec20eU,
  0xea3c33a43e3ccf10U, 0x209c34ef00d25cc1U, 0xabe2e715d408bfe8U, 0x29fad2d6d54de458U,
  0x7f4232c420dad313U, 0x3afd221afd3efe33U, 0xac2dc5f3b499b6a2U, 0x973a5c09452ff5d3U,
  0x64a52b0193cc0547U, 0xcececcb216bf5cabU, 0xbbb42023cf03af12U, 0x484a3b31a47ff02cU,
  0x5252d36252b24774U, 0xebaefe4371eda3f1U, 0x484e874fa746b085U, 0x269a443b51c8a9f2U,
  0x35bcf4e5b0ec16b1U, 0xfc6014cb38cc5cd0U, 0xa9fc1caaa6813613U, 0xc04604edf5e1bc48U,
  0xc72138cc093b6403U, 0x17b86dc645256bcfU, 0x9afae1b5ebaa9ed9U, 0xfc21f6e1ace507f5U,
  0x2d38fd40b4d94407U, 0xea17bdf3cc40d1c0U, 0x1df90d4407df1481U, 0xa3e1203ba2a86529U,
  0x44093bd7d9c5be44U, 0xee103a2e35a6bcf7U, 0xb30e3bbe41e75839U, 0x41c55094de021502U,
  0x3e2eae4823f6f57fU, 0xf81204e9833ccb46U, 0x56575fa64aaa4ce3U, 0xc46d43af6019b844U,
  0xfd58acb200d03fe3U, 0xa7f9ced80ee9dea4U, 0xbd323d1cb69446abU, 0x65d9a805cdd23ce5U,
  0x1acb5212e6df1031U, 0xb122b9cc48dcbf87U, 0x3badfaa4f2ccce07U, 0xd14ae4cf92c71aaaU,
  0x420ed274930813c2U, 0xe6fafd344a8159f5U, 0xba0767dcbde55608U, 0xe51f92e2ea621c23U,
  0x6a736494d3cbbf3U, 0xd1264fdbcac91d01U, 0xe0187fa52c5e5d0eU, 0x8acd9bd8a216542eU,
  0x5725bcf23009f8bdU, 0xbb39e4020d592b0U, 0x39c8281cf1ba96dcU, 0xa39d1424284ad158U,
  0x32e4c2ef8a67b38dU, 0xe307a8abd4dcc859U, 0x699fcb722b7f4f62U, 0x9ce9a8341692badbU,
  0x5d2112bf61388448U, 0xa598494ef5d4f50dU, 0x19c13ede37bccc8cU, 0xd557bc963afc11a5U,
  0x17482cbbfdf5de0cU, 0x8d0e10ba3d13ff0U, 0xf51b48e84442d0ffU, 0x577fcdb40e51ea1cU,
  0x1338b7acd0d525c7U, 0xc20707db4f32a8d8U, 0x3cf73b4a36df4331U, 0xb41ed53626481eeaU,
  0xb544500550dbe6b8U, 0xc722c1db0d494b0eU, 0x2eee1008e5212ac2U, 0xd0b9e006e71dabf4U,
  0xf5ca4c319029cdcU, 0x35f19d9e48e240e3U, 0x2a9a08ff238154e7U, 0x49a8599dde295e1aU,
  0x9ef394dbe6963e7aU, 0x5509ce0373635a9cU, 0x53375c6353b5adf9U, 0xa9d146cacaa263d3U,
  0xaf97e259b56f5a6aU, 0xdec0c27fe93b4ff2U, 0x34c9e2e5fe6543b8U, 0x4970316f448f1db4U,
  0x1313010cf114b81U, 0xd050c4d4e80a37edU, 0x42b938a2f71df6e5U, 0x49aabb079f4d22c8U,
  0xfbc3ca521cd4b7ebU, 0x3d93ede19fe38acU, 0xb826e39fa6a914d6U, 0x59abc7bce4f030f2U,
  0xa0812a0cbb04315bU, 0x6cc3b9083720ffdU, 0xebe5b73053bf9734U, 0xba94eb4ed007c350U,
  0xf13831f1eed65d33U, 0x1eedd2553a0edcU, 0xc6b08b3ccbe59874U, 0x30a2342dcb4b05b8U,
  0x315ffaed1a0ff810U, 0x28310fbc75987fe7U, 0x6acec9e960c409dcU, 0xf1e79797852357c6U,
  0x8f27b1015d1ce461U, 0xc2ba12d6dae7112aU, 0xf0f99eefe1123d29U, 0x46a7f8a29fa714ffU,
  0x33d050bfa3393eb8U, 0x4e8c43ef99184c8fU, 0xc7c50f276733b515U, 0xd1807d713f00a0bU,
  0x7fa6eafff0e9cb0dU, 0xe1fef926e4d83e10U, 0x14ffde5e01e44903U, 0xf7289734e3df241eU,
  0x13d4b02c5f3342cU, 0x13c7ebca1e9aec43U, 0x582f5de7ed153d03U, 0xdeae6da2848c3U,
  0xee4dbf17e4c7b0d4U, 0xb2452e9fc781d41dU, 0x2dcefdcfd4b2fd2cU, 0x211ac99bd6fae2d8U,
  0x9dae947fcccda640U, 0x9bfcb2713f3fd620U, 0xe9b40c2be53c012U, 0xe8bfe1aeb134afb7U,
  0x74c92b8b668a29acU, 0xd59bf8d328638816U, 0x352d555414cdf633U, 0x1697f360fe36d802U,
  0x5bb51845d8b230c5U, 0x311df546bbdfca1bU, 0xde2440b6db1532dcU, 0x3702c7211a3caad5U,
  0xf10981473a072912U, 0xca2a0a35c14e2f21U, 0xe9b4023014c33646U, 0x2005ca1218f7f416U,
  0x290c0b38e962b80dU, 0x373b09bbe0ed6f35U, 0x449bab4fed00248U, 0x19fb11fe0232e520U,
  0xdc2e5200fdb3ee1cU, 0xd7ee3133d37fdffdU, 0xc13aa2e3fe090e07U, 0x1dc5196d024ed6e2U,
  0x858b4c515c20cdc1U, 0xaadde181d7f84119U, 0x95c8fb1494cd89b7U, 0x2a5600db4879a122U,
  0x6c9687172d01bd1fU, 0xe686e9754a98d040U, 0x60a3860e974fa61bU, 0x6f455d1e2260e4afU,
  0x6bf1cc423b24b655U, 0x6d1afbcae120db34U, 0xc4e3d8022110efe4U, 0xbcdec707d020d4a7U,
  0x42fa562de64319d8U, 0x22614cfa537fb6e1U, 0x102f4036c4ed04aeU, 0xbab146215e1a0050U,
  0xea7cc14e41bb533U, 0xf47fee06cad4653fU, 0xf346e7b26d34532aU, 0x6d730163687d2006U,
  0x5158e8fa22afbcfeU, 0xb9232bc348f01039U, 0xc87f2cb1cecafb21U, 0xf7f0c0b6c3e018ccU,
  0xa9b734f13e21f5e1U, 0xdceea0b6b8b9c9e5U, 0x7fb09942f5a548e7U, 0x5f450e8b0b35832U,
  0xe360fa204f045d0bU, 0x320c050cb30190caU, 0xe0df1065e3b6fae3U, 0x191dc1b814a12d1dU,
  0xf9f81ee97f5974acU, 0x846add036ae15fd0U, 0x4c5d3aad91e1f6abU, 0xeaef43acf7dd6459U,
  0x9ad9a73dd4381278U, 0x73c1b0e9f551bd45U, 0xe43569fa2a04ec6fU, 0xd2cfb77d453be924U,
  0x353c9f0e849d8c5U, 0x374877f2cbc9ddadU, 0x1835ada20bbeec50U, 0xc8ef696b2067f548U,
  0x6077714a632e3d9U, 0x6edbddb3b4ee2854U, 0xa4d5e30317f530fU, 0x68fc2eddc15098c1U,
  0x55efbfd96c4626f4U, 0x2527c74f71ac572aU, 0xa968efff09b1c502U, 0x95bd90808a71f3cU,
  0x117b07377f7849fbU, 0x8ad7a65450adda60U, 0x42f29d210639e446U, 0xcce42eaeda1ee695U,
  0xc931c83ede19befaU, 0xfe4ac8f440b3f960U, 0xe030ac5901b9ee9bU, 0x1c41c41da717ecb3U,
  0xb246dd9cc336adcaU, 0xc0403094b752e3d1U, 0xbbc1f4b3ef2202faU, 0xf9c7487ffcd44ef0U,
  0xda003cd737b0b0f0U, 0x634a60d46120bcbbU, 0xccb85f4bf119fd4fU, 0x7f38b84b9d631ea2U,
  0x9a5715b741d210c4U, 0xbf1756e6c5bcfbccU, 0xe75cca230f95eb1eU, 0x324be22bd55fe9f1U,
  0xbf2ba6726ad41048U, 0x9496c0f645dd9c09U, 0xab49025d3827dff6U, 0x366576aae1fbdfc6U,
  0xac1274978db06791U, 0xca5251b9480c561dU, 0xeaa6cb87f45566eU, 0xed2df1b8494d239fU,
  0x432b44271bd41a33U, 0x395dece2df9e4069U, 0xea9900ea68a26d4cU, 0xc3adb84ff17719faU,
  0xffd036a600422af6U, 0x2fc439e66f4639b9U, 0x227f3505a4bdbe6fU, 0xb33d01bafaa3d6dU,
  0xf123419ef89356c5U, 0x9db314edb8c99949U, 0x469c1c47c77ffaddU, 0xbd38beb2f3eebf22U,
  0xd14a1e513f6ce5e7U, 0x82fa08bc3bf02672U, 0xd3ebf812c6e8bee8U, 0xe1c2f1b5b22733cfU,
  0x4d19a99f53d6efdbU, 0x7faebb8b581750c8U, 0xfae954d57f62c892U, 0x310df4b70aece5ddU,
  0xeadedb40cca94708U, 0x64fed15bbdc62da4U, 0x54db55603b398971U, 0xf034db2592a8f324U,
  0xeebe84bd2e7ddadU, 0xe4dbbeee641cd54cU, 0x812557541105ee05U, 0x59c1cdba02c1274dU,
  0xb7ae19cac209dbffU, 0x9eec33949bbe020U, 0x990a09cd4c1318c5U, 0xa4d2ae2323d0c418U,
  0xdfc7844d4bd00329U, 0xabd5572c534ac3b0U, 0x2c43654f17ab5a0eU, 0x2d61968a05e85f19U,
  0xd24e3801ab685c30U, 0x3c06013f3503a805U, 0x75cc921d87fe239U, 0x27c8c4cbe1981f4bU,
  0xcce05662c54c770dU, 0x51aff95072c30d09U, 0xe4a64a16ea28595bU, 0x4914e03ed3f2b4d3U,
  0xc94e844338102cfbU, 0x140ad218688bff11U, 0x53fb05bf8ea3436U, 0x73c77fed96c7dd71U,
  0x32076d42bef4998cU, 0x81acc8b353ec1654U, 0x3d28ccb3c836ffe6U, 0xefbf027f42ec8af8U,
  0x2a543a031103c096U, 0x3f4ffacb79db8a9cU, 0x5ce5fb45cb7a1605U, 0xbd2c20bcac016d67U,
  0x42a49250c3ba051U, 0x194a341fdb0551e1U, 0xef0a6112dfb1534dU, 0x18abc6cf3ad94903U,
  0x14e4cf59ca15e5bdU, 0xdd96acc6ea8165e5U, 0xe6271f0038ee4961U, 0xbb2dc926cd9748d3U,
  0x25e7b9a6b8c715dcU, 0x632f3bd4973ab22bU, 0xd358d8501b84ab1dU, 0xc9b453977bc7a1a1U,
  0x17681e3c129849d8U, 0x4b5b7ff8e43305c0U, 0x57f4b3eb3b54fa0aU, 0x8412f660afd89499U,
  0xd22d0343299e4195U, 0x52b8d4b618ae0e38U, 0x1c88c189e2145b0bU, 0xeac72ccd90cce3cfU,
  0x830eadc3d323481U, 0x6dfae6d139b89a16U, 0xdaa5b3371d43f7c4U, 0xa9cd260b44ff9fb0U,
  0x4c61c2d127bd36eeU, 0x69fb0cb0cbc7b253U, 0x4f2c4d31ed10d187U, 0x2bbc2dae57cd3dccU,
  0x64130856fb7f4434U, 0xbcadf6ee2adec0b7U, 0xbf656b7297f39faeU, 0x2ec1601bb1295f12U,
  0x5f3e220df25c32d0U, 0x519a3c5cfe636c8eU, 0xdac96399c45399b0U, 0x702cc825fdbdeb81U,
  0x54fc6d9779d9fa8U, 0x3ce72dc1eea82a5aU, 0x909b5dfec2f91892U, 0xe2ce06df98a6c343U,
  0x1e00bd3099dfe5c1U, 0xa194a37db94e854U, 0x6949f29badc24b27U, 0x25e63c41eae833afU,
  0xdf598e5bb2f000f0U, 0x950fb2732306f9b4U, 0x818dc0a8525a8bcdU, 0xec5ca43413b0aaeeU,
  0x55dc4333bf2066baU, 0x26b2eee110d01863U, 0x5174f2ba2725dfdcU, 0xabf8323de12e38f6U,
  0xfdb0812d3f0d2623U, 0xf00f034b501ea852U, 0x43ae6ba5f24ce0c3U, 0xe20cd426ae0c413cU,
  0xa6c83259553dbe23U, 0x3d1be045990c0756U, 0xda8bd0d3b815c6daU, 0x1b4003f3071cd219U,
  0x3edefef8224e16dbU, 0xc61aeac04ff2c555U, 0x10b7420030e0fa08U, 0x344e3d33814631c3U,
  0xfffffffdffffffb0U, 0x86ffffffa9U, 0x5b00000056U, 0xffffffe20000002fU,
  0xffffffacffffffebU, 0xffffffc4ffffffffU, 0xffffffcd00000089U, 0xfffffff000000031U,
  0x4600000096U, 0x8f00000025U, 0x2e00000008U, 0xffffffd9fffffff1U,
  0x350000001eU, 0xffffffe1ffffffa7U, 0xffffff910000000cU, 0x1dffffffc5U,
  0x1b00000022U, 0x4effffffbdU, 0xffffffc5ffffff9cU, 0xffffffc70000005aU,
  0x9300000055U, 0xfffffff00000004aU, 0x710000001dU, 0xfffffffc0000005cU,
  0xaafffffff7U, 0xffffff9f00000007U, 0xffffffb6ffffff79U, 0xffffffe8ffffffdaU,
  0xffffff720000001dU, 0xffffff620000006dU, 0xd0000002dU, 0xffffff6e0000000fU,
  0x46c919d72bf0c481U, 0xa62cada52ff05397U, 0x9bf52439d125eeafU, 0x339c62ab3109b2aeU,
  0xee0fa45d58bb9941U, 0x6d5bb1718f2d53eU, 0x269ae7a66d1259b9U, 0x3f9d565ba9feb438U,
  0xf4bb039dd2de0b16U, 0xdbe13f37bcb4e2faU, 0x7944e8e8889ca9bcU, 0xaa81f66f70a5b103U,
  0x5c66c02cac18d417U, 0x618fbff897dc1336U, 0xa4c0dbeca025dd3aU, 0xaad258c5f2428ff2U,
  0x41eef534f2810fd9U, 0xa223d924daed1b06U, 0x98c3f2a33441c855U, 0x10244595e20aeeeaU,
  0x549bca34c0c9d5f1U, 0xeac7a3f41b824177U, 0x67aedad93c875192U, 0x69cd2e60c0f6cfa4U,
  0x741459c50532ebb1U, 0x1437b8d428306836U, 0x2affad682d19edb3U, 0xdaa11db261cc4616U,
  0x2190c40f7f05d3d3U, 0xc7d2430ef7f0d34bU, 0x2a542b5da976eb02U, 0xa86df0ea4cc211efU,
  0xc0476bb1d318b137U, 0xfdd755c2a951f120U, 0x990a9700011f4b7aU, 0x330c8b7142d47013U,
  0x1f652a1c7c1df50U, 0xa7ca2536a0584c91U, 0x2c81d3f55bd23c1eU, 0x7fcf7fa938de69f9U,
  0x5a7f9c210450f9c7U, 0x6b2b65ac3a96072eU, 0x4bf9cefdb3e634eeU, 0xbd10693cc140d3fcU,
  0x6319bcdece4fd632U, 0x6f4af7361ed78f1bU, 0xd75236e102d631dbU, 0xb1690c574213009dU,
  0xe10db712a816084bU, 0x1a245a24d04254ddU, 0xcea8c76f4b39f0beU, 0xa3700fbda7f2d35U,
  0xd45e1321fdbd1761U, 0x11f2cfa5a6c4ee63U, 0x493e59d90014ccb7U, 0x60e6c6aacae2016eU,
  0x143ce31d01bab5faU, 0xe697ac3ad5593dd1U, 0xf11d1da8d3189381U, 0xbbce588dc711693cU,
  0xb0b730ffa663a155U, 0x6d9c4c4baffa3309U, 0x4d5aa893d21acc5dU, 0x38161d224cf5cac9U,
  0xd45a42c09b8f2d16U, 0xa225c73449b4b901U, 0x742750399a162baaU, 0xe4e617b4583d11e1U,
  0x94410869c481bcc2U, 0x2799bb01dbf220edU, 0x5beb74daf3cd15cU, 0xbdea4e1c4004fa94U,
  0xad4accead259f28U, 0xf04f4fe663af3b65U, 0x6b433aeb9cbe107fU, 0xd8db936b2e90e79bU,
  0xa316446fb2c20475U, 0xc2e75cef145a526bU, 0x31da496ac67489bdU, 0xcdec81a660b9e17dU,
  0xe5342ac53011b735U, 0x4fc8c10d2b3d1a37U, 0x5cb8d13cbce058adU, 0x8d1eefcc7013c8dfU,
  0x42507feb5355fadbU, 0x11f2e72369c937deU, 0xf7e3a03bf4dab8dbU, 0xe51d9322ab281dacU,
  0x527c8ddc1f97f52U, 0xab6c55a63e23bfb5U, 0xc1e38d310b90d9baU, 0xd0ada7fefc490a41U,
  0x88217402a44ad413U, 0xe83bae90ae904b5bU, 0xedf3bed7c5afea3aU, 0x5a4cba1c661760b1U,
  0x1900f1f0ae3616e9U, 0x27171c092753ceafU, 0xcc832eb2df5b02fU, 0x500f5476d3e3e0d2U,
  0xd863dfb781585cb4U, 0x5325d7ad5ca1bd54U, 0x28d2b269d5cb9d2aU, 0xbe98b1e0e32a365bU,
  0x220f3f3659f4fd1fU, 0x39b0d8232d34ee9bU, 0x9e4c47f9532aaf11U, 0xb483762d7030ee52U,
  0xec0553eea5c9dc25U, 0xb0f160dfaa96ea3bU, 0x1f67b17f1f12df70U, 0x4826f8cdc2e053fbU,
  0x326bd9adab60a341U, 0x390fdffb1beabc22U, 0xade74ab33a0cb146U, 0xabe0ad96a850fb81U,
  0x1ef82627c90e52a0U, 0xcee5a31df7b3b09cU, 0xe949a8fdb8ff58f0U, 0xe050bd49db129ae0U,
  0xe878a5302a3e1112U, 0x1216d46fd48ac924U, 0xd9899690ec63075aU, 0xd9e5f0f2efa56173U,
  0xb0b3b10398cea0c9U, 0xfba7b11fe529e17U, 0xa5f32eb971bc9137U, 0xaf1281f55cc6353dU,
  0x22e600001800U, 0xfffff43c00001de8U, 0xfffff323ffffec42U, 0x217ffffe9e4U,
  0xffffeb7d00001e75U, 0xfffffac400001ebbU, 0xfffffe1e000008a7U, 0x9ca00003870U,
  0xfbd14231013306bdU, 0xc65dc5f72962c6c0U, 0x53e0c5d2c80b571fU, 0x4e1349dae010420fU,
  0x569de6cc1381e500U, 0xe434002d0bfad4e0U, 0x351a78e74d4736ccU, 0xb904e5530eb9bdf6U,
  0xdf9538b9e7f90e3fU, 0x26fde4bc32d1bbc1U, 0x5e844391f081943fU, 0x6c71ec868bbe184U,
  0x9ddac87f27db9972U, 0xc4466d03163ff90cU, 0x7640fa1cdf7e159U, 0xf696fe3ef5cd8703U,
  0x7c05012c773ab942U, 0xf6dd350456524f8cU, 0x913cb6fea1f4379aU, 0x1c4fd9abec37ec8fU,
  0x8f0e23c80ecf4356U, 0xec77bf49d93e19ecU, 0x38d54429d205812cU, 0xbf94c3d4ad72e00aU,
  0x5ceb34a4d444c8d9U, 0xc14fb6c195902a81U, 0x3dbb45aa561d474fU, 0xafaea72595ba0bf7U,
  0x19c600e5514a580aU, 0xd205afd62a2a2004U, 0x1e3d0e54eb222a6cU, 0x494e231cab39367fU,
  0xc62db23745e9754bU, 0x9ec5f171fc590616U, 0xfba3554eecf3e9efU, 0xc4157824b90ee3a7U,
  0x5a1e023e28677f53U, 0x99c461c10c9e4cccU, 0xf23a325608387c4aU, 0x95efbca6de2eb1c8U,
  0x712e5aac4ca73c6dU, 0xe60654f975b21944U, 0xb3b6da10efaa8416U, 0x67c637404dcec75dU,
  0x39d5fc6449c70003U, 0xdf13cf1eebb6f5d0U, 0x34b504d8836bc7e0U, 0xbb5fd5a47f0f9adcU,
  0xedd8eeb90a49034dU, 0xae185e1f1615b32fU, 0x96b74dbd2ba4a83bU, 0xef81a1b65e1ba3b7U,
  0xb2fddb9d01ce1945U, 0x6397b963cb7346b2U, 0xd879aa8fcc4f42e3U, 0xa5481cfc45b5bdd7U,
  0x9a8840acd29a7f55U, 0xb6441bf8c7e33df8U, 0x63bd476a3e74543eU, 0x28933e010dc90760U,
  0x950b41bdf8c2efddU, 0xd939a94b570e4bf5U, 0x293655d840120d5fU, 0x5cbbe647f6ec0b09U,
  0xd064a5fca7f1a1d7U, 0x7fdeef5fe5d07948U, 0xc048953762d04c66U, 0x4b36bdfa87dc5ee0U,
  0x3555c406a6432008U, 0x3c39a16e46d60d31U, 0xca7815d19162ef4U, 0x4835d6e85db5e05aU,
  0xf12d0aea9cc1da7U, 0xc08133e7444b51dfU, 0x4547efbc42142840U, 0x20dbf518b73f3433U,
  0xbf30d53cd2c563c9U, 0x65aa120e171bf5ecU, 0x21c7551420fc9b6aU, 0x319dfe844b5edc54U,
  0x24428a8ab30906fcU, 0x35aeae9bb97fbe1cU, 0x9e7e8c19bebd18b9U, 0x6f39bd9f04453bc7U,
  0xe0c8ae4d1c33769cU, 0xd1f759696a7f28e0U, 0xd53e300565753a9U, 0xe2be0bf2f7f8eb43U,
  0x1cd99f4f5bf0e139U, 0xea3519fbc97864e6U, 0xe0697f66bfe95af6U, 0x348e0b16bcf1cc5dU,
  0x5a3d7596cf1e6b01U, 0xd29864ff4c2643a7U, 0x3a913dfddb26eea7U, 0x6c3f3ec617aadc67U,
  0x1aacfffffe41U, 0xf6efffff1a2U, 0xffffdbfa00001483U, 0x11aaffffdba6U,
  0xfffff6af000017c8U, 0xffffe5dafffff436U, 0xde1fffffefbU, 0xffffeaafffffe00dU,
  0xeb2381e04e221a45U, 0x3a56b39040e35752U, 0xda9e3027f531c04U, 0x42424468ea4a98c5U,
  0x1e94302ff7e651aaU, 0xf32ee9815e8e5e6bU, 0x1dc4de360cce7a15U, 0xdf920e813daf91d0U,
  0x7ba411e43653fc81U, 0xc27af2785303037dU, 0xd2e25aed402938f6U, 0xd28ef681e5b7acabU,
  0x47fe6abc0b3034dfU, 0xe9a7dd6d109a5c81U, 0xf44e557fc81a2fd6U, 0x1907addb06422a0eU,
  0x81ae3a773b63f726U, 0x398372e0286ea76U, 0x2f8b1e0c3a2e223eU, 0x7f377f10bbee2eb2U,
  0x1e6dcaf82e78f3dU, 0xcc7f34b5ea3ba910U, 0x83dd6fd28172ce1fU, 0xb805abfceb24fe94U,
  0xab02b6f149c3fa0aU, 0xf0547fa4253b2266U, 0xba43660385a31c9aU, 0x39857f6f30462ea2U,
  0x369eee357367d7e1U, 0x6fb881d47dd62e1bU, 0x2d4664e63da2f73eU, 0x187f14cc37b83372U,
  0xd37f89cef9987f4aU, 0xe892053f13b6351bU, 0x5bfa22b944bc0a4aU, 0x83f1d1819478a466U,
  0xbb1fb2da3a1760eU, 0xd5f6558e9a7fb2bfU, 0x8155ecd2693eddb4U, 0xea12addf2974b145U,
  0xe5492e98130acd1fU, 0x8fa8cfb8437f5949U, 0xb1219ce826f05957U, 0xd1317ff0d502d6b1U,
  0xe5030d5b3e0bfd03U, 0x151a4ce0ca283e7fU, 0xecf9a5ecbc7192f4U, 0xbf39e508fca27ff2U,
  0x2aaba42b17819833U, 0x96d7673975c74d27U, 0x112c08d225ed0f70U, 0xe08fd39164447f15U,
  0x4d00057fa41870c1U, 0xf78eeb9b5421eb28U, 0x725fab81579d0f02U, 0x53d6ad22c3a18d3eU,
  0x3abfa6f302e74c78U, 0xe1dfb267e37f4eedU, 0x584d067f5f4f0c7bU, 0x4add5422feaf5e7cU,
  0x47fe615a1215868U, 0xfc229f2b5a0c460cU, 0x2cf9ea69f6b16f98U, 0x380db88b8f5cd181U,
  0xb3bf82f6fb443eb1U, 0x61c01381e4ab0cc8U, 0xdb98a23e5ac7ba46U, 0xf04c398100056131U,
  0x811c602278f00593U, 0x12a61935a2ba61e3U, 0x5564f2840e6d86d0U, 0xa243552d2753bd81U,
  0x3daf37a43d1fa905U, 0xea4a02a685693181U, 0xd5f00d7ff2443c51U, 0xbf1b18131af227e9U,
  0xca9742df61afd059U, 0x2c81ece7ae17f7e5U, 0x452953a7d2557644U, 0x5b008190401e1146U,
  0x45829d3b2a23b681U, 0x5c48036a2268a31bU, 0x9caeee107f12336fU, 0xb94a378aef12073fU,
  0x26811c8903e72b63U, 0xf24d09481a15169eU, 0x38493726c1599016U, 0x511bf105ff0b7f25U,
  0x58e2b981c85ab2b0U, 0xdcfa46c89b2402fdU, 0xa435582e7fb1fdceU, 0xbc9540bf119eb4adU,
  0x8e3b99c57f9590fcU, 0xb74d754bab3455b8U, 0x663afeff7f4a5632U, 0xb7b5d19ece90e2b6U,
  0x8c499e0f4f56352aU, 0x4b684081f49497d7U, 0x29a8715649ba27fU, 0x2a5908ebdb2d8555U,
  0xf44f3568eeddc96eU, 0x943d731b04067fabU, 0x4f41b882f85a81feU, 0xe8f184a06a8fc9b4U,
  0x81b2d85a5bb69f06U, 0x2f15e761ca2a495cU, 0x5ca5be8b241dd2dU, 0x7353bf7f1c31b83dU,
  0x9834abb1158194ecU, 0xeedbd8c9c1a705e8U, 0xc62e0a816fad0bd5U, 0x57b9aa8c29f137beU,
  0xfe837605bc19daf4U, 0x810bc6bbebeb6907U, 0x1c00194861f153c3U, 0x45d5a253f9f0ad7fU,
  0xf7441955c390d3cfU, 0xc2230aecc0307fa2U, 0x42e37f20d49d15ccU, 0xd26a966a9f8fd2ceU,
  0x7fd3ed94dcfabb58U, 0xac5cbaa908d69ee9U, 0xf7d8bac1e84aff61U, 0xc9074b26da5c8156U,
  0xb713395ae8eadbfeU, 0x2b5121c0afc8277fU, 0x9a495c1bf8419db5U, 0xa01b4d22557f1f69U,
  0xfffff2a5fffff5bfU, 0xfbcfffffd3eU, 0x1205fffff2daU, 0xfffff43e0000002eU,
  0xffffefa6fffff60fU, 0xf8700000feaU, 0xfffffc6bfffff794U, 0xffffedc0fffff8c4U,
  0x9ac00000136U, 0x26000000cbeU, 0xffffffe4fffffe69U, 0x781ffffecb3U,
  0xfffff7c6fffffeb7U, 0xb71fffffc4bU, 0xffffd894fffff84bU, 0xcd2ffffefe4U,
  0xfffffc5c000011a2U, 0x2f2fffffde0U, 0xfffff0cc00000756U, 0xfffff56800000b5cU,
  0xfffff99bfffffcadU, 0xffffeef3fffffff8U, 0xb48000010aaU, 0x2b2000002a1U,
  0x4960000004bU, 0x1575ffffee00U, 0xfffff4e6fffff746U, 0xbdd00001ca8U,
  0xfffff4a900000abbU, 0xaad000003beU, 0xffffff5300001317U, 0xffffed96fffff9a1U,
  0xf3b89c1e5941ccd3U, 0x5f4cc81f9cc439dU, 0x8e3633491bd250c2U, 0x4bcc5a46cfaa8d35U,
  0x5a3eacd1ce14955fU, 0xf43215ff065c37f8U, 0x2862efddbd5773ccU, 0x244f173fe4a0c004U,
  0xd50d48be1fcde39aU, 0x2106b923cefdda3aU, 0x4af4a31ada60c48U, 0x9db5213c5a029043U,
  0xe1cd87c4a401513bU, 0xeecf6105e5fcbba3U, 0x3adbd03f3781c7e4U, 0xb925ff40512a1be0U,
  0xec25e618191418feU, 0x54b8c6a942a6a693U, 0x3855aa904de2d9fbU, 0x7fa8e0e3320e1dcbU,
  0xf3e234ca2d478fbcU, 0xa0b83c7d6965d7f3U, 0x2c0ce552d3419d0dU, 0xc0b45ba6a364ef68U,
  0xa9f24425a0b5a021U, 0x99459a481c1aaff7U, 0xca21f6b141dcc254U, 0x55fe1e18c0a299d0U,
  0xeb2e36d2d7c8b524U, 0xe2cd230444df4ca8U, 0xcd6281fec93ae6f3U, 0xcc0f0acd34354d50U,
  0xd8cefe5c45e244d3U, 0x404261511cf6b5efU, 0xcc55694c4870c91aU, 0x90a591d32b547d30U,
  0x812140319666c6f2U, 0x12232f715c2e9203U, 0xa11b68564a15ee5aU, 0xaf2c1e6764b0fbc5U,
  0xb0e1ca6da67a9d53U, 0x1561c0685402e44bU, 0xcf12836ea84de19eU, 0x9a08ef415cd2b33dU,
  0x954b0a3fe2fe1239U, 0x4e2b09b138ee0781U, 0x2603d2ded03aa7a2U, 0x155bbec3e327355aU,
  0xcf489322fab3b74dU, 0x979366c3fada2b18U, 0xb34f20e2a6217bbU, 0x3dceec28eead04c4U,
  0x70eec1400be723dbU, 0xa272bd23fa453f03U, 0xf50e033ff8e86327U, 0x5ad91657c681d2fbU,
  0x26e552093a73b9e8U, 0xf0b94d18a0c124c3U, 0xd46517b29bc1f7beU, 0x671fdac40b9235bbU,
  0xb79b9991b2c334a6U, 0x21efa171784835bdU, 0x314fe416185ac841U, 0xf07ddccc143781c1U,
  0xc3f63eebf92ffac1U, 0xb782f84844819fd4U, 0xf64af502125c13b4U, 0xda4e25c5034aee54U,
  0xd458370de5b5fee1U, 0xc2dcc4e000c8fdefU, 0xedc24f1f535aecb7U, 0x5532194bb4b3e8cbU,
  0x14447f141bdce6f5U, 0x4fcc186a96289d26U, 0xe8e2e361bc1e6b48U, 0xba6c7285304bcc36U,
  0xd31cf92755eabb9eU, 0xa9bebef32f582324U, 0x71f5b1865c267d79U, 0x164d6f20d0abf6f7U,
  0xd94c29ac4a14a58dU, 0x1b8139e0f67b1822U, 0x33404cdc34cbfde2U, 0x170f2db0d40593a1U,
  0x226fd3ee2e9c6e2eU, 0x505c430b8724eea0U, 0xe7b6c11c124d2da2U, 0x4426a98bbd3d9169U,
  0xee38839fc2034932U, 0x4f879e1181be0b1eU, 0x3e60208e7458d6e3U, 0x1e7ccf441ce056eU,
  0xce0d1976f7df5d18U, 0x6f0ef15f102809d0U, 0xc68bfa122e936ebdU, 0x7821e0f8f54e9a0U,
  0x2cfdcaec02e3f504U, 0x33ababcd1efa47acU, 0xde11262c01c93ec9U, 0x9ebe351c7fcf37c5U,
  0xcc1166181510d1f6U, 0x16a3a0b725d63f4dU, 0x28d929233adde9d5U, 0x4b444fd525c1fc68U,
  0x3c5358ecd0ac1721U, 0x25fb2f1be1c2e1d9U, 0xa310705cb81068dU, 0x2396a1cacad40836U,
  0xc5b9cc3da45255a6U, 0xc40253c5c15b07b6U, 0x19c6b730fa0a93ccU, 0xd9b0f5f9ce43dd5fU,
  0x574f6b4be4edcdf4U, 0x5d5f695a1fd0b203U, 0x592dc14db622f053U, 0xb83eeefd81a9cbb9U,
  0x3b6e6e2ac64a54c6U, 0x26094eba420617b8U, 0xc0423149cc46cde3U, 0xd7523acebec4bf4cU,
  0xa4e407e849c8add6U, 0xbf1ce2139c0a47d7U, 0x3adb9a0997cd1d0cU, 0x27d4c7f57fbd2bccU,
  0x4934de941d38f8adU, 0x152cc6f7fb395139U, 0x66adfaebbbbecb26U, 0x39f1b9a4d9a0e52cU,
  0x30250000257bU, 0x1ae000001b6aU, 0x2085ffffd390U, 0x6290000112aU,
  0xffffc8d90000234dU, 0x339a00002962U, 0x2dac0000032eU, 0x1d6bffffc5c1U,
  0x7c33b93acff2b10eU, 0x2302fbaba3e04b85U, 0x582657fc383cfac2U, 0xe54e5d815bffab10U,
  0x705630936809bfe0U, 0x2ea167252c34da94U, 0xd249081c9e5fb10U, 0x6c5653f8a03df068U,
  0xaf2327eab03f49e3U, 0xe6c560a8bc78e162U, 0xe49315bded41e0dfU, 0xe2f66cb33a16a64eU,
  0xf73d53d4ace888dbU, 0xb1bf98ba4b8f533dU, 0x49f71342280ec52eU, 0x81adcfd011961a3eU,
  0x9e53f7e401fc8e4cU, 0xc0f2d368e0cca0e0U, 0xda1584bddba408a4U, 0x5d62032ff73f10bbU,
  0xf06b20d1beb4a20fU, 0x7fa517dac57e76deU, 0xdcaff208621a0f02U, 0x316021665a772715U,
  0xfd692ef8cd8aa242U, 0x50fb61fd3deeca1dU, 0xe0cbf231414efe6bU, 0xcd22b50c9b9d9262U,
  0x8739377691d20194U, 0x32854581ce61ccfbU, 0x2c9b60feb1b2caa5U, 0xc8422b48e7c5394aU,
  0x11d008cb2303c7a9U, 0x567f745f46200d5bU, 0x95a950203b2cd366U, 0xf31772ea21b4d314U,
  0x5b09f595a31aa61dU, 0xf48ac3fd59291a3fU, 0x87fb921e14b83a51U, 0x10de8c49bd27defdU,
  0x20cdfe30eb03a6e4U, 0x7fc4f918316c0033U, 0xbbd8fa99cdf31499U, 0x5a050c728a2c6c98U,
  0x432e732539041325U, 0xfa2d183d5038f922U, 0x27a8b2c8b384579U, 0xcdf2a1b6c27f5a94U,
  0x38d781b9a2371820U, 0xf744e13c1491041cU, 0x873a44560e35c64fU, 0x92e3d929fdae6927U,
  0xd9df6159bbf7598aU, 0x54f3b82643901f08U, 0x25403a24e54d81beU, 0x951de7cdfe34f8fcU,
  0x39cbc0a65d1e90d3U, 0xc505595837205111U, 0x3800c3d051dc1ff5U, 0xa10d00e713cb3a9bU,
  0xe2405ab67137a6e8U, 0xc29e4f269f8ccd39U, 0x75a238a3f20e5807U, 0x4824f5539f03d357U,
  0x243b81a5bc167822U, 0x5e9c5644d7280911U, 0x4420130b16c42766U, 0xeb231fb044c2e2b5U,
  0xce63cf9adca6d3eU, 0xf203ef47765ec247U, 0xe61744bdba4a7fdbU, 0x5f47d99d1968ee9fU,
  0xdfd4514859ea5abfU, 0x48dac5c1c8190eebU, 0xbef5e455129a7bf1U, 0x7fbfd1333c49e3faU,
  0x1156e72828ae5bfbU, 0xcdd89ec3bbd320d6U, 0x7f3fd818bd4837f0U, 0xe2baa39ee80065ebU,
  0x51c9e7446be03603U, 0x115e40de42f45aa3U, 0xb75cae32e118f136U, 0x38495606ec730facU,
  0xd0c7d5fae9cde7c5U, 0x3bef033a24e54920U, 0x99df121245e35be0U, 0xee5cbb18603a29dfU,
  0x601ef8bf819faad9U, 0x2a1ea173aa09e453U, 0xbb0c0da310e80074U, 0x6343d5a9101d7caaU,
  0x3234d69a8d9d3e13U, 0x89acf2e9b04edf3eU, 0xa7219405ac9df27dU, 0xd5a6b27581ecb25eU,
  0xfffffe0cfffff498U, 0xffffe78300002c02U, 0xffffecf70000090dU, 0xffffec77000006beU,
  0xae60000060aU, 0xffffe6e5fffff608U, 0xffffe3adfffffb6aU, 0x21ac00000243U,
  0x54a7de68af71910eU, 0x4fb5eb0181c8bab3U, 0x181db51b5ca07fd3U, 0xfb4f5464ef2fbbc5U,
  0xf28128cdb31db319U, 0x1d0eeb325e60cacfU, 0x9bf7b21f20bf363aU, 0xd03c66263981c2cfU,
  0x9b8c092477dddfb8U, 0xb12f811e4e66ebe5U, 0x8fcfb3c59a433137U, 0x81c1d78b721bd3f0U,
  0x5c54f18dc67f810dU, 0x5bd286e7aacc42bfU, 0xbd0f8149cf685824U, 0x7047a0446a27e426U,
  0xb908fd2a38a125dbU, 0x54420d427fa90678U, 0xae2ef48ff63873f0U, 0x7be83e22267f2eacU,
  0x7f36b5e1e1b712e2U, 0x4f5bf75e71d50fc8U, 0x8b3cbd2a818bdf23U, 0xf7f998bdbcbf3498U,
  0x81291b90222f37baU, 0x41a75ff0d01c8994U, 0xbfbb813bdba759d9U, 0x60d8ec0cab34cac4U,
  0x558c89ec0b837f49U, 0xd725489a553d2a3eU, 0xbf98a22620736bf1U, 0x7e5127a5b024307fU,
  0x56a594667fcc1b4eU, 0x70feadceffd278b6U, 0xe500fe1b93985ca6U, 0x71890c8135e88e8bU,
  0xbe7fb9c514cf40d4U, 0xadfbae62bebd97c1U, 0x35ac0d2eded9cd99U, 0x7f0694f466d2c270U,
  0xaf60074d817802e0U, 0x73415127954dfeb7U, 0xf15bffb17f3ec6c6U, 0x72e66b2ff6ec40ebU,
  0x2e59885e4a9f4230U, 0x441bcbd77f182054U, 0x5f0b9f1cf0b212e5U, 0x891a4e2a9ffef881U,
  0x44b8811cd2f5a825U, 0x432a4022ce0f0e51U, 0xe9b5c13e7f54d147U, 0x12ae588d6e9d3c18U,
  0xb8fc75eb9407e7b8U, 0xff5d37dadeae8106U, 0xe8314c48e257cc08U, 0x38df81ada725d01cU,
  0xc10c6433d61f9d38U, 0x81c3c9a566ba5401U, 0xaf58ce2fefe1819fU, 0xcce07d293c6a00f8U,
  0xe64d6ebc5ccd5e34U, 0xb25be77f25b5c894U, 0x85049f375fc79781U, 0x4fdd332f16617a29U,
  0xe7e5de7fac063f2dU, 0x6b4cee5e9b08c825U, 0x7f2c060a082a02bcU, 0x40d60bfe0f320ddU,
  0x16b7fa11a7f4bb7fU, 0xbcfa6eed4fe9412eU, 0x8120b4d4f1ad89fcU, 0x7b7e973efddd6d9fU,
  0x84879b63d2273610U, 0x9668397b0b484481U, 0x5a20e96633126a9fU, 0x8196c5f41f1eb362U,
  0xbdd08124daeecbd0U, 0xc4c200f627502ae4U, 0xf945f5fed8ed6616U, 0x743587060e0981eaU,
  0xd3f3caa9d8134db5U, 0xf78a747ffe7b5b22U, 0x1a5de8f70b13b8d2U, 0xec182349253f811aU,
  0x3309429f2516169fU, 0xf1cea47f5864db2bU, 0x896ac181c4442963U, 0xe912ccee6dc0fe52U,
  0xbdcbc12b0c758e7fU, 0xc288880dc68cd8a0U, 0x78b1bf9445c9f3bcU, 0x29f99c7f3be79e1dU,
  0x6f09906cdc85e1fbU, 0x2f577fa83f119cb9U, 0x759e45f47a55e729U, 0x275f56c2c86b981U,
  0xfe101710147fb316U, 0xab9f3216b78f4983U, 0x43b58e47a2281e2U, 0xa2de55c2a1ca7536U,
  0xc0bcec8417f27d0U, 0x76db668f17dcc7aeU, 0xd1a6108120af2e43U, 0x17d0c80ec1773c93U,
  0x91957feaa2a4771fU, 0x26b4a7a006310d47U, 0x16813800d9e890eaU, 0xffeb7083b86e5c0eU,
  0x2e65dbef6299c41fU, 0xabe0f57f32a32336U, 0x620b5e5df5073902U, 0xf693b64b9fa0de81U,
  0xe39582f2d8b9cd81U, 0x6865a13501292fb3U, 0xa138be81ddb1886fU, 0x34b99b908b3c9e58U,
  0xcbaeb785c737a9b8U, 0x7f1a6a4ae1a5a1fcU, 0x3c7fbef94d50cef2U, 0x605f7f14e275d510U,
  0xf758d2592e510851U, 0xd0d7e85581a485a2U, 0xbcef483f98a4ada0U, 0x84081bbe3f0ba12U,
  0x51b620e505901b3fU, 0x8da2d00ac24a8108U, 0x8144aebb4463503fU, 0x41f13eb8f2cbc4b7U,
  0xfffff5d6000010a6U, 0x5b900000327U, 0x13290000065cU, 0xffffe9e200000925U,
  0xfffff0ccffffed30U, 0x2449fffff2fcU, 0x104300000cc1U, 0xffffef76fffffbe6U,
  0x153bfffff964U, 0xfffffe6d000010d5U, 0xffffec74fffff5b5U, 0xf0fffffe961U,
  0xfffff71efffffd3cU, 0x3b400000e7eU, 0x6f000006c0U, 0xfffffa17fffff708U,
  0xfffff8adfffff812U, 0xc07fffff9f1U, 0xfffffb0dffffff0aU, 0xffffffc100000d50U,
  0xfffff92ffffff56dU, 0xfffffcdefffff398U, 0x52b00001c22U, 0xfffff5f700000291U,
  0x1fc00000a21U, 0xd5dfffffd42U, 0x86500000b30U, 0x701fffffa55U,
  0x1eba00000dabU, 0xffffe65c00001064U, 0x15a6000007f3U, 0xfffffefc000013efU,
  0xc437135171258e34U, 0xe5991fb9398e4e95U, 0x4b8146dccd724213U, 0xc5b204bc63d910e4U,
  0x2acfdcfa34193cdaU, 0x2cedb1f82491d909U, 0xcbf9264b3f0a539aU, 0x100dc6e343d1f050U,
  0xf4cfe8f8133d3d13U, 0xf5e8d00fe5e353b6U, 0xbec60a3fc002eff5U, 0xaa2e33b8c537e6d9U,
  0x5cf51e165c5bcdc9U, 0xd5d6d600481e8132U, 0xe530f7e1b716ec0aU, 0xee4a16d42de2de27U,
  0xa03e413cd02b30cU, 0xb24705e7ec0dd645U, 0x9d71fa7f063e4111U, 0x34a6fbc2161152e4U,
  0xf35630a6e5d80ad6U, 0x3bbe5cb915b6f193U, 0x1cda9a2fcdf2eaeeU, 0x43e0fb5a3c54d11bU,
  0x2337f0e55a4e412cU, 0xaabe326ab80309a9U, 0xab1f3339273e1016U, 0x155b03c9cda8b844U,
  0xc453de3abc0ce289U, 0x40dfc4ada3e69613U, 0x3c2a81b3a2cddf64U, 0x315200cdaa0dca0aU,
  0xe6939043ebfd02ffU, 0x4db7fa0af30754d9U, 0xb0e61a5c81a99c4cU, 0xa6ac4df9e6d9d2a5U,
  0x2df3d61dae88f3U, 0xce861d63a94ca18U, 0x4fe412f3a96ecc47U, 0x5a51acc518e7afadU,
  0xc4d5a1a20c1ec681U, 0x6928d8e55e3e0e54U, 0x2f0b77e24cc24a9eU, 0x519e2193442e43bcU,
  0x36e2071d01b56f1eU, 0xd986e73ccc2b5ca8U, 0xc3f455e309f5a7U, 0x1340b0f8f3735a37U,
  0xd3b548cb0939330fU, 0xf00945dbdee53211U, 0xafd65409a9274bd5U, 0x12e5ff0cfb00dec7U,
  0x481dd520f242f610U, 0x5b3915e9454267baU, 0xafc0e4a2dd3caff3U, 0xc715587fae32cce1U,
  0x14bf9401d23be39cU, 0x54284fdcb626ceb9U, 0xf15329753a6ff2acU, 0xfeceff6fc2bdda3eU,
  0x7fe6325dc9c25b14U, 0x57fd612a25c11f0eU, 0xde0ead2d285211a9U, 0xa7f718a9b045f8ceU,
  0xe5cbf5f1ad4e58faU, 0x48b99c7f53c0443dU, 0x6a1652abc3ffe772U, 0x98c654cc15e4b027U,
  0x4b3fdce1391db398U, 0x16a39e2dce8c39U, 0xc370ce466e063a48U, 0x453c33903a1246cdU,
  0xe8e2e2960fff55a2U, 0xfbde2849dca93553U, 0x2bd241d5d3785d2dU, 0xea170c6104610e45U,
  0xfb3a11f3d104c17fU, 0x4be2e2bbbcd7ac8U, 0x4fcbd6a7f73808d5U, 0xe4ce4936385a1bb0U,
  0xed2c5edf7f01bf39U, 0xb0c95006e5231308U, 0x22e0ec0f911121fU, 0xc2c5bd280351513bU,
  0xd61dcb3306363125U, 0xe85d40d0c2fd622cU, 0x39e3c3d4a2a12eb9U, 0xdacfc14f43fc27d5U,
  0xf7c012e3613418d5U, 0xddc5e93c282fca28U, 0xd13436091b4afa0aU, 0x16c9f10114e13743U,
  0xd67fea15ed11f1f5U, 0x173e4708f8dd7a17U, 0xd8df0dc9d7c3d63bU, 0xd8e314ecccb6282aU,
  0x391ce332061042f0U, 0x31d72b1ec930db20U, 0xd57bcdcd85db2ee0U, 0xe62a4a4328e59f81U,
  0x610747feb9881d31U, 0xc6c106ecb4f358baU, 0xa05f74335ed36e3U, 0x3cbec5e54eb5a8f5U,
  0x1a09278decfe62c2U, 0x9ebd81a843eb51fcU, 0xe9caca8fa5bc474dU, 0x1e421710aea7d5eaU,
  0x459f98ab5844aea3U, 0xca2de3cbaa6db2aeU, 0xf4ab3950100516e1U, 0x4ad5f9bab1d10f44U,
  0xdf44eeedcf13509dU, 0xa7a1a25bb54a5a35U, 0xa747f8fc59c4cbfdU, 0xfc11e14ed921b8e2U,
  0x392d10c30306014dU, 0xd072814c11021d31U, 0xc2a1fc1cf55325eeU, 0x3709633c35c58b00U,
  0x2f8cc5afbed32b9fU, 0xe9a38ffb4be5e38U, 0xb61250904bc3471aU, 0x3b03c6dd0f94b8f7U,
  0x11d74d48f581d0fcU, 0x4148bed2e1af11b1U, 0x42b1c3d1020fc93dU, 0xfea25d0ce8d1d547U,
  0x8101b839ac0da2f5U, 0xbd2ea0d92bd6cf4cU, 0x22a6414a202c2eb0U, 0x18a629bffd2b1b4aU,
  0xe1189d54afdbbe4dU, 0x9539c23a1955b417U, 0x10b919c01465cbeaU, 0x281b069ea3d1f315U,
  0x13329f5b0f2134ffU, 0x12b8c7f9b21037fdU, 0xf7e6c6acf9308c9eU, 0x940a2606cd3b0de8U,
  0xb0ae97235ce25199U, 0x934bcf208b4fb6bcU, 0xf19ed420b83d4a24U, 0x46c4de06fd4f81c4U,
  0x93e49fc0bc290841U, 0x15d48534cc22c533U, 0xe5391e9402d2f640U, 0x30d801f91b1b4c9fU,
  0x5334357fafc3b53bU, 0xe51704b5d30baf3dU, 0x3ece51f62cc7a839U, 0xa63355283da5a3b6U,
  0xc22e9b54efda3dd4U, 0x40d2907ff639ba36U, 0xeae3e650b048b59cU, 0x400e92e8b98f84d6U,
  0xc8fe3a9b2ef212a5U, 0x6140b9fe0240941aU, 0xe699f947819124d9U, 0x6825e3584ea14ac9U,
  0xaa74920122b7ff8U, 0xbe42b04ce901affeU, 0xa3153e123b2dd942U, 0x13c129dda5d3ad3dU,
  0x538badb5017d3ccU, 0x44f0f414b2d6e045U, 0x4cece9093eb6162fU, 0xb350f8e1311c3817U,
  0x9dcc0ee50a441026U, 0xcf380df1518fe122U, 0xfbc613d894f1a748U, 0xff00bcaa32c2c789U,
  0xecbac33dab140ee3U, 0x32fafafe028eee25U, 0xba0f3ee4c50c8189U, 0xf158e011bb090239U,
  0x3148f093ffb2f3faU, 0x9ff1b1d222efe854U, 0x36f58f340ff616acU, 0x422adb9670f19637U,
  0xab3f871ca04638bbU, 0x207fdd5007172f07U, 0x492d0d3aebb4cafbU, 0x3803af8e45146a1bU,
  0x3843cbb6cece190fU, 0xadf1d98e9d1ffd81U, 0x3210cf214f2fc6ceU, 0xcdefdc0734e5d146U,
  0xed2b52464359118dU, 0xcae42973f8f35bf2U, 0x2ac30f321f1fcfbfU, 0xf017c624c5975b2fU,
  0xa823a41f1c2fc3ebU, 0xdb00de01ca95ae23U, 0x40afe207c710c3f5U, 0x60b1401fdc513446U,
  0x9e1ebcd0e65db9e4U, 0x3d2926db1e117f17U, 0x4509e2b7e1bc0ac2U, 0xdb5b6e129f5f5aaU,
  0xe525e7e2d3c4f709U, 0xdf2cc4d817e7d200U, 0xc92dc5fabde12bf7U, 0x2ac0702352e3ce7U,
  0x936f8c20fbb7fd6U, 0xdaf7ffcdd1f606cbU, 0x163ec229330f3608U, 0xee3233e249df2721U,
  0xb9a2a93188315f0cU, 0xf3a8154e3e364152U, 0xb01d37f1c5c6f8ecU, 0x1baf3ba0affb0c3U,
  0xe5cf69385f1d1de7U, 0x41f91413d9e49f20U, 0xfd6328c9d0e3db13U, 0x8906117f2a4ba3c6U,
  0xfab34aba4f2e9b1U, 0x993f17283b93fabeU, 0x43636c7d0a4aa14cU, 0x435bf0e173ab64dU,
  0xdeb4da7f5bb31de6U, 0xcff58cfe1d2a11a9U, 0xd401a835dcffd9f2U, 0x6eeffe9def96e220U,
  0xdae35c0b7af93b6bU, 0xa9f1af3381a357d5U, 0x5283174cbaaec722U, 0xf3541ee60c011e44U,
  0x3e1d61a4019e7b9aU, 0x8b7ebdc1d81cf954U, 0x41cec80aaf19edd9U, 0x6db60d766c016c1eU,
  0x5b53cb2af3c2d35fU, 0xda28c8b9e2ad2444U, 0x94bbefa92851add5U, 0x29ad6e3a10e9ca35U,
  0xa3d9e804d0dee7e0U, 0xe27f1dbe1fd87924U, 0x20d09b87edc617b2U, 0xaae7445c4306014aU,
  0x4fb7e64c0cd13f0bU, 0x39a481e2b9feeaedU, 0xaaaa153d61fa2bd0U, 0x1849cdd221d355bdU,
  0x1de8bd18c5fa29ecU, 0x43cebf16ad49b4f5U, 0xed4df95d48cbd444U, 0x3da44b154a13d70fU,
  0xb50ddbac7c2b48bdU, 0xd613f61638d6fe35U, 0xb6f03aeaef41dc3bU, 0xe2dfb7143a4ceb20U,
  0x176d2f2dfc1b414aU, 0x277ff3fee3197fabU, 0xfb29bad8cc0b0d42U, 0xe0050230dbf81cf6U,
  0xe58d2ada7cdc7f13U, 0x1a0525fdc7e1b5ecU, 0xf7b52bfaf1e22e56U, 0x1a5cb70abd06c02fU,
  0xfdf8db1cbc2c6357U, 0x50009f80ddd2821U, 0x45ad9ed9e80ef7b8U, 0x12ea2be3dd4662a5U,
  0xc627b5e3c6dde42dU, 0xc068dd2356b50105U, 0xc16eb8d123ff5ef1U, 0xf0b33a3966408105U,
  0xd70da82f2751d622U, 0xa926fe07e206cdc7U, 0x2db612c6303a5848U, 0x15bbfef04c121215U,
  0x814fcb4d08b5ec42U, 0x19ed3ba8fa0bfc31U, 0xa6a4df6226c4facfU, 0x36d82eaffe559e0fU,
  0x4826e9d1e995edfeU, 0xa0b409cfc21fcc98U, 0x6824e7269a594444U, 0xc6404a45d23bbd26U,
  0xd929304e56124dc2U, 0xdbcdbd40cfe7cee1U, 0xaa1e46f35a4431d8U, 0x17e2af1a57f1e12dU,
  0x4b4cd4d13024dfcaU, 0x3e7fc03bba28f80cU, 0xea411e4044bfe717U, 0xe6b0afe5c71937a3U,
  0xb5027f406218fa42U, 0xc631baa063d0b58dU, 0xb834bbf9eceea82fU, 0xc9301c406262aad4U,
  0x342b31efea4a4f16U, 0xcd0e43a3e1a241abU, 0xf43806dab8ec1dd1U, 0xc216f9011ba37da1U,
  0x1d0be2775f1cb134U, 0xd9f36cf79c17b868U, 0x336d05555826e01dU, 0xf919a40255967f3aU,
  0x596f622376c06635U, 0xefd1a0d6bb2de14bU, 0x6eae0fa509ceffa8U, 0x8d5438fb543e2905U,
  0x32b5a943013850c7U, 0x3f0f4570cf4807b5U, 0xc2c5e84f84ff2e60U, 0xb110bf1d29e33359U,
  0x14e8054a2bce407fU, 0x88ada2acb54529c3U, 0x8092ee93442221aU, 0x57312893515245a7U,
  0x172cd705fd1935e6U, 0xe4f427ddb3b809ddU, 0xbe1dc6fcc3c6dacbU, 0x473b19c8faaef023U,
  0xe77f02a3271cc2dcU, 0xdfd8c614f7124b8fU, 0x33fb07e4acca1312U, 0xe3212cf4eb091f10U,
  0xcdeb580105224ce0U, 0x1b2dd23207eb2cb0U, 0x2da8c677f0dea619U, 0x4dddb7f012646e8U,
  0x2a6c184f0c362ac3U, 0xd326c1e0bef50613U, 0x1cc0f1e7d6efbaf5U, 0xcfaafdecaed335c1U,
  0x37a18ccfd7cdd056U, 0xaf533d8155c3d937U, 0xabe9bcffdbad2cbU, 0x1b9db431242dea4aU,
  0x56005e31ed2f2cf4U, 0x30f30e8afbe728c4U, 0xb8e7a2e0040f940aU, 0xfcd3da1bbdb00ca9U,
  0xabcb00c7212a0754U, 0x95be4ea615ade950U, 0xff7d07d3300bcdb5U, 0xf3b9f94e06e7816eU,
  0xf00526d5cd1af1f8U, 0x54942451f745c01cU, 0x4ac341e60fe7e328U, 0x42a7a70a433aeb92U,
  0xa81600e10363ec06U, 0xb80cbac6e89f4a19U, 0x4a9824e122df2db9U, 0xc52402ac353d8cb6U,
  0x571eb2524edc1991U, 0x605b2533cffb1bfcU, 0x657f19d8ed4a43f3U, 0xf0eae3ef9833b440U,
  0x11139047f0811f42U, 0xb0f93bef25f82ad0U, 0xc767b9fcb3329bc7U, 0x35db645722b81397U,
  0xb613b24184b29933U, 0xb42ea94bf9319cfU, 0x5acfbf3548a71724U, 0x296907fd0230ed0cU,
  0x28cc9333181cdcc4U, 0x12ab356037b70e62U, 0x9ab696c16cac3a3U, 0x422e28133b6338fcU,
  0x3f6cad413ddcabafU, 0x57ff6f30b2b43089U, 0x48c3ebbe26aed605U, 0xedbb302b3811ea7U,
  0xc0a9e14f4f07e855U, 0x3259a8e626ae37d0U, 0x8de3f26a040fe1b9U, 0x500d1f491e4d44ddU,
  0x247a1265812cade8U, 0xdcaa5b1cecdba91fU, 0xced4cb62538d99edU, 0x64a34cfc62d82026U,
  0x9febe9b9fe7992cbU, 0xdabd186d5b05210fU, 0xf4bf524009ae3b30U, 0xf0aa33cdd7dd2036U,
  0xa45214b8d0ed2c0bU, 0x2e7ffe54150fcf2eU, 0xb12c381b37bb65fdU, 0xc4bff3c065f5332fU,
  0xc0ada7ad413ed1cbU, 0xfc14971e1e3e0c6fU, 0x3aa9bb6b27bd1260U, 0x31bb5019094be8a3U,
  0x530d1734ff512bdbU, 0xbd07d6baefe37f47U, 0x63c1b01208d0d0cdU, 0x24f9aef35eb7234aU,
  0x35f643fa52482711U, 0x273b2708c5abf0a1U, 0xb4d9aaee3f4efa90U, 0xd703b518a267e0d4U,
  0xc56b9dca372acf47U, 0x1d0cbce5f66c2874U, 0x6650be7fef07bcf9U, 0xa45edeb5b2bf9ca0U,
  0xc037c85766306ee8U, 0xb84b007fe4d7df1cU, 0x1602bccb0657d2d8U, 0x2230e55decc9cd1aU,
  0x8f51a3b2a2f71baU, 0x141cc2a1202f2a1bU, 0xeebf30f948c5388bU, 0x22b8d0630d1bcdbfU,
  0x8ec9f0d5dae49d33U, 0xba208118af4031feU, 0x31dcda959fc95f94U, 0xb8cf873de6cb4e12U,
  0xeddf184a94cf2ff9U, 0xe5b4cc23074d4034U, 0x2a4a3ba78dd65003U, 0xa93992075410eddaU,
  0xd8009a40c3e3d0e8U, 0xf6b4b217f114c8e3U, 0xa560fde71e0a3481U, 0xcb3009a030f153caU,
  0xe8133a0df1ec2a47U, 0xe1f642d9dcaf57b1U, 0xc4ce2cf3bdd2270fU, 0xbee12b4835262746U,
  0xed5b8841c8e8b0fcU, 0x81c5a0c2f359d924U, 0x9b5ea00e1847e4c0U, 0xbd845c8ff033cab5U,
  0xf10fab47c2b7a50cU, 0xa3823482173658e7U, 0xb9615adbe46ca4f5U, 0xf70ce71d8c5fa1e7U,
  0xaa31d10b00f128f5U, 0xd23d1e6c03248a5U, 0x203eb0f7c0f7132aU, 0x5d5ef610d5d0310U,
  0xbf0217e3b99df854U, 0x5a4321e7d6b87f12U, 0xf6f8d746c1433705U, 0x284feed7cbafb44cU,
  0xc8f5e3df42ea3abcU, 0xc5fff60500ea320aU, 0xbad8193d4567323dU, 0x142de057d416ead8U,
  0x4706c91701d9f72cU, 0xe1e5cee508107fe7U, 0xf3dafbec1efbe1e5U, 0xc9c0be1623d1d60bU,
  0xd812a024b6bfdaecU, 0xf32836364c98df0aU, 0x25e5929f11401b14U, 0xad21ca98cfe9f381U,
  0x54ca3fc557489c3fU, 0x4f54b0d9de161602U, 0x6d0f35fcfb5682cfU, 0x309922b02765dc9bU,
  0x9a9bedeb2bfd4b16U, 0x50d36f260b5066cbU, 0xab57ec28dca147d1U, 0xf54a3c11006921bdU,
  0x3b3e1f4efee9119fU, 0x7f30d873242c00cdU, 0x7d374d40c5efc311U, 0x19b4591c4dec6f3fU,
  0xa0ffd076d2b463dU, 0x1d050c3227eeee01U, 0x2f2c44020df27e9U, 0xd311ccdce11de102U,
  0xcb7ffbcef6e510fdU, 0x3d44481acd0b24e6U, 0xdecef6fc09d123d3U, 0xd2bcde2bd839d331U,
  0x2a4dc4de284c78deU, 0x2cdfe40ea2cf070aU, 0xc7d94c3ce0e63117U, 0x3ed0183426f11390U,
  0x3af0eb7f08c0881dU, 0xe8c72ed51430d9b7U, 0x2e4f0b3bf5a015ecU, 0x3d02dc1c169c6d60U,
  0x48a48e4cd171ee8cU, 0xfec05a59088f28feU, 0x6dd87f476fbf1024U, 0xdc8f83c6a05acd61U,
  0x314824fdb0b76afaU, 0x6732a6324ba9fa20U, 0xb964efb5a1c08f63U, 0x2d24cdfb2bdd2d5eU,
  0xd6ff14add0fcbec3U, 0xf93c0335f9b914deU, 0xb8d2420c32efe47fU, 0x50ea0c6230b8d263U,
  0x3cc926ae293d03eaU, 0xf9fbc3c91d213a0eU, 0x46372f2a2d222f90U, 0x16bc3edc39283c0bU,
  0xb1421eb7813daecfU, 0xde1ea802a1993808U, 0x32f8e8bd3f2ffc15U, 0xafe30c24f5212e09U,
  0xd6f1f1e2e4ddec21U, 0x1adc1838c3123e1aU, 0x11391fba164825bbU, 0x1def3dcd0df3fdebU,
  0x1fb73300cecef525U, 0xbe43da4a19308829U, 0x955affbff935edbaU, 0xedfc914f0848493fU,
  0x4f1d9eaf17d5bfd0U, 0xfa5f8f11c24f300U, 0xef940ebd02b1e022U, 0x81aca845e8ab2253U,
  0xffffff87ffffffd9U, 0x3a000000f5U, 0xffffffe3ffffff7bU, 0x800000006U,
  0xd6ffffff54U, 0xc60000000aU, 0xffffffb2ffffffbaU, 0xfffffee70000005cU,
  0xffffff56ffffffc7U, 0xfffffef4fffffed5U, 0xfffffdee0000004fU, 0xffffffd4ffffff05U,
  0xffffffc5ffffff54U, 0xffffff55ffffff52U, 0xdffffffc8U, 0x22ffffff2dU,
  0xffffff9000000011U, 0x91fffffefaU, 0xffffffdf0000003bU, 0xd4ffffff62U,
  0xfffffecbffffffc1U, 0x59ffffff93U, 0x800000009dU, 0xfffffff3ffffff2aU,
  0x7e000000a1U, 0xcd00000046U, 0xffffff6900000045U, 0x1bffffffc3U,
  0xfffffef2ffffff77U, 0xffffffc7000000b2U, 0xfffffe5000000015U, 0xfffffe9c00000008U,
  0xf82d2cd5fc0de01cU, 0x20e2d7ea1a35faccU, 0xafd09472f17fa25U, 0x1c344f1a05e0e4e3U,
  0xfff711320ef44cfbU, 0x2a3006de4724d932U, 0xe31a1ff2bc0f1e0eU, 0x2d20100621f50411U,
  0xe52adec316f31d1eU, 0x42f0220d811e9faU, 0xf6110d35e120ef0dU, 0xee270304ec21ff18U,
  0xf516e7f2390517f6U, 0x48f616201019ed28U, 0x905eec2e2021becU, 0x14d8040c2f0528e4U,
  0xd770e0220cc9ca30U, 0xe9ff23d6043000e5U, 0xeaf4e40ff4faf9ceU, 0x2ed031101cffdc20U,
  0x2821e22f2e13352eU, 0x9f4df0a3ae6d814U, 0x6502f50f1d1421e7U, 0xe6cdeb26fdf61f06U,
  0x243cd30dfae118edU, 0xcafb17dfafe7d3daU, 0x32e4073f110e1215U, 0x15fd343222c8fd24U,
  0xdfe1d5191d08cb3bU, 0xe3e4e70a1b131d31U, 0x2016f0e0fa16fffaU, 0xbd2e4fe080e18f7U,
  0xdd360aefdae2f3edU, 0x532c0f19c616fdc6U, 0x220f15152b0723eaU, 0x23cd0e05ccfd380dU,
  0xfad7e121e2ff0202U, 0xfcdfcbdd1bf5f32dU, 0xcfaf8e41e18082dU, 0xf2e9e40cedf9f427U,
  0x72a20ec0315d809U, 0xd4b9fad63b001cdcU, 0x1be2e43402ff1e12U, 0x1ed3f8e624f3f0d9U,
  0x12d406d204231e32U, 0xc50e1514181f26ffU, 0x400d2a0bfaeeded4U, 0x21f908f642d1cc10U,
  0x40df8d00b25e1ffU, 0xde0415eb154efccfU, 0xe7cd1010db19eff0U, 0x481734c2ecf0f727U,
  0xf123fbfc21f0df36U, 0xe0f81f1f1ffc03efU, 0xcfee101ca15072bU, 0xf6fb1601d7161926U,
  0x1eea023bc8e30bfdU, 0xe9def32bd50510deU, 0x22f4ea3007d7d5d4U, 0xf0f4f60a01ed42ddU,
  0xd72b10eadb251b3bU, 0xdaf0f5f41ce9db16U, 0xf1f1d906e5f2ecf2U, 0x2609f50cd338e3e2U,
  0xb17d8d6073201ecU, 0xf842e3f90aeee4U, 0x22fde82d1d13cb09U, 0xfcc62708e4ec2127U,
  0xf7f7111fe6f0d924U, 0xd91ef2030629f534U, 0x54f7f5fcca210e1aU, 0xe8da09fc1913fe1fU,
  0x15dc11232210e11dU, 0x34f6e83abf1f01e8U, 0x3df1e1c0bf3e905U, 0xfbda2c181b0a26eeU,
  0xff13cc331ff7da2aU, 0x519040c211edf24U, 0x6d819c8f6f8f1d2U, 0x27c90dea10ded814U,
  0x56101a1bfd2d200eU, 0xade12f62f1a05edU, 0xfd0e25292ce307f3U, 0x14d81a0b12bb08faU,
  0x2812c3e00df4f2f1U, 0xe20737ff151ee405U, 0x1f09e8ebe8f2b935U, 0x3cdfeea0810efc7U,
  0x3b1cdfc531340cddU, 0x1eff1403624460c3U, 0xffe31f16de13e0d1U, 0x6ede19e2bcd4071cU,
  0xef9fde643deef12U, 0x19d7430a01d8d3f0U, 0x1534ecfa3ee0ebdbU, 0xd4f2d610be46d1e7U,
  0xff04ecda000de8c1U, 0xdee12802ebca3ae2U, 0xd2d405ff16ec27d0U, 0x2debdf9ec2aeafdU,
  0x16dbf3cce7148103U, 0xe9251c23b6180897U, 0x1cba0639ee08d9fdU, 0xf02ac2e0c0f6e7f1U,
  0xf5a4202dde1f1ed9U, 0x25dff811dd05e8ebU, 0xdad91011ededdd1dU, 0xf802bde700fe18ebU,
  0xecf1f630dc05f7f3U, 0xfcf90408fad5e688U, 0xdbe1f64626bd1bdcU, 0x1212ff14ef080025U,
  0x21e7e927211504d8U, 0xf718330626c3e522U, 0x21d0f8cb27181f31U, 0xaf0ff9f7eb0be62aU,
  0xeb1fd909ee14f7e7U, 0xd2f424e30fef0ee6U, 0xdbe7033bdf0e02feU, 0xf48dd1718e6e3f1U,
  0xd7ba04fdfd400fe2U, 0xededddf200b2f02U, 0xf206fa061e2c13e9U, 0x5fe17c7110c2102U,
  0xf207de0adae31fdfU, 0x26e5dce5221bdbe0U, 0x18e4ea0e1ef0e4cfU, 0xe80e0beb022cfdebU,
  0xcaf51cdf271802ecU, 0xdf04dee1ff09e723U, 0xdffc22e51cfcf2f5U, 0x2c0bb2f523dc0f15U,
  0x280fdefada100db0U, 0x80cebf6e1ed05c3U, 0xe1100820effccc19U, 0x2a1f0cd5d5d3e731U,
  0xbcab19f22a231702U, 0xe6f43ef6e2e2c909U, 0x102620f729f60bcfU, 0xa00080b1231dbf7U,
  0xf012000ef8fcf9f0U, 0xe6fbf83624ddd7d9U, 0x4af15ec4228fde3U, 0x2e4a0dfa0f1916efU,
  0xc91b06d7db17e80eU, 0xbebd4e8da00eee0U, 0x38da24e9ec14daecU, 0xc11501f808e30ecfU,
  0xe41502f5bfcfe8ecU, 0xff219e2e0f40deaU, 0xcb15e0eb3dfd01d2U, 0xf740f316f6d4f80aU,
  0xc0e92d03082df7dcU, 0xd320010dfd1902e4U, 0x2df6dce7f0ec1926U, 0x22305e9f00cfd09U,
  0x23ec23eaf8e2ecf8U, 0xdcf4e8d8da281d02U, 0x10506fdfd11e12cU, 0xf0240ad3d1b7032aU,
  0xebeaee2c09e31505U, 0xad2ef32d604eaf6U, 0x14d8ebf0fde4efebU, 0xecf0e4de20caf623U,
  0xfa0d18dce5060dceU, 0x90e2e2dfaead7f9U, 0xf3130d0531cc09dbU, 0x1d36fd24fff1cdf1U,
  0xf3260ec02503d5d7U, 0x122a20ea14dde505U, 0xf8fb180418fdff30U, 0xdc0cdc14e405f114U,
  0xfcf70804eb1205e8U, 0xdbf8d9f3f33721e4U, 0x1dcf22310cad9f2U, 0xda20f0fb0acf0f0dU,
  0xb3d7caedfdfcf002U, 0x3501c9f6f0c6d700U, 0x11cf06dc25e7e8edU, 0xd1e50c23dc01d01bU,
  0x1107f510c4e6f6e3U, 0x2edc932dcee28cfU, 0x1bcdf20bf129ea16U, 0xd2f71e021bfc0422U,
  0xfefbf2e206c7dac7U, 0x1ed420eabca3c23fU, 0xf344eb22130f0620U, 0xa42d22e2132210f1U,
  0xd809f6d0d2144acfU, 0xed04f318fcede926U, 0xaed3e22ee2dff5f1U, 0xe16fedbeeecd309U,
  0xfffffe5d00000174U, 0xb341d13bf05dcb4U, 0x525781b50fca02beU, 0x411f4dff51b83cc6U,
  0x2cda7d3c7217fccU, 0xb222dafdb73eb1c5U, 0x4434e92ffd533741U, 0xc11e3a2357ed7f11U,
  0x9b7f361c29ef46e2U, 0xf626225ae55bc23U, 0xebaeed340b08bfa3U, 0x1e7f391d4c2f2aebU,
  0x3de4537fd6a914fcU, 0xfb483fedc657f9ceU, 0xa062b7810e4c19d4U, 0xde9ad315a94cdb43U,
  0x2bbc4d1d6b01bfbfU, 0xe1ebfe1cf4b252c3U, 0x9f07cc897f74d85bU, 0x59b73931128e3019U,
  0xfa879a59dd7f469fU, 0x3728b67f28e742d0U, 0x2b319ce416ac916U, 0xeac30af2502db13aU,
  0x3d90aa20805e3c3U, 0x2a0bc7e9088107c6U, 0xd67ff8400628b900U, 0x523e5d36c83ee3c1U,
  0xb5f0c8b8f88164d5U, 0xc824d439dec734d4U, 0xe650fab0f4f31d44U, 0x6437fd3c13be00c2U,
  0x41d102d806e30e81U, 0x303edfd04f1881d6U, 0x5d4d9a05f8eb7d22U, 0xa1bee15b2152a984U,
  0x5637ea811ab4b9d6U, 0xe40d6156d23a673bU, 0x823835e041c54245U, 0x19f4bb7fe6af73beU,
  0x61d559decb5d3413U, 0xb9813051fac005f4U, 0xcb32a1e488184d39U, 0xea47c5c4a1eb0a5fU,
  0x309535fb263f0c81U, 0xe9e413f4f55f47f2U, 0x817f4dd1ad3ef8ccU, 0x5f6b99a1aed5ea7U,
  0x35d70fe6e30151b7U, 0x811fee9c1b06d710U, 0xd0389e2aa05b50d7U, 0xa33e5fca4f70ef1dU,
  0x5c142fdccce7816fU, 0xfe813d23e800d686U, 0x29dde4a84d131e24U, 0xccc2d1ecf57f9fa4U,
  0xc955bbfa3cf33d1cU, 0xece29167f0bd53bU, 0x9dc611ebe313af6U, 0x1181042260e1fe79U,
  0x2c03dbd2e70bfff7U, 0xe2ff3d3921abefc5U, 0x397f99632d5f4929U, 0x59db4b7f34550de7U,
  0x5c0ccad90a814f15U, 0xbbae4028f0002ac4U, 0xc72525811aed1017U, 0xd64617402ec9b8f2U,
  0x1e14d7ba1db12bbdU, 0x1a3cd14db0bc4226U, 0xcd9fc2f3c67f35fcU, 0xc420af7f2b32a5f5U,
  0x8f1baa2d33134c09U, 0x81a72f5bc7fa3068U, 0xd0f2e7eab638ad06U, 0xb7dbbfebbd0aa0b5U,
  0xb694e4aceae013a2U, 0x458c01e803e6cb7fU, 0xbf179b89f9115c5aU, 0x7fca03a52d81a4fcU,
  0xf34ab51316180cU, 0x84111caac5c99853U, 0x66ef293b1e1566c2U, 0x39810fc8d8ed5aa6U,
  0x4ec8077fd2d1f4f9U, 0x2046412cc56ae2daU, 0x41150cf34a02d0f7U, 0xe105e67febf7fce6U,
  0xd11b292cd514eda4U, 0x9b2535ca4d0397fU, 0x1dfda85f90123e48U, 0xa2ce26e932320689U,
  0x53ba19230ef0810bU, 0x28fd177fe6a00eaaU, 0xdb4143c8a63d900cU, 0xc88f3b20eec5054bU,
  0xd03913a5cbb4ecf6U, 0x5c8dcfcc3081e6ccU, 0xeb576438e5307e81U, 0x1c19e8bfb61e5b9U,
  0xebe915f1d781fe40U, 0xf7941feeeecefe9fU, 0x45dc81c3bc40c925U, 0x6a9995f1d9d3b8f9U,
  0xf6ce86d2f50e43c9U, 0x454a422a81400cc9U, 0xfc3c5517fb2d1e39U, 0x9b79de9c8a64377fU,
  0xda4b63c74f4690eeU, 0x59210e36039f4fbaU, 0x4a57f0bbdb5c9f2U, 0xda79c31b8581b73aU,
  0xbff4ac32ca3c6d4cU, 0xe89d5bf7f2c63b76U, 0xb0dcff81b00141e1U, 0x5184375b19d13ed1U,
  0x436923db061520eeU, 0xb7d5007fe6ef36cdU, 0xed0e8bcaf52d7ff5U, 0x154c26c319fde2aeU,
  0xa6070a81383736b7U, 0x7eef2624b910e513U, 0xa810942bca96bebaU, 0x4235f9b5001211d0U,
  0xf73181ac0621bb3fU, 0xbe7f5ed631f85f4fU, 0x1f04d5e604a3e129U, 0xc9e72fdb047f30adU,
  0x3b5d94c403edc032U, 0x4703c44e3c4ce830U, 0xb3cbc2cb517fa5b8U, 0xf381e6545df4df36U,
  0x1ad5b4c0733e9c47U, 0xc5da22e8fc9d7932U, 0xa5bd15453f257f5aU, 0x400589e39d4c45a6U,
  0xffd5d70df9813eedU, 0x4d8db7bdd9ab42d0U, 0xd59cf00ac26df42aU, 0xc14e74aef27eb617U,
  0x1f81f1167f0e910fU, 0x26444dc6e3e3df9U, 0x6387f2182c23dda1U, 0x2cfe7ffaeadbd7cdU,
  0xf525e7f0af91d343U, 0xfffffffe00000002U, 0x3fffffffcU, 0x100000002U,
  0xfffffffd00000001U, 0xfffffffefffffffcU, 0x100000000U, 0x100000000U,
  0x1fffffffeU, 0xfffffffcfffffffdU, 0xffffffff00000000U, 0x300000000U,
  0xfffffffc00000000U, 0xfffffffe00000000U, 0x5U, 0x2fffffffdU,
  0xffffffff00000000U, 0xfffffffeffffffffU, 0xfffffffe00000002U, 0xfffffffefffffffeU,
  0xfffffffe00000002U, 0x200000002U, 0x2fffffffeU, 0x1U,
  0xfffffffd00000002U, 0x2fffffffdU, 0x4U, 0xfffffffefffffffdU,
  0xfffffffd00000001U, 0xffffffff00000001U, 0x2fffffffdU, 0xfffffffdfffffffeU,
  0xfffffffffffffffaU, 0x1050db54341142c6U, 0x5bca7f0a5366d163U, 0xbf24f4d95449d86dU,
  0xfdcb6104d79b22adU, 0x8fe0a19e62d32363U, 0xc406c61ab7452f05U, 0xbeb8a7dfaf5f7f67U,
  0x607402982e52f431U, 0x6b34812e3926980bU, 0x3e9129ff51d83ae9U, 0xf390d2cca9384434U,
  0x54d8ee1ce4101b25U, 0x299c50f7ed93e337U, 0xf01cc0ee97257b4fU, 0xc2bca3bdb942f028U,
  0x1cb9944abe7c206aU, 0x17bd8d90ef5ef5adU, 0x5ffed99bbde03a93U, 0x5201ef1ebe040881U,
  0x97602a3453ea210cU, 0xf88e5501dc0233adU, 0xfeff420aa9bf84d3U, 0x43dc93b7b7e4a696U,
  0xd63d9992a5b8bccdU, 0x128aefeb16adec1aU, 0x4f5e2deabd0d142fU, 0x9d61a7e8d61942eaU,
  0xc13ed07332226b7U, 0x47f3b3f0dd58b80aU, 0xd84c120b17b7c4faU, 0x4aecfc4d2eeaf7f0U,
  0xbbb89ad5b964e981U, 0xa8b6ad036bbd1720U, 0xc84a85c4f60e6926U, 0xe731542e60cd41efU,
  0x6ca371f169b6abd8U, 0xec8f913f099186eU, 0x7ba8c57829a6a750U, 0x3135a0ddc77fdc50U,
  0x7434711209b24a4fU, 0xf0496e5eadfabd6bU, 0xc6b998c1d0103517U, 0x38bb2088ffa8e65cU,
  0x2e58a415d471d063U, 0xd93823bf5a6e4622U, 0x78cef2fd81de1302U, 0xdab6d8f19040e5fU,
  0x770a169af5f40ef6U, 0xd40a0c582744aa8cU, 0x23e5df81908c32b4U, 0xb13c14b4bb06da12U,
  0x65cadf97ed12f061U, 0x6c34aaf7ff19526eU, 0x9ed69666dff2cff4U, 0xfce096e2574b3cdfU,
  0xb80bec94f66a40eaU, 0xb01d2cdc12c30398U, 0xd7bd2ee03ab39f53U, 0x65c981549eb0dbe5U,
  0x2b26eca3e15822U, 0xefb6764e3faad5a9U, 0x33a135a2a70000c3U, 0x41055ffcb30fbfb9U,
  0x21a04fe3025f4f15U, 0xa20fe83e578d4c69U, 0x94d4cf465cdcfd5dU, 0x226a78a91090c1ecU,
  0xe64c04cbac8196bdU, 0xfa92c8bf9bf0153cU, 0x1b419d1ef1386dfaU, 0x5161962e451fc3ffU,
  0xa0ea1ff1b2e11e6fU, 0xa5263f9ae7371654U, 0x3b9f14051236c617U, 0x4de3c4afba03d19eU,
  0xd1efd26e81f1ee69U, 0xc4ae429befbdb8faU, 0x38b42f3a8aca2160U, 0x34cc379f0088e97eU,
  0xdf97a553cc70d134U, 0x5f1b19b8b0644bc7U, 0xbe100b40bc4360f5U, 0x57fea4512a70f081U,
  0xca62b179b76c02d0U, 0x2ab9f953cefb687bU, 0xa334b4e6f46fc645U, 0xb83bf00e1b41244aU,
  0x665a0ab62fd6a8beU, 0x942cea272e37889bU, 0x935aa111f92440b8U, 0xf430c8dd53c69236U,
  0x362667d2dc62f266U, 0x97cbe566a82e1662U, 0x7f3b6491feacfb17U, 0x5bc728b6c80c9d55U,
  0x2b4a875628bbabf6U, 0x9d3cd1fb0d5f1b65U, 0xfb3e71614c51deb5U, 0x7738fa751c5fb4e1U,
  0x4ea7fc9f319d89ebU, 0x4eff41f3c6c12438U, 0xe149f07c8142231bU, 0xa80aed27504cc34dU,
  0xf15d245a4a54d2d2U, 0xd52a3f5622152f29U, 0xc452ffea1e2113d9U, 0xd2ec2e3bdf241c81U,
  0x930444ee1fd7cfcaU, 0xcbcf47ce4f04c3bbU, 0xecf49357efd28abbU, 0xc8fc58ca341bd1d7U,
  0xa57a46291d8df8a7U, 0xcae047ad9bc8144aU, 0x3317bb3f2b442740U, 0x35be29ddceada72cU,
  0xf3d1e7638f66d7fU, 0x6c5457cea7035c31U, 0x244ea530d8e257a8U, 0x5b28b0d31fcbb8afU,
  0x303e0a56fe1ef82dU, 0x9bcba82413b1ed07U, 0x6109e6281fa87748U, 0xa7021ebf94abd563U,
  0x2cf9f9759a91271aU, 0x5262e3d481855e8dU, 0x92dcb3c831305adaU, 0x45c1c1411af881f6U,
  0x19bbbd3658179dd7U, 0xfffffd26fffff963U, 0xffffff8d0000003dU, 0xfffffbab00000009U,
  0x125fffffe03U, 0xffffffeb00000174U, 0xfffffe41fffffcfdU, 0x2cb0000004eU,
  0x3df00000022U, 0xee823fd6a246574bU, 0x8cdc915d9cda19b3U, 0x17225f60fff04b18U,
  0x13e674edae0dc99dU, 0xaa89814f4e0ffdf5U, 0xdbb22a67d821e205U, 0x91c1de5370f0a24U,
  0x1260ae6eb39e34ffU, 0xe2524df5bc467309U, 0x714203334f5de6c6U, 0xb28d2f20d081e732U,
  0xb4fbd540fc3d4a5aU, 0x1aff80012e629eaU, 0xaeb5df7fa977af07U, 0xf3efb74cc9f157cbU,
  0x12c6b6fdd3e8c411U, 0x91dc4baf1414e833U, 0xaf81fe1c3c349709U, 0x6818d0b949bf738U,
  0x2e1140f8599b1663U, 0xf5ed9fea18fd8a31U, 0xa0b4e07afb7c013U, 0xae8b61a9e13eb6b8U,
  0x25f33cc9033c984aU, 0x3c580db803d0c967U, 0xd2fb544bbc2dbaabU, 0x99db1dd6cfa63a49U,
  0x81e03f2dc926d857U, 0x2aec1d97a9fea7adU, 0xaf5ea067ad30548eU, 0x52abca0de7d3b181U,
  0xc61df9cedabffe3cU, 0x49674be5bb2ea5feU, 0x33d83c86e344c724U, 0x763f0f011073798U,
  0xc13bb928d59a4bf6U, 0xbf1da94a22999241U, 0x2ac334aab50696b3U, 0x43b451dd695c5938U,
  0x54af28b3d0d8816cU, 0x4f4b28b84c2c23eU, 0x7c169ad93b9546ebU, 0x4902cbe6d95d6381U,
  0x1d63fad6bf75ab2U, 0xbae7ebe8980415a8U, 0xc51b43a65cdc3d63U, 0xd6d596dfa51b3785U,
  0x89259014d571aa0U, 0xa63a0b201728145cU, 0xc31df26362f74346U, 0xfb26fff6e53fe8caU,
  0x23521af14a2869f0U, 0xe43094f376aa1aaaU, 0xb17f5b35d297a590U, 0x3ddf953ccc1035c3U,
  0x8ecf436add04c5dU, 0x4c395ad0ba63dcc9U, 0x560c40904907dacbU, 0xf20b15f69ed97f67U,
  0x5bd4f70a1562d861U, 0xda63b3c0e393cc59U, 0x26a5e625a41ecbd3U, 0xa66f930013d9ce72U,
  0x14d5167f2e140b8dU, 0x658f45c12965552dU, 0x354a1bce5906ad56U, 0x2c4f553792676770U,
  0x4ca65228d4ec1704U, 0x815ff53c57cee3caU, 0xa6b4f43d6bc45aacU, 0xe1b9881743f6c5a8U,
  0xb23b24f3f5f9a78dU, 0xf341e5e358e1efb6U, 0xd84f3ce2bff5e6daU, 0xa73fcecb09c3d801U,
  0xd6b6cdcaf3f6350dU, 0x22bed23fc0241d45U, 0x81a3350c29bb4b39U, 0x2b08137fd907f2d3U,
  0x5d0f58214c0ec7aeU, 0xaf5a41aa56968825U, 0x675f502e3fdee42bU, 0x3d1985cd2aa542ccU,
  0x10ce0cc58ed26cfbU, 0xcc4cdd9901c45ea8U, 0x5605d44713bc19a5U, 0x2601d3b41a7c1b9dU,
  0x35f0f8efb8d8c8faU, 0x81c8a474eebc37d8U, 0x8c073b6a5e10cf1dU, 0xdcc19ecc27e16045U,
  0xbf7a7f82dd50ff7U, 0xcb0e0b4581983828U, 0x3d38bf10e3333c2bU, 0xc172ffff6abe9e8U,
  0xab992038c536e144U, 0xfffff0bb000006cdU, 0xdee0000117fU, 0x9c50000096eU,
  0x44600000d3cU, 0xfffff499fffff3c8U, 0xfffffe8dfffffb81U, 0xfffff5f700000c76U,
  0x4bd000008a3U, 0x3502cf14287f2514U, 0x3d5de0ec5c4a1babU, 0xdb627a3a819f1261U,
  0x94f50364d02b1550U, 0x5ee94221bc51e9f2U, 0x65aa1c009f798198U, 0xeb162cff634e7f38U,
  0xf9202ee327fde3cfU, 0xa0ec9caaa081a85cU, 0xa15d18cf8b336e45U, 0xd9d11b917b0a55afU,
  0x81aced0e85a8f566U, 0xbd1e4c03df7f2049U, 0x346e299bdc7f75dU, 0xbaf586b0fff7f82U,
  0xb6ea74cb146032afU, 0x39c4ee3b2cec08b7U, 0x81b3943e63672215U, 0x1aca64d6c8280457U,
  0x4cdf91a681636b61U, 0x20439df8d8ed8117U, 0xa4d89ade420ca9c2U, 0x1e997209d40735cU,
  0x6fd058737ffbeb89U, 0x1a7320580d4395baU, 0xeeae7f4a14276addU, 0x18400e875a5481e8U,
  0xdb4952ae076a89f0U, 0xe85f1a50c14fef97U, 0xe72be781ffc8f446U, 0xfb747fd6a76b1b31U,
  0xc4f669fc5ea4d559U, 0x3a2d34515fae4711U, 0x81fe6b041c2e3f52U, 0xbe9cd5cd07fcc25U,
  0xb3f8f22dd4e92d25U, 0xb610cacefd71622U, 0xd67ffc10085c81cbU, 0x76d8ffacd281b2f1U,
  0xe70a1bd5cae540b2U, 0x61812c4d49ff6aeaU, 0xddc7d53b39422007U, 0x501d9a0354ca7e67U,
  0xcb7fa5d55707aa74U, 0x8144c7bb82d49273U, 0x6fc5bd274340a71bU, 0x8f6c3c81d6a181c9U,
  0x626bf839f5ad32aU, 0xc77f3fa60c3b5196U, 0xa8eba006cbce323aU, 0x60b02ce86abb8149U,
  0x6f7b45420e5b626U, 0x3b513c54defad70dU, 0x1cd97581ac9ccc83U, 0x179c44db0ad6cf81U,
  0xc7c55217b204084dU, 0xf737fd9981cc2516U, 0xee64f67737acbc5cU, 0x7fe11dc46a3d49ffU,
  0xaa051cb3bcc52a64U, 0xdfa94f2ea6cbdb7fU, 0xce23e38bb6695fc0U, 0xc0c2f31cd781d0faU,
  0xeaf42cf60bf1380bU, 0xf7f17a832ccfa31U, 0xe00fab084d21072fU, 0xdb7e0d11c14ad7aaU,
  0xfe81d739ddb1b660U, 0x382a0192acb1a5c4U, 0x11d78da35c8126e3U, 0x95f9e9dbd8d6d193U,
  0xd0c5ab7fb632affdU, 0xd5a832246232c2faU, 0x3c7facbc2b17dcd6U, 0x4eae36062e54387fU,
  0x21f3c05e0c36cfa8U, 0xafc550e4f30ec65U, 0xd20ac9449881cb2cU, 0xc581bbcbb36b21e0U,
  0xf194975c2dccbedU, 0x8d0d99bda8190abU, 0xf8e24d3c1d54c2dU, 0x810d97f83ab8cf3aU,
  0x5b552aeaef2d4f44U, 0xb8e2fffffe0757c5U, 0xfbfeb76cc2117081U, 0x22c3c9992ce82503U,
  0x2eaf27aef0bd7f54U, 0x8bac0cfb060e7f1fU, 0xbd12d25df2c6cf00U, 0x1ddf6b3c5781bae5U,
  0x56e70d4e0b5f40a9U, 0x29437f8e97572f89U, 0xdc6d729b90418d4U, 0x13826521f2e10e8cU,
  0x8ddac7ff60a75f1U, 0xeb9a634a64cba93eU, 0x7f6897ce7c44abb5U, 0x6809202b244dad72U,
  0x301a26f89581cafcU, 0xc3939b18da005af7U, 0x160db1acd47f2499U, 0xc2f900159f7482f6U,
  0xcd8158012ed1311bU, 0xf7a210126b008810U, 0xf24549c15e7feb4bU, 0x4d684cee96810014U,
  0xcaaaa31b309c4dcdU, 0xd70011681fe528f7U, 0xb9dbfbaf347f9bfeU, 0x49c4b9baf5e0697fU,
  0x35a9cc365f3cd722U, 0xfe33051a2f01d78eU, 0x2631cc20ed37fd7U, 0x510415b0510e9609U,
  0x340011814d2a4fa1U, 0xfb3b3856667f1c14U, 0x4cc0ec1116d7f006U, 0x2a537e0c057f6af5U,
  0x35d8b21ca43f06d0U, 0x8116bf88d11fed03U, 0x894c3ed74eb7c694U, 0xfd95fb260dd5dbfeU,
  0x12eeb7f4e0ac94dU, 0x41dc3b87fe6b699dU, 0x5a85181eef5d125U, 0xa797b0e9f669814fU,
  0xdcd91f134613718dU, 0xfffffa87fffff448U, 0xfffff4ae00000059U, 0x6b500000a9fU,
  0xfffffc91fffffa99U, 0xfffffc3300000058U, 0xfffff73c00000e21U, 0xffffffbcfffff5c2U,
  0xfffff5cf000001daU, 0xfffffd70fffff379U, 0xa51fffffdbcU, 0xfffff80efffff8bfU,
  0xd7d000004f4U, 0x5f000000acU, 0x6cf0000059bU, 0xfffffad1fffffe39U,
  0x85c000004eaU, 0x34cfffffb09U, 0xbc600000f14U, 0xfffff680fffffec7U,
  0x403fffffdc2U, 0xfffffc850000116aU, 0x20c00000018U, 0xfffffaa7000001bfU,
  0xffffff2affffffa4U, 0xfffffbb3fffffda5U, 0x46e000006efU, 0x5a6fffffb0cU,
  0xfffffad200000146U, 0xfffffef5fffffcc3U, 0xfffff3abfffff3c6U, 0xfffffd5400000bc2U,
  0x391000001d5U, 0xfd2cc9d8043a135fU, 0x2e4cd5de0a5becc3U, 0x56feee955f0d2160U,
  0xbd68bf3f5aadd002U, 0x94ef223fb9c36d45U, 0x1bba7f5fb4e7bfdfU, 0x2576d352f4c64742U,
  0x14fd34b2db3ee1c7U, 0x8d6cf2f607e068eaU, 0x8a9c3401216523aU, 0xa9ce81a79face3d2U,
  0xb62618e79ef06627U, 0x745ef18aeece70abU, 0x57cf61183c0d285cU, 0x516ad63e87c567b4U,
  0x96993eec859cae50U, 0xdf6332101a550307U, 0x4b5e70297fdb084fU, 0x706665ec6b0fcf42U,
  0x6625cbc2fb011fbaU, 0x64464194d3522719U, 0x48dbc2e74419f7a0U, 0xa4d2f6d5035d570eU,
  0x70d6684a9ca2bb04U, 0x74604a1d01537fe0U, 0xae3b31141356df5U, 0x3ecda8464ed41678U,
  0x1e4c252d0e9f3aU, 0x31cb69a18ff15550U, 0xdf9a7a4ae2731fc3U, 0x6fedafe524e9a362U,
  0xedc4c8fd36da60e8U, 0xcf04cde1444528deU, 0x5338aa6afd69a00U, 0x559fc80b3cee1b20U,
  0xd823ccdf7f031d0fU, 0x6d64cb820af89e8U, 0x37e69d85199a45c9U, 0x4dd0eebc65fd5335U,
  0x4161281ff1d7c955U, 0x5d039b3b98353e13U, 0xb68caf06965e3fc4U, 0x113ac6898f521129U,
  0x696e2336c35447a9U, 0x476dea3b5c444674U, 0xf0be0fa42bf899f7U, 0xb5a12edbb337deU,
  0xc6719c1c388188a4U, 0x2a3baff5b2263f2bU, 0xd7bc261b5fc2f126U, 0x4350415dc959141U,
  0x195be53a02bded55U, 0x3d0d66627e44cb3U, 0xbb272540cf75ec15U, 0xa92a45813139b139U,
  0xc4753c0ff0450322U, 0xd72a17df3aa9fc66U, 0x1f330d4a52497f8aU, 0x7cea8ebef4dd5dfU,
  0xbbafc36a65655bdcU, 0x85f201355cf3e9fU, 0xb9bea590fcdc97a6U, 0x1cab290261a73ee6U,
  0xa00769db0bef14e5U, 0x13a0de2cbebc2e42U, 0xd3383b5f0321f2bcU, 0x5814ac2bf8ab4179U,
  0xddc828f5cb3111beU, 0x9f3249b540cc4aaeU, 0xe89821dc49ab246fU, 0x5dcb135a450b4630U,
  0xee03b29f7f577d49U, 0x6f4cebf61c0c671bU, 0x89bc85733e009462U, 0xabc06594041333e1U,
  0xc6826cfd66961f5aU, 0xd3b1a7537b977f27U, 0x109eee04fae7c63aU, 0x4ac3b05ea76c5ed1U,
  0xe406dbd21915f244U, 0xcc008742e004f2fcU, 0x18e6f58e12bef299U, 0xba52bf0cc6529e2eU,
  0x162b254ea74bae6dU, 0x1acde78e0df7056cU, 0x98bdf85f1f8f19d7U, 0x796cbd38e56ccb0U,
  0xbfea34816509e451U, 0x8eae14c34d3a8122U, 0x652e57ca15b1ce73U, 0x9c3a39bf9de459aU,
  0x6f4d6ae8194ec8aaU, 0xe90d4062694141f3U, 0x9449d203906bc6a8U, 0x1f669235f3cea10bU,
  0x9573e1c74149587bU, 0x14c11f94e4c6ace3U, 0x4412d757a7d54666U, 0x73d5ff06a2f545c8U,
  0xd0efe0aed65e6828U, 0x4e93ad29b1cc66f9U, 0xad9b04de7f1e389bU, 0x4aa60518a7f2a1deU,
  0x25544b20384e14dfU, 0x20d1ab6f7f188c01U, 0x5bdd1e0a43a33ecdU, 0x53e093612e18e812U,
  0xab251dae64c9ede6U, 0xb23f251d8c254331U, 0xb240f9e3d0d4b232U, 0xc789aaaaeb734ab6U,
  0xf4482ae23ab96128U, 0xa77b7b334c2f19a5U, 0xabe1a8d32e018135U, 0x9c9969ab01ad4472U,
  0xefe453a872910baU, 0x72dceb35a83122abU, 0xbca4f5107183e063U, 0x1e7b97d09e8bd159U,
  0xd9d776d1af1f49dbU, 0x4163e7d444f70281U, 0x5f35e607cc8fd9f6U, 0x330d6df5da203804U,
  0x3e4601af5b94fa52U, 0xfa1b709afbfcc37eU, 0xcf592554d3f302e4U, 0xfd0cdb67f9ff4a7fU,
  0x5c0638789e31ab10U, 0xd3f0ccf942060252U, 0xdbecdad48ff4c318U, 0x6c099b1046e3faf7U,
  0x5a21a6052781c028U, 0x115e17d9ef3212abU, 0xacfbc2f3407e01eU, 0x26b67f04dea66000U,
  0x22ff1c36486100f0U, 0xa872b71f6c46f748U, 0x23e7260606afb1c8U, 0x36ed24289d55fa81U,
  0xec08f03d6549ddc0U, 0xc047e24e0a0540a2U, 0xc99f6c3cebe8df25U, 0xde19061b48c05244U,
  0x3f1ef30effed1d9cU, 0x7b023e464ed6734U, 0x4a6518bcf218ba0eU, 0xac21c435cb46d44cU,
  0xb2286fa81300e796U, 0x5ec1b1fa6e00a5bfU, 0xe67f66f8b2034c91U, 0x5bf6937424c76cd3U,
  0x8b3adcff1c6bf377U, 0xbb85e083bc44198eU, 0x5de8443a0fbf430fU, 0x7596cbd45c3fd142U,
  0x88eae377892d3f30U, 0x79bb1fa05e235a57U, 0x814d0dfd8640ebffU, 0x8fafe392be2a242U,
  0xaf170634eddd6b5dU, 0xefc1f629123734cfU, 0x59c12251def30937U, 0x504731e8cf414ad0U,
  0x115fc2493ba3d37fU, 0x33e5fc3fd539f5acU, 0x41e1d6f0f44d1961U, 0x412eaaa3f3f1730aU,
  0x61908d979f35ccfU, 0xdd97a5f9e9cfa5a8U, 0x9987b8176a915944U, 0x20f9b15091f8eb62U,
  0x3eb04018f98562c5U, 0xe3aa2b231516b5f8U, 0xbf35439b16b0132eU, 0x5303791506433825U,
  0xc0267ffbd9e618f5U, 0xd7097190cdf9378U, 0xb64ff9f6037f5255U, 0x74ec7d046dd08f69U,
  0xed8fafce1be4cbf0U, 0xb65b550ff7332ecdU, 0xfaacc53ffc17bb0dU, 0xbcec22e721d7892dU,
  0x35e3b560bf1abfa4U, 0x1d8d612b7201531fU, 0xb80860f1c9b6bae0U, 0xd61ee42e3f5141b9U,
  0xaf62ad4c700858d1U, 0x7b7c09abbabd3238U, 0xfdac58ebeddec1bcU, 0xb28b3bdef47fa1cfU,
  0x7af5be6393af652U, 0xa52ce4ca6caa0d29U, 0x7e3e2e2afb7cf596U, 0x1088d0add184a442U,
  0xc9649781fef347a5U, 0xb9a157d46a060b43U, 0x8ab74f4bf543ee83U, 0x9cce815769560bU,
  0xeaad0f8a37eaa5d2U, 0xf1e5e9c881b6a004U, 0xe21bde0ebee63dacU, 0xdc4a992cb62ed7f5U,
  0x9950ecd24da76333U, 0xb5e6e5c031546653U, 0xff3dd997e83c52e5U, 0x89b95d666ab2d9e4U,
  0x171ed5f9e468a815U, 0xd93615bb063efe60U, 0x9eab9e1741d24da1U, 0xda895a05e5f253afU,
  0xac21f7a458c2f966U, 0xd3413307a6a12442U, 0x619f9f5a481ebb6U, 0x23f3bba71cfb162cU,
  0x2fb6e3a40fa369aaU, 0x7fd09eea0be7648dU, 0xce524f59fa40a32cU, 0xfdb0aa051025b308U,
  0x2bb46e4cac602103U, 0xe04245650c31c4f3U, 0x537dd076cbc2da8U, 0x7bcac726a2fa5445U,
  0xf8ff47262df15b10U, 0xd3305828f5ea48a2U, 0x62423cc5aeabdbb8U, 0xd00b37680a1b7f51U,
  0x76fd4b304b0476baU, 0x2e31e3e1dc9fabb6U, 0x710c22faeeb6f1faU, 0x640b140b274cc7beU,
  0xc531725e4ef469d4U, 0x38abfd0060e457a9U, 0xef0d08d54be3d82dU, 0xd49eb7ee3c95fb1eU,
  0xe4400ca4c9acab0aU, 0x5906fec6f699c1c7U, 0x478ea93fec08b581U, 0x37fbe89496602957U,
  0x75e86f06c7ff3ba7U, 0xdb0d62a282831fbU, 0xa89a2ce2130ee92eU, 0xa1aaa253ee034b7aU,
  0x2d03d02c4f3c6d12U, 0xddd8f02d23ac72b8U, 0xf7a05b65d5c07f3cU, 0xabac1affd54a44c5U,
  0x3cf86d0d7f3dfaeaU, 0xe157d1d8f6ddd146U, 0x6e28231a61dc352eU, 0x6916a160fa624341U,
  0x2e15100424dfe254U, 0x40d31152d106fd1cU, 0xcfe82bb9a0cbcb3aU, 0xca24f1e91b84032U,
  0xf25fe0ff7f14442bU, 0xe2a4f6972ec11328U, 0x9b0cf766a54c2ee9U, 0xcbe8fcf2f1391e3dU,
  0xd250d20b5151720eU, 0x74217f92df003e0cU, 0xb106c14d22e94bb5U, 0x12165d2408234c33U,
  0x5b08b7cd3864c4cbU, 0xdec090c4d01f1b03U, 0xb60fea18582f6adaU, 0x2a4cbefe1697e796U,
  0xa7cf4cd5b67f26e2U, 0xfc021da9d1a6f5baU, 0xb0e8fd1b6fabe4e3U, 0x410b152892a374c2U,
  0x737e4a0869d29d18U, 0x1bdd27f93facae12U, 0x8ce72d653aef1467U, 0xe047b466a817d043U,
  0xb94fd19f70265c7fU, 0x64e468c1d40930a4U, 0x44c727b1deeb5a58U, 0x7c1094c9e9dc4b3fU,
  0xed4a3aaec59a9797U, 0x31125e0aea6727f0U, 0xc35a2040c9c98d28U, 0x2c1f25c89cd3ec25U,
  0xb8fced7426c0020fU, 0x46a7d83572a94281U, 0x25f9dfebe2b3c53bU, 0x4dedd33d25ae5b65U,
  0x71de42a5f42e811U, 0x81e7f3ac3c71f63bU, 0x5a83045f3bdd39bcU, 0x6b0d85729df2dee9U,
  0x46cd0810a55127c8U, 0xd8d89ed2b13bbecaU, 0x1e34621c4c1a434eU, 0xa8ce2ea869adece9U,
  0x54509e8da9cdb4f0U, 0xe0c25c24d0abd571U, 0x2c9e2effb45e5b44U, 0x6b4e454b26351712U,
  0x5ac451e03fbcfc9U, 0xad81aad09ddbd6a7U, 0xb8f45b44dcfacd3eU, 0xa13f9ed696b33dcfU,
  0xa913555dea40eaedU, 0xc30e4121f4232663U, 0xd243dea8b5abbf23U, 0xd513f438444c357fU,
  0x52d40ea84026252aU, 0x445aab45b04cc002U, 0x1f0321bc33d661f0U, 0xd29ea625b0bb9bfU,
  0xc926263171c60924U, 0x504202eecd81ab40U, 0x526fd26dd95bb1abU, 0xba4da481292f00daU,
  0x2535a565600fe92bU, 0x49eaf897748db363U, 0xdad894661ad7b072U, 0xb159cdf38bf0875U,
  0x64003a6c0c8e416cU, 0xcce9275f54f2125U, 0x2b41256219e84aa6U, 0xdd2c97e42544c2a6U,
  0x2e60cb6aead8f5bdU, 0xfd02b0ae7c562ae5U, 0x88ac1894e293eaeU, 0xe29e421704124e7cU,
  0x60ba819b8ad536bbU, 0xed2281b44e101fe4U, 0x1213deb654f0ba4aU, 0x190db5005f1a02e1U,
  0xbfc52c2b44b98cf9U, 0xc4b43d172970a2d1U, 0xa8af052d0a72bd3U, 0xc04b72f4f50d2325U,
  0x12e12a384e3e35e8U, 0x8739e861efc92b45U, 0x1d59f574efeed83aU, 0x9b822d9459db6eacU,
  0xed0252f0b1957360U, 0xa6d11bf9299956eaU, 0xee28f31f265b39c4U, 0xa1d5de1356f7df81U,
  0x9a54aec3ddf017a7U, 0xf5e384a81716833U, 0x20b3fcb1860743fdU, 0xe80888130771b346U,
  0x9996962bb8970cd6U, 0x2e1b666bc51a1607U, 0x52686270309c74d2U, 0xe3e5772f353a195U,
  0x50e24050040e26ecU, 0xd267ba6ee57ff1f1U, 0x1cf663ebbcd0b26U, 0xe9e99b18c3a72adbU,
  0x412bbd26fddb6935U, 0x5aecfc0ed0f49526U, 0x55acf49a353a3c28U, 0x5fb85ae4f7f5d7fcU,
  0x35633805e43da250U, 0xe42e881383315615U, 0xb14f81d44a3933c5U, 0x619307df052dc81dU,
  0x1044a175b98d54a6U, 0x6a62473efb07dd5cU, 0x37415fd365161d1aU, 0x6cabdd2556d5931eU,
  0xc404dfaa4ba7d7f1U, 0x424668e726eb147fU, 0x5a37d68b2e0f0e8bU, 0x4ef9888d74c88c23U,
  0xa2d84aca676bbf6U, 0x3631cec91b16bf8aU, 0xd7e693b390a6a238U, 0x71e3939e1aa24598U,
  0x34f5fd15d435e7c3U, 0xc79613c12c044a57U, 0xc42fa79900684e1cU, 0x77a6657befa544dU,
  0xce05b08a7f58bc33U, 0x3a67a1e8a46322aU, 0x6971dd0e0cad1de6U, 0x27bfc43e696b2ce5U,
  0x6561768205b00aeU, 0x477f0c28cc55cf70U, 0x231420715b4f0862U, 0x1fb02c42e1a542deU,
  0xfc22e94cbc3b5d88U, 0x44ead4dda957939fU, 0x60e32f2bf64302d3U, 0x4f4f2d53e454a84cU,
  0x999cc1c91c1cfdf9U, 0xc665a9915bc9d5a8U, 0x13b8ce56f357c4aaU, 0x15c1a87d5428e20dU,
  0x59de7f57440c169dU, 0xcf0a4d3cb4c0a9a5U, 0xb3d4dc5f083d2462U, 0x34bc41021652b5b5U,
  0xce96a238261e4418U, 0xb6e59af3ae16819fU, 0x84b09a13f9c84966U, 0x3ee68aa06e269b8U,
  0x192d57e1c27f60eeU, 0xe48db5c8f5254faaU, 0xaec58dced5b94d24U, 0x28be49f6ad3cc08bU,
  0x9b5e44908149f16U, 0xd2b80c38c0b52265U, 0xfed5055bf787435aU, 0xdfc1b44fbefca6c7U,
  0xb2bbd4da7f58bf4eU, 0x9c5021b6b9afa64aU, 0x4b468d99c3bfcfabU, 0x17b9af8aa6b645abU,
  0xb70796c364d95706U, 0x49b60a2f9734d295U, 0x6d3c9dfdaf680800U, 0x2ddf06916ffae40bU,
  0xddf735d96f97a858U, 0x5170959a44e0a62U, 0xbaade361c4cf10b3U, 0x37f7593deaedf92dU,
  0x405b05a3edbff081U, 0xf5ce05efd8ca7fb1U, 0xf69e2a942adec368U, 0xabe13de3a30f97a2U,
  0x180f0bd0124def64U, 0x56669d21c6500b3aU, 0xa150f42e98e32ed2U, 0x1dbac04340216deeU,
  0xdd19af571113435dU, 0x6b401f05fabbb1f0U, 0xc043dd6440819667U, 0x4fcbe4e10ae99be9U,
  0xd3e2023732f059e3U, 0x5e6048c9290273bdU, 0xb5d995259a5e9093U, 0xc5b4f8bfbdad9e6cU,
  0x26156195fd693b7U, 0xcae3a3ac5e0dfae6U, 0xe79b6a35392ad65aU, 0x51bbebf4df202234U,
  0xff09310757a67f4dU, 0x440ccf16b5bba91fU, 0xcd6b4884bec9de2U, 0x73bd2713df3e92bbU,
  0x186540f0b0c55447U, 0xe8a24737bf3d1a5bU, 0xb51d32a6c0fd5ec4U, 0xad07e3575fd30f42U,
  0x5d13c609e2aa70a9U, 0xfba727a80481ce4cU, 0x2dab27b8e5fae9c2U, 0xeaa212bfebc0d2f5U,
  0x30f22724b3e00c43U, 0x4b3d9126c5dbc4baU, 0xbae658cf5ace96f2U, 0x2766cbfa370d22aaU,
  0x6df491b7ed152f51U, 0x22914e0081f6c22fU, 0x2138c9244395399dU, 0x943af034b39ec449U,
  0x51525ca5cd85399cU, 0x5fbff9d64b3d5197U, 0x837187baa3d4b694U, 0x9721338a95b4ec4aU,
  0x30c42dcb2f65d57bU, 0xb8066b0f1c572ca6U, 0xa7ff89d41b9d1d86U, 0x172c2329564afe81U,
  0x3a501b8b83ee23c5U, 0xe8427b6ac2a26cc2U, 0x815da94016a90c43U, 0x9b764e4cd88e4131U,
  0xf2009795c1d105ebU, 0xe7e13fc5ef6847eU, 0x857473d3d27f93bU, 0x6b579995fc853c49U,
  0x92ecd7cf108a7a2U, 0x8125ae021b3acb19U, 0x59dbec0aa832a7c3U, 0xc93ef531bdc2b50fU,
  0xc51b518804e0109bU, 0xfcfc2a01c048bb86U, 0x11b211d0b3956937U, 0x389c8feb07b293caU,
  0xb110a74d65a56d02U, 0x9bc51a70f4c51d8U, 0xbb81f4bbbc2ed5eeU, 0x53294ad5bec04c55U,
  0xa35132a0efbe6b28U, 0xa5faf4a9afbaad30U, 0x9dfe9cbb03fff655U, 0xfd0638e511f330ceU,
  0xfa00089927632d09U, 0xe2eff8f26bd55adcU, 0xa44d8debf9dc2d14U, 0x693c98ef93ccd9eaU,
  0xcaafc2e6e2b7df3dU, 0x40cf28eb2ba56e6fU, 0x47977119c9486987U, 0x4413e0268bd1cdc1U,
  0xf0b698af3b0681a4U, 0x924d170b86ef9439U, 0x29a838f0eae7017U, 0x6cbeb252e17a21fbU,
  0xee3c0d49e6a1ad30U, 0xa9410115c32ef46aU, 0xc08e14bf9a8c48c0U, 0xed49ba048e36426aU,
  0xce5f1481eaf74c99U, 0xafffffff1U, 0xffffffd8fffffff6U, 0xffffffe9fffffff5U,
  0xffffffe4fffffff0U, 0xffffffeffffffff0U, 0xffffffe80000002fU, 0x6ffffffefU,
  0xfffffff40000001eU, 0xffffffeeffffffe3U, 0xffffffdeffffffe3U, 0xffffffeffffffff4U,
  0x9fffffff1U, 0xfffffff30000002cU, 0xfffffff400000017U, 0xfffffff4fffffff0U,
  0x6fffffffcU, 0x170000000dU, 0xffffffe900000013U, 0xfffffffdfffffff5U,
  0x300000021U, 0xffffffea00000011U, 0xfffffff2fffffff7U, 0xffffffdbffffffedU,
  0xffffffdefffffff1U, 0x7fffffffaU, 0x17ffffffdeU, 0x29ffffffe8U,
  0xffffffe2ffffffe9U, 0xffffffe1ffffffd0U, 0xffffffe600000007U, 0xffffffe70000000cU,
  0xffffffdfffffffe9U, 0xfefe634ee617f315U, 0xac270dc734603df1U, 0x2b42e4a260b19355U,
  0x59dc36ff5da0efa3U, 0xad1ddbd2610311adU, 0x9db3eb7f2f2fd552U, 0xf2efaf4b4b0cc517U,
  0xaaffd13dab0661d1U, 0xdb8d53edee563babU, 0xacb1ffaee56134ccU, 0xfe4e66435dabb26fU,
  0x71ee5ccdb028d34cU, 0x50e6019086fe4b2cU, 0x269d46585e38377fU, 0xea24d563b3100598U,
  0x7e2153715e67cf3fU, 0xbd9ef91b3d6858b0U, 0xaedc43571e6f8d11U, 0x9a4c9fc050c7309eU,
  0xf8907f26fb3e9d5cU, 0x4edeb6e09ab850efU, 0x6ebec90496a3d51dU, 0xe1e31a025301898fU,
  0xdee83b0c2a486507U, 0xcbc4f9a30c78242bU, 0xe422e05f4b194181U, 0xd59c1c22bc64f94dU,
  0x2ba58bad612e1f62U, 0x985111105ef65b12U, 0x3ee14f48e4d94214U, 0xd813401771303177U,
  0x11a9420f2a18030fU, 0xae0f51348f4a5e2U, 0xfcb631fc28f8ab1bU, 0xc8b7f49f8ce4c30aU,
  0x53facb67015f86caU, 0x44d1ebe3254d25f3U, 0xf1e4483581361631U, 0x3e71e948511caddcU,
  0xe0ff97ded8d5f4ccU, 0x3104ce49f2a3d4a6U, 0x14c24719fb3584feU, 0x62f7aa5e0c994345U,
  0x474910dbccf54f9dU, 0xf52f9c81532c3f22U, 0x16eb405a010742fdU, 0xc6ffb774cb113c51U,
  0xccceecd41436dee2U, 0xe03d653454cfb4b1U, 0x1889a3f4dd810194U, 0xe043bdef396ce3d4U,
  0xb8ffc91903a6c216U, 0xeabbf1eb71531906U, 0x7e8f76a4feaff9eU, 0x96a620569130ca07U,
  0x3bf54d9a4056bf1dU, 0xfcc5fc8be7cd8e81U, 0xd3bf1316c660dca0U, 0x8e098df9bd6dd493U,
  0x3220fb2c4aedcd4dU, 0x32c2d3257250ced3U, 0xc546286b18b884d4U, 0x21755fbf5ede33c2U,
  0x446187ba1953df0fU, 0x1d6133baa504a5a4U, 0x30d9d1bd8a45bfb2U, 0x9387e7f0180d6f31U,
  0x5cc8222d7f7dec44U, 0xef3cb460d671fbcbU, 0x9a87bab80c2fd52bU, 0x4c2a340a4c682a0fU,
  0xb9463a00ae71969aU, 0x52bffcc4da42935dU, 0x37f4984a256b6a60U, 0x28746c3562e19221U,
  0x1e8ff4bd2f03bddbU, 0x9620b881fbda2b26U, 0xa146f40121cc5769U, 0xae04aa2792c29fe2U,
  0x3c493e135262d3a6U, 0xf2ffde82008e6bb6U, 0xde7d05d80253250eU, 0xfbfc5534b03ba058U,
  0xd64ea365c5d4280bU, 0x9ed8532f12f7704eU, 0x964b0af60bd61f24U, 0xfc511994206af881U,
  0xb2dfd1a4fa35d4cfU, 0xf188efbc8995e6e9U, 0x140de4d1ca835fc3U, 0x43fa10f88bc85028U,
  0xb2d0fbaccb3444aeU, 0x670527e1f576dbe8U, 0xbcf835755bbca116U, 0xafb765306f30a481U,
  0x6eee699977692a34U, 0xbd5eee814bd7e767U, 0xe0345dcca7d31b25U, 0xcdaca522f0b1fd08U,
  0x3d2d4314876ee831U, 0xd520132b11d9364eU, 0x1ccced2a721d1133U, 0x8961d508d2b2c2fU,
  0x65a433f9b764f3cdU, 0x92a2ba25dac505dfU, 0x1f324a049d66816dU, 0x54e1db11294ee86fU,
  0xea0a51bfd335ef17U, 0xa205592c200ac0a9U, 0x222ccceb93eda4dcU, 0xf6334ffcdea42d16U,
  0x71ececa5a93c00c3U, 0x51dba312a8a2e3e9U, 0x2c7f1415baced93bU, 0xc29df31ffbf69a1cU,
  0x28c6d6e0524fa2feU, 0xe59db5ab4b6b3d3fU, 0x8d0e4b84e5b6a1fU, 0x5d112bfd181cf70bU,
  0xa50cb5a30fd54654U, 0x643fde6a8640b45U, 0xf3e201ddfa9fb26cU, 0xd405b26c0b6bed48U,
  0xeeb010199fd1109bU, 0x9e941b11fc8a1ffdU, 0xe781a732546ebbedU, 0xea65e9dfbc0dd91aU,
  0x1d95d8ad4b3e2d1dU, 0xffffda4ffffff20aU, 0xffffdf690000028aU, 0xffffff9c00000924U,
  0x239000018f0U, 0xfffff5bb00000495U, 0xd4c000008deU, 0x40ffffff38dU,
  0xfd300000b9aU, 0x875dc996d6c943f3U, 0x301a4e84663a2a24U, 0x60fed1ecbd70494bU,
  0xec02e0b9af2f7f9cU, 0xf82d4c96f4261cbeU, 0xf662f6c9f340d95eU, 0x66f639721f92609eU,
  0xd0bc45f809f6a2d7U, 0xa4cbda6ba2b005f2U, 0x8cf0d2b682ccbe71U, 0x13562041a07f3845U,
  0x9e551e3100d44a9bU, 0x2a4041f5c156ba10U, 0x130703d828cde640U, 0xf715ecbc259e1af9U,
  0xb0aefa00e4e63638U, 0xc681b1a2b3b4e928U, 0xb01349f7e6bceb36U, 0x189d0b543d70579bU,
  0x5528aa0341127cb7U, 0xc68e7d0e09604158U, 0x70d591c28e2affa7U, 0x9aa975957f949815U,
  0x56509c51fcceb77U, 0x1e682f3ca2ea9a3aU, 0xa4d954ac53340181U, 0x1d1d17d5380f9dfbU,
  0x4294b72ed5b2a596U, 0x43ae12664e4467b5U, 0x8dd6c42a57aa1bfbU, 0xaa7510d13b210466U,
  0xb2126403414468bcU, 0xbd42c294086c0922U, 0xfb7813973f603818U, 0xc73b5581e9ef5534U,
  0xf1996830a0a10117U, 0x15b181d02e50472fU, 0x4e5319ec96d638d4U, 0xb21be3230a14a815U,
  0xcfcfd49aecb0d95cU, 0xf4540a9ec61de3bU, 0xe41d5ae426a02a17U, 0x105c17d225fe848aU,
  0x932bd1aa759340aU, 0xfb51ebae8322b91U, 0xe7334c4affb02ac8U, 0xd4934bbd4e5c17d1U,
  0x95b3081381087073U, 0xba48bdbc59cacd7fU, 0x46bcc646f34b382eU, 0xe95eec045f9d7d04U,
  0x70cda2d5b4096349U, 0xa5be25281b535761U, 0x1e4ee31964c95504U, 0x65602cb7c7974768U,
  0x6e94f0bad6d4a8fbU, 0xf173ea0fc34361b7U, 0x6bb8b2d51fa295e4U, 0x985dfce80ebd3e43U,
  0xe48118b73eb03af5U, 0x9fd4628ef475d053U, 0x2d44c538eaee38faU, 0x270c5c3c6b082837U,
  0x9b32754b22e15953U, 0x44123e1a18f0dce7U, 0x7f0a073f2832ddb2U, 0xe5c815c0a8cec12dU,
  0xfd1836ec81eb4c33U, 0xc215cfcc62396cc7U, 0xccdfb554d74fb01cU, 0x1f549c5da4dd24b5U,
  0x39a3e512d5a46133U, 0xb3e18e934b08bce7U, 0xabf7991e3cd4c4dbU, 0x45711b9d35edcb11U,
  0xd375eda9f656cb9aU, 0x814b8b9bb3ab8bf8U, 0x5076776914aae623U, 0x73ec2600e9175862U,
  0xdffb630455c8d662U, 0x18811b74c8085fe2U, 0x467314cfb4197a59U, 0xf4461dc5bb1b3411U,
  0x2811cad284ba9081U, 0xc1b1a8ca1140da09U, 0x1fc816cc8fd1fc4U, 0x3b8a0f7ed8baaafaU,
  0xd81b3ea24559f865U, 0x473b74b089dec165U, 0xf5ae6e078e8ea1fcU, 0x2acab7cc09d2df27U,
  0xa06dbaec41cef1aU, 0x6a64f748b0205ef6U, 0x86fe62810405759fU, 0xd937fb3000224f72U,
  0x83b65e35a7e2d39aU, 0x8f2fffff6fbU, 0xfffff9fc000012b1U, 0xffffed64000008abU,
  0x89b00000238U, 0x70dffffe45dU, 0xab3ffffe08bU, 0xfffff57900001220U,
  0x518000011a5U, 0xee2dc5fcb9fab997U, 0xf3cc81512ec29e13U, 0x8f7e623349cf14d0U,
  0x4981b7b5600832bcU, 0xd4f1a132536a9b1aU, 0xd1dd9d7faa3b304bU, 0x1f0ba28dd2287fc9U,
  0xe5c5d6eeb13fa8d7U, 0x257fdcbe180b1bbfU, 0x2f3f4bc7bad903bbU, 0x13664477c97cc038U,
  0xb5d5f58e5056981U, 0xb424259300edd444U, 0x554999381cf881c7U, 0xb34e1b019c66fccfU,
  0x30a0e57f37a248d2U, 0x81bb8a8a67adab41U, 0x4579ca65b06febf3U, 0xa87125eaa2414b12U,
  0x577f444cf8460cd1U, 0x4f13d8f7368b7fe5U, 0x491dc0f925fd1939U, 0xc2979f0f7f65b51aU,
  0xf5307c5d74fb919fU, 0x7ee3d09b7e60304U, 0x9557765c69737d7fU, 0x7f41ab240ee3275eU,
  0x341202e7ce640da7U, 0xf7fb4f1ccd07453cU, 0x1ba5fc7f02682a2aU, 0xeca0ee23b66a41e6U,
  0x9f2455031098bd81U, 0x3634da6a077f0e98U, 0x7c5a5005ebb7ef3U, 0x14c10c6d3fe2ef34U,
  0x5a40c2fc3e47ba7fU, 0x9ab90b5c58ff88c3U, 0x70337fcf04cbdb2aU, 0xa7bab1577f1eac6cU,
  0xca888b51486d043U, 0x93c3a14346916b7fU, 0xc8fd1e4fed52e723U, 0xf070aac1b99e259fU,
  0xda7fcdfecd4a0869U, 0x726d6d3f26d235b6U, 0x6c077cf5c11d0d7fU, 0x9a3c78ddd87f2b4dU,
  0x38f4675dee9c8913U, 0x92b7d2e8617fb4ccU, 0xb1aa942391e70d16U, 0xe0818adf22caea62U,
  0x61cc530d3a078e43U, 0x5cdd3f5b0c7f23f3U, 0xcd17495437fb34b8U, 0x4bb7340cf58167b6U,
  0x9c19372ad332d101U, 0xff81ed1500572ab9U, 0x409edf0eee87eb21U, 0x2acacbae08165b3U,
  0x8c912e854091dccU, 0xaff30558f7143d2aU, 0xc65e81a2cdc8b3c8U, 0x3cd9a97f956f3ee3U,
  0x956b4b07dc601d6aU, 0x528134e05e30bbe2U, 0xd2d3afbcdbd632bfU, 0xf710425b39f781c7U,
  0xf42aff5aa460105dU, 0xd294a33a5ab01840U, 0x45c14ce5f8e50381U, 0xfe2965ff02b6253fU,
  0x3f2ae756d9e6df81U, 0xfb9d78fd7f314c46U, 0xd28d7a636ce0e16bU, 0xb646e4d91d81c204U,
  0xbe27ee25d72ac93eU, 0x81fe9c51ec2ea494U, 0xae54172e84991d1fU, 0xe4de812dff553f8bU,
  0xb545f8b4602bc62aU, 0x40f8c365d792c8ffU, 0xd193b16a7ff555e2U, 0x4492dea52052b88cU,
  0x5f698b677f022430U, 0xffbc4ec4bd9f9a42U, 0xf9a4326ea46a8197U, 0x368f380741fe66cbU,
  0xbee7226f81fd7833U, 0xfcec7fd82fe76a58U, 0x9c972121677249b7U, 0x9c89d247311610fbU,
  0xbcb4e5488b238110U, 0x3412a6f7b8427f3bU, 0x371ff2e699b096faU, 0xc85c2ee769d61509U,
  0x81133abdd99e3784U, 0x4720e2b2fd4ca091U, 0x4e475d81d0a55e32U, 0x7f2cc91be035aa35U,
  0x74115ac56aabad33U, 0x7b25706ee21ba5e8U, 0x53778f7f7f183434U, 0x9c82477f00defd33U,
  0x8655e826163e9800U, 0x4e83a8112edb1a3U, 0xd1543fe89a13a30fU, 0xfef3bbd3454c001U,
  0x5bf755c47f391f19U, 0xdc163dd8b06f7881U, 0xfa5adf49a98f9d3cU, 0xc237997f22cd565aU,
  0x5da0f24a04189d9dU, 0x30441a85b02d187aU, 0x7f0b7ee7c1ada404U, 0x41389584368147afU,
  0x23f6a5e2c0b31e63U, 0xad9c8124b4c7bc1fU, 0x20b6e308422e28aaU, 0x2f50103a7f0d3a75U,
  0x7ed851a8b396e9d8U, 0x7d56488e64c5a596U, 0xcebda6dc37657f05U, 0x6044b8f6812f23dbU,
  0x6715da3193219de6U, 0x20308b9a49af4adfU, 0x816c7b169f09692cU, 0xbbfa7fae37f144aaU,
  0x3a1e1d1014e06544U, 0x5a000013a6U, 0xcbffffffe1bU, 0xffffeb4fffffff68U,
  0x19d0000065cU, 0xfffff15c000004a9U, 0xfffffaa9fffff83eU, 0xfffff5d6ffffeaefU,
  0x973fffff196U, 0xfffff0e1fffff9bbU, 0xb69fffffe6dU, 0x42ffffffabeU,
  0xfffff888ffffe688U, 0x1d400001034U, 0x178ffffed2eU, 0xb1f0000089fU,
  0xfffff34d00000ca3U, 0xfffff637000007e6U, 0xfffffd2c0000044dU, 0x852ffffed15U,
  0x46f00000dedU, 0xfffffa4f000001daU, 0xfffff7da00000d19U, 0xe88fffff3eaU,
  0x5c900000336U, 0xfffff7790000000bU, 0x1aaffffe876U, 0xfffff02400000ad2U,
  0xfffffd13000006b4U, 0xa11fffffbadU, 0xfffff3bd00000de5U, 0x321fffffe4fU,
  0xfffff703fffffb0cU, 0x540be347b7b5a18fU, 0x9f03dc232a1d013aU, 0x11d64e85f9d416f6U,
  0xbb30a1ef9dfb987fU, 0x9fee0851443a660bU, 0x61d05fbd1251e31U, 0x4606322dab0004a9U,
  0xb5d04c3ac44223a8U, 0x21d5edbccc685fd9U, 0xe307db73d9cd8143U, 0xd3b5995bfca4c931U,
  0x5f0aed066034da2cU, 0x443fb121bbac149cU, 0xfacb38d84bd16715U, 0x584316ec45361f13U,
  0x603742a093bdaebaU, 0x94d36aa7ebc6f4b8U, 0xc33931b845c4a5b4U, 0x4e2001e9b615b15dU,
  0xcdfe7f68736add45U, 0x2f99f3c1f5713860U, 0x9e9b2f249259fe5aU, 0xff0ac4d08c496a13U,
  0x4aaaf78ca069a74eU, 0xf0fc3c68a89b8313U, 0xac06b2e76fb75fd0U, 0x663ad489071b9a97U,
  0x74b27172c0551758U, 0x49af72e7b5db9481U, 0xcd01e8cb9ab14946U, 0x5ef3421614355bc7U,
  0x1fa3ad9ffe315948U, 0xd3aab35594c6b4e8U, 0x49a9ec1b35a91207U, 0xd7d113efbe651c24U,
  0x4d5fd9a09281bdbU, 0x1ce0aee43a0cdfd8U, 0x32a2c6c4a2093281U, 0xbbaa3eb7af4e1fadU,
  0x3027348d2b2ab3c7U, 0xc91970be5230a48U, 0xfbfaf4e0adeb81c7U, 0x10b63d08f53507c7U,
  0x9ca627e8aa1de21bU, 0xe1f61bbfaaf42a09U, 0x2a4bcccccaabae47U, 0xa024b544c1f8fee4U,
  0xbb009b13cdd2f740U, 0x83f6409766b021b3U, 0x45443bf5903b1f5cU, 0x5026491cb389da9fU,
  0x9521e9402d4ea946U, 0x39060aaf2625dd41U, 0xa19b9bf18c2bf602U, 0x49f4428190eeee48U,
  0xc204f8f044b4325aU, 0x17680028e64fc0c8U, 0xf03d52e0fb209d34U, 0xdce00898fc9b4e16U,
  0xfad6ecc3b5f5dbe8U, 0x335ee315ae19e1f7U, 0xcbf0324afcedea1aU, 0x1d9206ed3e4da11dU,
  0x1abbb9dc810b3733U, 0x8652ac80dd2944dU, 0xadcba51fcbde9f08U, 0xe32a255649ada431U,
  0x812022511635d317U, 0x76c3549fb43d65ddU, 0x17f8e3bb20e5c5b0U, 0x412ca7fb974e6f0eU,
  0x4d5422a1baf5f004U, 0x38d750ecdd5cfdd7U, 0xb0195f3efa410e41U, 0xc2a8c9312fbc2fb7U,
  0xea81d005e64d4e4aU, 0x3ffbc2d9f51b66d9U, 0xf12617a8f2bc2ec2U, 0x519ce4b515d0e042U,
  0xb1069eecc5d91bedU, 0x3ab6b55b2122b158U, 0xeba57e332f2320aeU, 0x1f38a5857f9447fcU,
  0x4452bb1beaf368edU, 0x5fec7ed32fadba4cU, 0x2a1e719bd4c0b9b7U, 0x70b82bac295e1c32U,
  0x2f962350a1fb47ccU, 0xcd07110fab160203U, 0x8f762d52881edd6U, 0xdeee57ff06dfe640U,
  0x338e3eebbd2fbf3bU, 0x15e1d5b14cd49d69U, 0xb005d43da3bed3f1U, 0xe7ee33c9e11caeefU,
  0xcb67c91a45f813e5U, 0x5a71093ed0631588U, 0x439adcad1bd85cd9U, 0xdbe233ca96e26b4eU,
  0x4340b64a5f028c16U, 0xb5bfdf51f994c339U, 0xcb7d303db616bf14U, 0xf864dd60c9cdde1fU,
  0x8189a2c0152e8c64U, 0x47bb3c1729b11591U, 0xbd4818dcfcba97ecU, 0x10272ae0569a321aU,
  0x670bdfcad74b5c93U, 0x330b5fd94bf9f8caU, 0x2605d002099a2540U, 0xd65d189e6a08adU,
  0x53816b71f1abd722U, 0xe8f403ed180e079aU, 0x112edabf8186ea4bU, 0x61efb4eca4edba04U,
  0xe2359ad9d25be59dU, 0x4f52dbdc2826e95eU, 0xf498dd1636e5ffd1U, 0xccd590be9809d6d2U,
  0xfde3b2c851514698U, 0x4d34213a810ffad1U, 0x403689bb920504baU, 0x2308f29b2a39234eU,
  0xdbc04cdc43662f37U, 0x48f9aae04e616619U, 0xb6c2f2dac6532759U, 0x10cd9e46b5bc62adU,
  0x95f69f52c41327eaU, 0xaaff7450c06c0deaU, 0xb4b2501ae4bba99fU, 0x25dcbf25fd03d2aaU,
  0x52471ead1f15fd27U, 0xbec0dc024ca207b1U, 0xc2f8819fcbcd715dU, 0xfd3b3e5cd2610a37U,
  0xb49ec1d3b1720789U, 0x53d6d81cca7c2d3U, 0x24e13fb4acf0e296U, 0xe9aba556a21134cfU,
  0x31ac9ff20ade7f7U, 0x2bb31cb333287023U, 0xd2c429592e271828U, 0x3f4d10679dea4d03U,
  0xc0fd8f16a40942edU, 0xbacd39d9aff511e4U, 0x27b710d80159d019U, 0xd8eab5ddf0f6c3e8U,
  0xfdc7252f0bfafb55U, 0xeb4b637d9f7dcccU, 0x331dcc7b53cfb23U, 0xb9fe0918d4b58124U,
  0xe10da83ebd0c20f1U, 0xd7b07fe6b0926695U, 0x9be74e085eff8ed5U, 0xa26eef06bb8ecaf6U,
  0x4d1f0abfb173593aU, 0xf95411aea3df3337U, 0x909ee3d2a6a57b5cU, 0x740d4b334aa155d4U,
  0xd77bcab1b351ef7bU, 0xb861603341bc3035U, 0x3f5c152a64ca082cU, 0xc8f809b28f37e64bU,
  0xa4685a45c7e85ee1U, 0xd17fe24ebb5d1a52U, 0xd1ba9895e0bef1fbU, 0x4cca286754bc71f0U,
  0x5761de95251ec673U, 0x3c46b6f591ef9ca1U, 0x25bb8136bb0803f5U, 0xe5475cf8543cd25cU,
  0xb28fb0f54619464eU, 0x4771f1463e375ab2U, 0xd70eb7de319438f3U, 0x60edb21ebe3afecdU,
  0x6a0d1bb31e3475d3U, 0xb7de06addb081b5bU, 0xfef039ec83c18156U, 0xffa93e0108ac3166U,
  0xfbbfc61b1b044be3U, 0xb45148f3de042531U, 0xcaa206d1ddb0f00bU, 0xdefe873acfee04eeU,
  0x1de3dc4fcbfeb27U, 0xc2c78129ebd56638U, 0x9971e75eebd8db19U, 0x62b130fc08b0f4e1U,
  0xfef0004e34153a32U, 0xe0cddcfb6e5fb3eU, 0x8ee4b701d7a785U, 0xaf530049083fdda7U,
  0x350ff805d034e7a1U, 0xffb8df4541be058cU, 0xc62938813cd235ebU, 0xc3d42f071e3fcbeaU,
  0x99ddff4213a8dc02U, 0xef03aae54ef2b92cU, 0xd42c0eedec521dbfU, 0x51533cdb4ad82e98U,
  0x2c8a631454f2ab3U, 0x24152ec2e00aea57U, 0x2f1904a2120bf2eU, 0x22e2173548d1b941U,
  0x215b1627e9bd52dfU, 0xe79d29f9d3392058U, 0xf64de440bae7cabfU, 0xcd0abff9cf121459U,
  0xaeb71681e8e432dbU, 0xa13ca71ec7c609e7U, 0xeae92f1e53340798U, 0xa436cf61beb8f748U,
  0x4babe1e00eb73b05U, 0xc0c2d93ecb2f1f3fU, 0x15b4b320e7454202U, 0x12a1cc1fa3fad1f3U,
  0xb58103923ad7fa45U, 0xb94a0ca110e4b3fcU, 0xb8363fbce7d7f5daU, 0xebfa908bd8ff62ebU,
  0xd835b6081c7c1103U, 0x16aa4698b6d4f5cdU, 0x1b0740f9b8081481U, 0x42d63cca190138ebU,
  0xdf49b0c56159e929U, 0xd5050b42d8d8c7e2U, 0xe0b9defd0940ddd9U, 0xb7c3b72de42e32c2U,
  0xb9e44a4c130af6d0U, 0xacc11b8c7b8b0cdU, 0xe3f6f709463cf3e3U, 0x9f126d9d62d0e7fU,
  0x17c234ea24e5e1e1U, 0x6eacb46ed34490a6U, 0xf3176a43684c9ef3U, 0xaaf4f80ca63d5c07U,
  0x9781df5029f215bdU, 0x12f8bb0006b0f2fdU, 0xf523cb31691b603U, 0xfddc40c168163f0aU,
  0x358bb727fa44ea07U, 0xd23126b8ea6b3dc2U, 0x6de01fdc121e19a0U, 0x4452a70ad9eb64ddU,
  0x1081adf393d9024aU, 0xf3aba6c8cba54155U, 0x17d5a35642611fb6U, 0xc1af6cb84d5c1fb5U,
  0x8706cecaafb9db02U, 0x2d7ef81d2a639a7U, 0xd121d439935ba053U, 0xb9041fcbd41657dcU,
  0xa2fa37a7930bbdc9U, 0xbb140a1f14a0a1cfU, 0x29d5e43130eb0319U, 0x53c6173ecd4fe1aeU,
  0x12953b435052ce30U, 0x4d22ad447bf52d9U, 0xd0ecb038de1c2e55U, 0xd7c058d2dd991227U,
  0xc3ef273455c26045U, 0x2da8d82be9abbb51U, 0xb7fc1922fa08fdf6U, 0xad052ddbd2deeff3U,
  0xa430539089814a17U, 0x7fb5912e4ba51401U, 0x97f53ae4d00ee618U, 0x18dae75bf4e331d1U,
  0x53a12deec9d86ed3U, 0xa1e56bb556b0c5a3U, 0x5acdb2c81a211c47U, 0x302f1253424e2bfcU,
  0xebaa66c8d3c232feU, 0x8c4604ffa0e20438U, 0x3e49d8bb62d75f0eU, 0x3e0b81c3f3277be9U,
  0xc51fb10d4be0cc57U, 0xda876c5232bf0e38U, 0xf7e7c106e3ae2c9dU, 0xc8679ee0c3510f73U,
  0x605bd7662706f0d8U, 0xcfebd222cc0a9e3fU, 0x9e41c481accc303aU, 0xcb2e043f14973bbeU,
  0x679853c7f64d6130U, 0xda909b3fc4180b17U, 0xfff3cc3ac93ea8b7U, 0xba9820dd5b0cf79bU,
  0x52380efcf0f24233U, 0xb0a36420c92381e8U, 0x4be800f5524092e4U, 0xe500ca0e16319092U,
  0x332136060d339faU, 0xbad6dd22b1cb1bb1U, 0x4df1c033c0fbe3aU, 0x254acb01e0c729f0U,
  0x143715871ca2c895U, 0x128bfcb6d4e0879U, 0xd52dca90cab0444U, 0x1c53a2f73b1d6fa2U,
  0xdecbe3d88554fe93U, 0xa6b27004865771afU, 0x9916a9df1dc2171dU, 0xa05c1ee381016757U,
  0x120fa5dab4c8b8e5U, 0xfe31ec8d49e905f9U, 0x4e225c6741b1eae7U, 0x64b94ab3ab64c126U,
  0xe019083699ed3ca2U, 0xc24230e449d93ea6U, 0x963540b4c4864039U, 0xbcedef5c32adc4bfU,
  0xeb8156100ce924d3U, 0x529681c3f0f1d468U, 0xbea54c26b000ab9U, 0x36f066d04ab43831U,
  0x332614a32786daU, 0x616ce458eb689a35U, 0xde34a14a14d8c089U, 0x67c98eca20c91b62U,
  0xc822f2fa91c94c43U, 0x5dea081f725990dU, 0x1914072557fbe4d1U, 0xbe1fa54eb32a5dd3U,
  0xe62b182338c18996U, 0xef6a050c1831a5abU, 0xc6059b0f31e4c7e4U, 0xdcb7cac4acd6e0afU,
  0xb21c0ab3ef6bb9e3U, 0xc44a36f31f2ac24bU, 0xde4dbe705f80757U, 0xd906b15573f9b624U,
  0x39014742c413ae75U, 0x5a41485cb1a6d15fU, 0xf7d6590b7fbee02dU, 0xef13ccbf36044ac2U,
  0x524ed34a0ae0f9b8U, 0xca0109c864cbc721U, 0x4f51f6509eff05caU, 0x3bae846990a8138U,
  0xa1eac09fbe0ca67U, 0xde45be032b1475faU, 0xbded13bf98986a11U, 0xa2c808a701fbf023U,
  0x9093f5527200d3c0U, 0x2e01e3369540ab4aU, 0xa219ad1d6ac3f5b3U, 0x21e40abcc15e3954U,
  0x21278103c9e2c830U, 0x92effe99f4ad2b54U, 0xdbfe3c07e3bde832U, 0xd6fa0affc7edbbb3U,
  0xc6e54d49fa250b4dU, 0x9a6066ad26c28aa9U, 0x65fbb93856e6f881U, 0x8225d5ec674c9a50U,
  0xa5fadfac2339d8fdU, 0x3924310706a20c89U, 0xbd412ad19ec31bcfU, 0xd5570b2526164ea7U,
  0x1a37b85e44fd6454U, 0xa8dc81c2eecfda01U, 0x284361ad451dead9U, 0x202b2919efcd150aU,
  0xc1430c00b9589c4fU, 0xc314432520bd0d0cU, 0x5e0d27041fc9e5b4U, 0xd211b91b0c62ff19U,
  0x150a2e5142b2c7c1U, 0x4820117fa73dfe45U, 0xede2579272076535U, 0xbaefd154201fbd28U,
  0x6535ab49a63b579fU, 0xb8c09e08d419cab6U, 0xfb0bc682591383aU, 0x6421029d33fd8a0U,
  0x6b69da416158b326U, 0x1ab3a4c743d76906U, 0x611e7624e50f8e1U, 0xfa4a40179e5ebd78U,
  0x7075846681574e03U, 0x973fc702ca38635fU, 0xcf061a7da7106451U, 0x855cba03b0ce54f7U,
  0xabb1dc0e1c94d442U, 0x26218df39ed9c8ddU, 0x5d84375908f91081U, 0x533ccf2b8e90740U,
  0xb94dddd55b8da6eaU, 0xcc610d3517b7b40eU, 0x54dc5fe4daaad3e0U, 0x21284c6561b3a8f1U,
  0xbcaffcf209fe0eedU, 0xd46bd6283e75f9e2U, 0x28307fefdec3f2a3U, 0x6fcbdc5eb45599c0U,
  0x7546eebdeb5c3846U, 0xb52dcde68bbbc50aU, 0x3fe0abab4710560cU, 0xf259b7de64464cfeU,
  0x5ce62cf9d3be72ebU, 0xfeabe6f18cd792dcU, 0x77a3b23e6fbcd026U, 0x3cbe3f71e8733c64U,
  0xe0ad29a3468864a9U, 0x302fa4fea4eb8175U, 0x87d9df320d64ffd7U, 0x3ff907514117b84cU,
  0xaff8743cb0f13b1aU, 0x73ff4a1b2becd7f2U, 0xe31f084030f7ff46U, 0xc7987fd1d3da3810U,
  0x22e909cad32720e9U, 0x30c4b453bfb0523aU, 0xece03336b510b16U, 0xfc9e96fdf658fd60U,
  0xce3b2144941d2f1eU, 0x68588d3d4beb36fdU, 0xb62b2c5599c813b1U, 0x1149528159c92820U,
  0x70c2846845cef360U, 0xff54f84097ecd909U, 0xdb1ea51a0ee85db1U, 0x4027c16626f0a6fcU,
  0xfa8e08bf37c0f32dU, 0xe01f3032f97f963dU, 0xd02244a56cfd0547U, 0x6f43326662ae545fU,
  0x63f2c3e851d82300U, 0xd6fae9f441af48f5U, 0x4205626698563fc9U, 0x5f9422ce1303a1ecU,
  0x5fd6f3f63bc1d5c5U, 0x42e6e6e04b7f2341U, 0xb7cbcc003849f9e6U, 0xdf9adfa7d3e6ed23U,
  0xaaadbe03ff2e5a37U, 0x3b530ec1a1322c57U, 0x3a64bcb993db242bU, 0xaba910344db017caU,
  0xe3e5364dc90db0d2U, 0xe9422d2d0e8beecfU, 0xb483e1c0a8af204U, 0x61e135cd58eb39U,
  0xe04aa8c2a1e5e081U, 0xaaf9313a0f16c7ebU, 0x4bbbec63851e3cfU, 0xc01e08d9d3212d30U,
  0x9d461e0bd04c0c29U, 0xea0b562edeb926c6U, 0xf4f4e3d16b72236U, 0x5f3404447248213fU,
  0x180c0c4847e2aff0U, 0xc51b18df260aba4cU, 0x6547d4b617cb327dU, 0xcf17ea7f99133fa0U,
  0xfc5c2340f7b22230U, 0x8d6c8a120842fd06U, 0x236fd25ff8fe2c4bU, 0xfe62eda28210745U,
  0xa72095813c494c45U, 0xb3f43ea8ee0fe89bU, 0xc94af5aa51e0ac08U, 0xb82c8dfb8a00342bU,
  0xc09fe208fe01eaf3U, 0xc84855f1b3dde231U, 0xfe31bfd3a7ebe818U, 0xebc52b182bf6dd81U,
  0x8960c223fd5b3feU, 0x37a2c0a3a20ea621U, 0x3c8aff2611d72df2U, 0xc7130b38e1ab4708U,
  0xe0d22c2dcc1ca205U, 0x3a2e36d7cdb5fd5bU, 0x7f51f89f67e8066dU, 0xc2a95504c927f2ebU,
  0xc6b7cbcec2459fcU, 0xadb303adf85bee4eU, 0x270fe6e60da1a26U, 0xedf5d3f437315e5eU,
  0x6a521d262aab5fffU, 0x82d90fb70299a270U, 0xa79b1fbb31dd2cf9U, 0xb6bff2ce35c601f2U,
  0x23b5af8f813202d2U, 0x4ba5bb3b0f9754f8U, 0x9dbec9120c0efaffU, 0x2d88c95c6e4a5b56U,
  0xde60971c1ef4e706U, 0x42c32f44d4f2090aU, 0xe7060c46f363e2d3U, 0x4b40dcda58c447baU,
  0x55a9d50f2ec4c64dU, 0xeec6d08c26a1d254U, 0xed2df5814fc194afU, 0x9f96fbc2c943c1efU,
  0x3830c8b21db028d3U, 0xf18486ed3f4454b8U, 0xbef3efb930e1edf6U, 0x94df3048d7cb0c36U,
  0x8bcf2df0e231e6faU, 0xe5de8191fba351f2U, 0x245881c5dfbb5a17U, 0xbdb7c72c9c0455f8U,
  0x3f182d3da1f9ffe4U, 0x6abc3cd528f2d2b5U, 0x3a48a8e5201d904bU, 0x9b76ab8acd398b7U,
  0xc5a5582cef14b4c7U, 0xd381bf12d231ac58U, 0x15fc58ba5c235158U, 0xcfdca13099bfb22aU,
  0x21f8f3a81a455d47U,
};


ai_handle g_tinyfallnet_6axis_qat_weights_table[1 + 2] = {
  AI_HANDLE_PTR(AI_MAGIC_MARKER),
  AI_HANDLE_PTR(s_tinyfallnet_6axis_qat_weights_array_u64),
  AI_HANDLE_PTR(AI_MAGIC_MARKER),
};

