/**
  ******************************************************************************
  * @file    tinyfallnet_qat_data_params.c
  * @author  AST Embedded Analytics Research Platform
  * @date    Thu Dec 14 12:05:06 2023
  * @brief   AI Tool Automatic Code Generator for Embedded NN computing
  ******************************************************************************
  * Copyright (c) 2023 STMicroelectronics.
  * All rights reserved.
  *
  * This software is licensed under terms that can be found in the LICENSE file
  * in the root directory of this software component.
  * If no LICENSE file comes with this software, it is provided AS-IS.
  ******************************************************************************
  */

#include "tinyfallnet_qat_data_params.h"


/**  Activations Section  ****************************************************/
ai_handle g_tinyfallnet_qat_activations_table[1 + 2] = {
  AI_HANDLE_PTR(AI_MAGIC_MARKER),
  AI_HANDLE_PTR(NULL),
  AI_HANDLE_PTR(AI_MAGIC_MARKER),
};




/**  Weights Section  ********************************************************/
AI_ALIGNED(32)
const ai_u64 s_tinyfallnet_qat_weights_array_u64[4217] = {
  0x123d3f8d24e44ae7U, 0xca3333e554ba8547U, 0x57fafdebfefcd814U, 0xfc1bc30caba88129U,
  0x5157bb300feb0c25U, 0xacd1b3af0ed6afa9U, 0x530c02c417eff0bbU, 0x81f550fc37efc72cU,
  0xfcdf38354f082218U, 0x2dd0aae7d6c4eab9U, 0xb4caa1dd83e6f140U, 0x1cdad6462124201cU,
  0x90be530e0990c20bU, 0x65472034029a6e44U, 0xd1b03dade5bafc20U, 0x7fe919b82dd9300cU,
  0xeabdc9b50549f53cU, 0x5bfa30434b686312U, 0xbef8e9b6de7a41caU, 0x9e0681d808306a4cU,
  0x30a86f3a37460ebfU, 0xf1a5a7e5aaa5bbb4U, 0xfc04b1fda5dc9ea9U, 0xdb70282fd3a9d509U,
  0x72d0ed78e7a4cac7U, 0xa2d4a184b6b6370bU, 0xd30b63258060a15U, 0x9d1dc324c353596bU,
  0xe8a255aaabeb211cU, 0xd8b3bfd126da7f2dU, 0x2539d86d3f924233U, 0xa5f0d24adc5e369aU,
  0x76fa81d25d23c833U, 0xdb0edddc96ac288eU, 0x7b9edb376d2114dfU, 0x59f523f7163a3ebaU,
  0x2be30eafb7425848U, 0xfdd55821dccbc411U, 0xf13f2425bbb3849U, 0x891436a6b02a26c8U,
  0x27c92da1ab05811cU, 0xca49e4aada50e544U, 0xfebc3f3cb1c64ef7U, 0xf2bab53a2a3f0f19U,
  0x229fd25eb29172c8U, 0xe612f2b3083856e4U, 0xb29d5ff457317f2aU, 0xa66c441d41a76f9U,
  0xbfa2cc810ad2ce41U, 0xa6b7e0ef4aedaca6U, 0x8bc1044dc603bdb3U, 0x1dd8c8ee4a8cdfd8U,
  0x194e7e4851c3264dU, 0x7ca7f0f6ad3c6d43U, 0x41a8dbca25cfc214U, 0x8f72a7bbee9f57ddU,
  0x1ab45574c18b0e78U, 0x9c48a4478ec1c79eU, 0x5e36b81155357c1cU, 0xe8cdde05d31e815eU,
  0x7cd54fdd6b20f2eU, 0x29f3ee4be2b49818U, 0x9c2f5811eaf4fcc9U, 0x3c810bc33f05c030U,
  0x10c855a2e000aa29U, 0xaa049f0df41b4136U, 0x2e3d60eb292cc83bU, 0x697b0abc8eb4ab6aU,
  0xb8e050a14bbb1cf9U, 0x652e42a46256122fU, 0x382d535d7f6ee2d2U, 0xd43adce300aeeb4bU,
  0xacf4b9aadf9af1d7U, 0x1747b226b4f93da5U, 0x70b1fb2a3caa49aaU, 0x14c13ebed639d054U,
  0x44994576c9b2dc28U, 0x5673be581230941U, 0x36327f6f9352ea2cU, 0x2a5df1c096bb640bU,
  0xcdea77e950990365U, 0x5f01d70fb8d32119U, 0x2a39d7c6cabd39c2U, 0xcebe1a1f5d3710baU,
  0x47e1053da2599ceeU, 0x39ac30f1f86d673bU, 0x7fb55c1d5bc6470fU, 0x163f0de211536654U,
  0x26cd43b80c30fec9U, 0x20b2620d5dd26856U, 0x6f47b0cb204b3b3fU, 0x3dfc2de5f3c34247U,
  0xda50a421c4cef725U, 0x3d556c5a4a712890U, 0xdb3a224ad0f4bacfU, 0x43144ca7425bc281U,
  0x11cd00001aa0U, 0x252cffffe913U, 0xfffff50f00000d3cU, 0xffffeaca000006d7U,
  0xf1a000018f7U, 0xffffd47a000013e8U, 0xffffebe500000a61U, 0xffffe20bffffc4dcU,
  0xa8dff9d79cecedd4U, 0x9ec636209e7fd7b7U, 0x24eca42282eadff0U, 0x38bb0f17c446d57fU,
  0x7f53c87c9b4cd5a3U, 0x22df35bfe0ab95e9U, 0xade6bfe76d66eadaU, 0x8e8c27e581cd0d23U,
  0x404ac322aff62f3fU, 0x19f972947f169be2U, 0xdaead2bd914acae2U, 0xa7e31c5d617f35deU,
  0xfb420b159b838164U, 0x1cf02cd775d6029eU, 0xc3d1d93dabf6f6dbU, 0x14f6f8ec487f4324U,
  0xd408b10bbd1205a2U, 0x43e2dd5d81f9093bU, 0x617fe19043c19fefU, 0x3d1d7ae9ce4ece5bU,
  0x7c99a92fbdd08383U, 0x1f371e47b33b487fU, 0xd37b5b7111e9dc1eU, 0x7f072d34eed55568U,
  0x9deb8f387fee3706U, 0xd346818c0cf2624U, 0xc962e757a23aa11bU, 0x7fea6e371621fe94U,
  0x65dfd76981ade91fU, 0x3c95cf025a514e79U, 0x372ebc6678447f02U, 0x538dead6466339e7U,
  0xcb4841f31dcc1e3cU, 0x5547fef7a06a753U, 0x4f06ea171333225cU, 0xbc43afa2f34927fU,
  0x87cad5171f6c57cdU, 0x5b2f4b58ce31d17fU, 0x22d20803d4a340e4U, 0xe89fffe40f81ccc1U,
  0x9daaca8e7f3be3U, 0xc85c454b1c3f4655U, 0x999ab4a869bfddd4U, 0x13f630987fc9c8b1U,
  0x68dd04a76605b0b7U, 0xa1217f6c74c41249U, 0x47ac51e814d5a6e3U, 0x122aebcdf71e3b7fU,
  0x7f6fccad77ef7268U, 0x3553e0402175f7a9U, 0x4b83debafdc22edeU, 0x27777f21107ecdbeU,
  0x777461410a5077baU, 0x9120e6f4f7869a81U, 0xe01d6d97f2f59daU, 0x3d520cff56935600U,
  0x4dcbf966ff0bd0dfU, 0xda4afae8c0077fd4U, 0xf398f7d1f760a83fU, 0x502b958cbe377f30U,
  0xddbfe42b4e6f814U, 0x5eec08d0bdc57fbcU, 0x72b31da57afff7efU, 0x8917e2db937fff00U,
  0x45c21d25c6264f3bU, 0xc73315efbe25d37fU, 0xf614f594bf316b18U, 0x90098f81825826d4U,
  0x3cd40afa6833aa47U, 0x1045b6613c815218U, 0x5708df709be9d2c5U, 0x99c273ae397f0bf9U,
  0x2381cc4df62f9340U, 0xe4ac48084346ddccU, 0x937fdc55dadb67a0U, 0x4c0e68e1a75491bU,
  0x18358beff9f0dd04U, 0x44ac81bbe6e14a35U, 0x1f251f3f4f287f49U, 0xaa2ea2c3b522f837U,
  0x27a8e62c4a59e4d3U, 0xb9dee5d7df7f52f8U, 0x13ecaaffafe1d981U, 0x8647df2293ba26daU,
  0xec43124dcc633252U, 0x1119e44b01811970U, 0x54fdf1fc56536b81U, 0xc075bc758a810279U,
  0x2572dcce3019f8ddU, 0x81e501dcc761216bU, 0xbc81b97b964ad56dU, 0x8d297a28c138d5e4U,
  0xc6b30d27c3ab7f54U, 0xb71b3bc2f69ff30bU, 0x9352b5771e4f636U, 0xe61fda5422816733U,
  0x166b765e15c562a7U, 0xce1c61811cb838e9U, 0x651948570f02de16U, 0xcf394a7fc35825b7U,
  0xbfad7f854b3822cfU, 0x9fb53776fdb0c9a6U, 0xb9261f1c3ceecc3cU, 0xa77fc9ef67394af9U,
  0xa1a04cf81af0ebfdU, 0xfb58ebb30d81ad31U, 0xb0effbd939f83cd7U, 0x53369f3ac026da7fU,
  0x30e4e1bffe187629U, 0x81155097fdbd598cU, 0xd8f9440d4b44cc12U, 0x41fd0e2de9a93e81U,
  0xe00fc69c811a5661U, 0xcef1f0e37cbbcd62U, 0x5b5013812d5e302fU, 0xd3509e8ce39d523bU,
  0x218e4f52cda8173U, 0xbe5d9a439089fc2U, 0x189422df7fb4b3f2U, 0xdd98e7873227fc98U,
  0xc656b62fd9ce0ca9U, 0xd6d7128b5e7fe85eU, 0x3eeb2dc719112dc2U, 0xa92c6de7e77f0cb9U,
  0x1d1d37e8b15fd421U, 0x6e3e8465d08118f0U, 0xc5a28d7fdd655bcbU, 0x309fbb0988716510U,
  0x40a0000139bU, 0x119e000009eeU, 0x175fffff6bbU, 0xfffffc5300000823U,
  0xfffff01c000009b8U, 0xffffe21dffffffdcU, 0xfffff59afffff979U, 0xffffe3e2fffff38aU,
  0xffffe958ffffe792U, 0x1721ffffeda4U, 0x17e6fffff4c3U, 0xfffffa31fffff3b0U,
  0xfffff85effffdf73U, 0xfffff15300000256U, 0xcffffff31U, 0xfffffed60000068aU,
  0xee6fffff20aU, 0xfffffe03fffff3d8U, 0xfffffb7effffffa3U, 0xfffff12c00000af9U,
  0x20bdfffffdedU, 0xfffffb10ffffee67U, 0x522fffff8bbU, 0xffffef130000090fU,
  0xffffe94bfffff683U, 0xfffff20200000d03U, 0xfffffa2500000f88U, 0xfffffe19000007f2U,
  0xfffffb6a000002feU, 0x10ac00000a09U, 0xfffff871ffffff29U, 0x226ffffffdaU,
  0xd5fcaff7c6463a33U, 0x646d862ddd09b590U, 0x4f4a3885f13456ccU, 0xf542dbeddf6623b7U,
  0xfa81e713ff90cff1U, 0x3fb42c398557de2cU, 0x3164ba271f40e3a8U, 0xb08e15479b345fbcU,
  0x81d82568287254d5U, 0xfc4701b5bc00fdd0U, 0xc90897a0e5aaab5bU, 0x232c2dfd9bcf2f7eU,
  0xfa05a6461dfa05deU, 0x6cd4f057e0230d58U, 0x3198ebd21231ea52U, 0x55ca6c27ef56d5a0U,
  0x4b0446f6b6d05e40U, 0x49fdb631375b84dbU, 0xa9b05ed3dae2eceaU, 0x8d8c81ed5344c1a0U,
  0xfb33094ad4a831fdU, 0xfbb0f0cbb8deef0eU, 0xeee7124a359c3e38U, 0x5b964e61d2250118U,
  0xf595d00c4d71bf97U, 0xf0ce2a0bcac99a65U, 0x48b82bffbba731e2U, 0x40bd065081dbd05aU,
  0x6d992be7889191c1U, 0x5ddff6155f5e7605U, 0xff50e1301c5ba739U, 0x472fab462609a657U,
  0x35202cd24ee6b696U, 0xede8480ed1e95cecU, 0xfae35d07c2d609f6U, 0xd53518c65738d99cU,
  0x1156cdfa4ca3c218U, 0xbf5c897325dca3d4U, 0x4558ebbf1c2d1507U, 0x6477e77fa537c3c0U,
  0xb685deb5aa34a3fU, 0xab0add1b4c61f119U, 0x44d3e2d1de43f5d7U, 0xcb7e2a487f5c34e1U,
  0x397aa75127c2b279U, 0x2a53c6a9e791d0cU, 0x38e5bdde1c7e604eU, 0xa516a707202638c7U,
  0x2e3f98f52a1f4fffU, 0xe5c82e3773ea11b4U, 0xd3c9099018dddfe7U, 0x10b15ce74a1bd13fU,
  0x81c220fc27c21cbaU, 0x3c2bb28f1708af24U, 0xbccb4aabe3b39dbU, 0x3560ee25ca69be19U,
  0x71aeec668c164721U, 0xa6a416e3bda7905bU, 0xa5033eaa3efe3f96U, 0x639b7e5e94df13f5U,
  0xa344ae5548adf806U, 0xd91e197805d69781U, 0x207ecde33848b5bbU, 0x1d6ddaf25fd042a5U,
  0x9c5fd01e7fc4e942U, 0xeaf3531dd74f41c2U, 0x811c32b5521ab0cU, 0x9e1e55d00c630d59U,
  0xc06912fa9d390b3dU, 0xdaf72dc0634bae5U, 0xc7d5e1edcc50c89fU, 0x7162605261553e2fU,
  0xf7f80a9ca9d3ecf8U, 0xb0ba50cf4d0a0f29U, 0x8468dcc3a681ac42U, 0x3058b71ef736afacU,
  0x65e9c60d50c135a3U, 0xc9244d8bd3e33b24U, 0xd32e2df713c3efabU, 0x72050b6e3f31325U,
  0x6143eecf0c5f3d1fU, 0x21f3ff58e8a133a9U, 0xf3029cd31dd5314aU, 0xd018e3584111c926U,
  0xbca3a13dbd3e9a19U, 0xc649c8ae1be8f90aU, 0xc55a06254045ebeeU, 0xe315302d92ced77fU,
  0x5fad65504d9a20fcU, 0xcf16aaa41717ca26U, 0x414a02fa8e612e87U, 0x1f420e1ed363ec88U,
  0xeb03e2cdc1a49bc6U, 0x218e986ae5d6383dU, 0xc8272ec1816551bdU, 0xe8f11919452d55a3U,
  0x8aec471e6b832c35U, 0xe8dbc860eff1d296U, 0x11d745e3634997ceU, 0x9be222818443caf8U,
  0x6c557a90de04c552U, 0xd6b65aac438aad9cU, 0x6518cc5dc14264c6U, 0x9055ece1cea51fafU,
  0xe8d8d02bbd40d3c8U, 0xb006d9f1cce6f43cU, 0xe7ec20cf10cee127U, 0xe73b3ed4ceeca9e4U,
  0xfdb0643d20b0ed3bU, 0x4e9aafbb12b7057fU, 0xe0dfbdb2e9a0e8b5U, 0xf9e2be73d181eb1U,
  0x22727ac2c037fcfU, 0xdfd7ca02dfa7d860U, 0x36bdaeb3432319c5U, 0xf5d5cd04ee2743bcU,
  0x1ed8d2bd8e39de1bU, 0xf02031a3eaa143a6U, 0xb5aaa2bb0f90c3e6U, 0xdafb27e8a5e0a1b7U,
  0xef01c746af3bd5bdU, 0x3fb468309ee87fa4U, 0xf0bbc94012e52769U, 0x9d62f8c50b5cf26eU,
  0x1a0cc8f165be072dU, 0x32cbb7586964a227U, 0x7da42c4d185d4616U, 0xfcde1c60c93646a0U,
  0xffffe1c90000472fU, 0xfffff38c00004fd6U, 0xffffd1fe00000e9fU, 0xb61fffffd0eU,
  0x47efffffb415U, 0x2d08fffff7e1U, 0x269dffffe46aU, 0xffffb59400003b58U,
  0xc1acce35df3430b8U, 0xa4fdc84600cc50abU, 0xc43c1405164ed181U, 0xc8d21342520c10a7U,
  0x1415cdf1f56399c2U, 0x29f0d646a5125a9bU, 0x8c916a9295a749ffU, 0x73e592e623d5652aU,
  0x42df796b6a98a67fU, 0xcb1030e00a1808d4U, 0x1ab4ffded4212eb5U, 0xfd1ce79343bfa0ddU,
  0x52f9a70344615ec0U, 0xe6ec35a53427b7c5U, 0xfbbdbcfaf860c4eaU, 0xfd9ded816b05f213U,
  0xa64e407e98a301e6U, 0xee1c05d0baf1d3ccU, 0xf082d2673c5c30f8U, 0xdde50af0ec12610U,
  0xcc649dc7ae6642e3U, 0x17b302e426032c6U, 0x4d0501d4eca6b757U, 0xba7f57aa551610fbU,
  0x1dff36a14838aedfU, 0xb25c2d2f3983f712U, 0xced730e03beeb8cbU, 0x13d47f213cbd8544U,
  0x9ec50ff6b92f2209U, 0x34f75615efb0a5e3U, 0xc7beeab2eb5ad62aU, 0x2ee7b29b45d4b3bdU,
  0xb00a0bdbe1dbd83bU, 0xf57f2186c2cd41a5U, 0x28f048373af353d7U, 0xc86bcadad9c70ab1U,
  0xd0c788c09c615acaU, 0x16646bcd5a28f8bbU, 0xf9c0ca18ff9b40U, 0x2ed333eeca02e359U,
  0x275c22beb35e9a0bU, 0x30c7ace981e570dfU, 0xf539a60c484928d5U, 0xcbce44e2d2e00758U,
  0x3519f058484ceff0U, 0xa543f2438c45515U, 0xeae112cac01dd76dU, 0xbf514d13f8447f48U,
  0xfd86d54d1ed0bbdfU, 0x343a37b9fbaabfcfU, 0x2be2ddc05d2c22b9U, 0xd0090a0510d7fca8U,
  0xed0746344e129c14U, 0xfc4941813d572745U, 0x11ad3a690aa44898U, 0x9c4b02cabc00981U,
  0xfc132d98b9d09601U, 0xf86b1108b0e0ce08U, 0x4f4d0f88b3cf9ecfU, 0xa2e9b52cc1a6d8dfU,
  0x9a42123ece109ee4U, 0x4d91d40dcf61891aU, 0x1e53bf574fe017d7U, 0xe314ba936363548U,
  0xf42fadaa30a54feU, 0x447fe5d233c46670U, 0x84ade534d08fa510U, 0xe31d3dde70e54cc4U,
  0x980eabf6f54a23f0U, 0xeadbac8e831be881U, 0x8d46d775bd5924d9U, 0x176c50ab4ab3cd25U,
  0x26d024e90807ae11U, 0xb2224e568f22df28U, 0xc254cb2df5d04d97U, 0xaefc3a0f1281f83eU,
  0x1209f0fde54e9cb0U, 0xa29f21f1a7d6452cU, 0x3253e21dbc4bbeb8U, 0xf3d414f6c9f7aab8U,
  0x9ef598df03fee720U, 0x469cdd59d1ab065eU, 0xed3af10b42aca51fU, 0xa4b9c3a5cf7fa4daU,
  0xc407d30121c49f67U, 0x8341e15b419431aU, 0xcb0db925d9004eadU, 0xc504de2a1a05b4b9U,
  0x4d27d22a46d90418U, 0xe5a41006190081baU, 0x9f95910fea73d4fU, 0xcf27f5a459cd242cU,
  0x40cd211005aee8e6U, 0xf84f44e25dbd99a3U, 0x52c9127f32a540baU, 0x5231c5f607b624bdU,
  0x124100001431U, 0xffffe6ad000020dcU, 0x2aac00000c03U, 0xffffca3500001247U,
  0x44dd000006f3U, 0x2604ffffe1b1U, 0x307200001904U, 0xfffffc0b00001126U,
  0x2010cfa42c018153U, 0x29bd29da781d6c14U, 0x474e4ec97f998ca7U, 0xdd32bd364eb872d6U,
  0xc021b21a09a6d873U, 0xe2060f7025810d69U, 0x1513d5119ade7fdU, 0xa4d40c3f60445981U,
  0x5a5c3d686937fe26U, 0xbc81ad1fe42348dfU, 0x6324812992412622U, 0xd1c0a51ffa0c0d2dU,
  0x15f0383b9f16aaaaU, 0x4b11281381e6a88bU, 0x259b81cf86b4bbecU, 0xe6064745fcbf45cfU,
  0xd9037f3a66e49c3cU, 0xcca924dc0028e707U, 0xdb1a207fa854912bU, 0x6b1c190fd1e3f738U,
  0x7fd1e6fe67e04525U, 0xa0dde125335f4d2cU, 0xf42f813f07bdf7b4U, 0xbfd363c5d3dd1b9eU,
  0xf1c05e7386b0c346U, 0x8114c292411a05b3U, 0x178a5d48ca3eef81U, 0xbf0fb9c74b39e1b4U,
  0xa717f80feaf32700U, 0x96007ffaf3025f70U, 0x324648db2881089eU, 0x9bcf76446fcfa06dU,
  0x217f380a1d48e34cU, 0x96f7d714d605d2fcU, 0xa7c4b9eff9744f4U, 0x81967423fe45f425U,
  0xbbcda875752628c1U, 0xa4d5b8440d311881U, 0x2406d5d1159fd8ceU, 0x62445681463125U,
  0x951da4918f813137U, 0xfba1d3e84c75269U, 0x7f356ee60ff40e3eU, 0x92bb64e2621a51dfU,
  0xf87ff6b4eedf62bfU, 0xcb03b01916daadecU, 0x404815df2cc563a7U, 0x810f09c301c0b809U,
  0xe6caecb8317fad04U, 0x2b2e3223ba2d0eadU, 0xbb8c2cc01498b475U, 0xb236057f19fd309bU,
  0x4247bb70003743c9U, 0x81e18813cdb1aab8U, 0x52b1f764155518b1U, 0xac40d22451dc0d7fU,
  0xb30c77a4f70cfecbU, 0x15812e4a10c931b7U, 0x7571c9b5d5ae9cddU, 0x97e8a7e80dfd037fU,
  0x41f0bab2d99f717fU, 0xb6eb4e689b1b5dcbU, 0x254b7b077fbf63a1U, 0xa4b07f9218eec634U,
  0x91965afe24f77f68U, 0x5f601aea2361642cU, 0x1125e5788e812c25U, 0xa72211c6922839beU,
  0x7f6be3af3ab329f2U, 0x2d8cc3fc2a2e1abU, 0xd27381b982063cb5U, 0xa7ba1656a1cbcdb0U,
  0xd9dbe8cf09c05010U, 0xa3c8deecf3e93581U, 0xccb2283f127ff61aU, 0xf0749bb92254d134U,
  0xe113b382b151d6a0U, 0x2b1f550338cb818bU, 0x86a781765afdf0ebU, 0x43dbf34a9dcb1397U,
  0x4ad1ff3ba6a1de4eU, 0x26b724fab57f4abdU, 0xf0c109a6fde9de1aU, 0xfb21da3f7fd5c2feU,
  0x38e5f31edc81be29U, 0x42145a3faf1004aeU, 0xda6a37084543ff81U, 0x67f1af01bf7f5b07U,
  0x2d29b4dd437f7df3U, 0xdddf161160658754U, 0x113813f2b9a0ce00U, 0x2a31f2f1b5027fc8U,
  0xbf020981302ba7aeU, 0x49cbf0d7ceb0b212U, 0x2bcd4f72727dcc47U, 0xd355ec8167df4c9bU,
  0x97471605811e26c3U, 0x7eb661fc4ed52194U, 0xebf893334841ba1eU, 0xc5bd1b4581cdb346U,
  0xe76f50ece313177fU, 0x2744634fd0b26b93U, 0x351887f497c7015cU, 0xabd644292b047fd9U,
  0xc02f568155d773U, 0xa154774b13c84529U, 0x251ee9c2f7811dd5U, 0x2eff29d1c41013d8U,
  0x165d42bac5a0cb4fU, 0xc120b27f85726ff1U, 0xa4f5904f2e474133U, 0xddfd32b5d8467f36U,
  0x87864abab275beb8U, 0xf3810bc67ce7a251U, 0x8415568dba6c605aU, 0x7f48677a34300419U,
  0xee7c36a23056a3c8U, 0xd381ad050dfa76ffU, 0xeed0899194ef3dafU, 0x7f423fe5130a0878U,
  0xdfacbbf7f7811811U, 0xbd9e92246e520d28U, 0xe7954181125604U, 0x7ad138aab711dfedU,
  0xb4beea081a992583U, 0xe37f0ac708de5b2eU, 0x919f5a6424ae4bf2U, 0xcb7f0dc051058e78U,
  0xfffff858fffff4a8U, 0xfffff3d6fffffc61U, 0x4d7ffffeb8eU, 0x1909000011edU,
  0xfffff2abfffffb4cU, 0x1667ffffed44U, 0xc80000015b7U, 0xfffffc13fffff607U,
  0xfffffb1ffffff76aU, 0xfffffaac000008e0U, 0xffffe8a30000145eU, 0x93500000c38U,
  0x6b7fffffc75U, 0xffffeea300001204U, 0x10fc000003a2U, 0xfffff66afffffd35U,
  0xd78ffffde87U, 0x2145000009fbU, 0xfffff57d00001834U, 0x1009000017c4U,
  0x673000003e5U, 0xffffea690000028dU, 0x38fffffeb15U, 0xffffe7d70000180eU,
  0xb77ffffff48U, 0x1cbffffe364U, 0xaa4ffffea25U, 0xfffff31afffff96fU,
  0xffffd9a70000179fU, 0x262ffffffdfU, 0x9c2000013a0U, 0xfffffae4000006ddU,
  0xec0fb507bc14c019U, 0xc45cdb3db3dbe3daU, 0x4e11c8cdbfa7df9dU, 0xf1f8a157091e02f3U,
  0x83c25b6b115d103U, 0x55b8b42a07e78fa6U, 0x38357f09b019c1c5U, 0x20f7d5c027c6d3c2U,
  0xe627bb6fa9f10eeaU, 0xbbb249a9d1a9fab5U, 0xa769362be70f1ec5U, 0xc352130f04414eb5U,
  0xfa0f63c0cdf3f77fU, 0xe6bfa9db5dcf315U, 0x14aedf213759029aU, 0x6e73d7461b98e0dbU,
  0xc511be382ec93fe7U, 0x49d8e4bebcdef1c8U, 0x4cdc1a32d3069cabU, 0x44c4a902ab195109U,
  0x4cae594a3fae24f6U, 0xe01c04b83314241fU, 0x193e8dd2aee2a460U, 0x9ad0492dd7f194aU,
  0x9edfc1def9fd0801U, 0x38c67fc4163a18c4U, 0xb1fe294ef717dbf0U, 0x6e6b8d1434ed6e9U,
  0xfad7df4ba1f42c0aU, 0x60dcbb41f9d8facfU, 0x323e08e527e50b4bU, 0xac7525143f1a3f13U,
  0xf7b494cdeb24ded1U, 0x69f0dafe683d2dc5U, 0x25f77fdbfbcc130cU, 0x33a217a4952642dcU,
  0x848b2a77e03a27c4U, 0x26dc9d162420517U, 0x3ff44448f646bcdbU, 0xad09ad0df2d34af0U,
  0xe0fdbaea0ce724b9U, 0x43320c12371c372cU, 0x86bdd8b1362835e2U, 0x27b33306d5a027eeU,
  0x7ff587ae13dc9b44U, 0x1457c3080134da2eU, 0x2c0bc8fb5a99e24dU, 0xdd9a162c29f229f9U,
  0xc643ae2d36e535f3U, 0x16b303bdb145e62bU, 0x46ae22e7cf16c2d1U, 0x752ff8b7a8e63c4fU,
  0xc9c833f6f8e26de3U, 0xd2a141baa2ae6613U, 0x260c2618fd5b9419U, 0xd866a649f57f4decU,
  0xba18ded4a7ab4e01U, 0x695f41a151f3ba45U, 0xf505b6c40c81ad45U, 0x97c31e4a4d6b30eeU,
  0x463e2e17aa9e161bU, 0x3917e795bdcd280eU, 0x93c109e1f4101c63U, 0x3fd6aaf7cc42bdefU,
  0x1ca8d165eb697006U, 0xaa44301614f6122bU, 0x23fd2efc35f2695dU, 0xbb2ef9483d9f6f8bU,
  0x30d9c13d47ef27cfU, 0xbed97e1811e3810fU, 0xb88b1e891c2713f7U, 0xe24b47c7ac61ee01U,
  0x7068b313c5f0c6d1U, 0xb5d164f2f6baf80dU, 0x5f11f4fc0be75728U, 0xee044d77f3cc9b8U,
  0xe4e126a9d03de64cU, 0xd7a0f916d1def6ceU, 0x4719c808f75bc63fU, 0xb454f1c4c22fd8c7U,
  0x6b0f8ee3c2d82172U, 0xe1fcdeed340581ecU, 0xb7435002ad46e4d9U, 0x67404c0601b83034U,
  0x1de894bd47effa43U, 0xab2c34c340d9fdebU, 0x140741af4c69f20bU, 0xcad7134eafaeab37U,
  0x19d7d2057b2419cbU, 0x44035532a19210aaU, 0x5793430a52e341fU, 0x1af6255b68a2fcd3U,
  0xc157d4fbab41b453U, 0x53b4b381a70b53ccU, 0x980af3ec0211e336U, 0xea53b1dd0fec2de5U,
  0x3e6da417fa6656abU, 0x9caa0dec64189ab9U, 0x10643930da34fadfU, 0x52160ee2fefeeee2U,
  0x114c02e7a465d638U, 0x2ae2b81d37b2d9c1U, 0xd6bc65db601bc97fU, 0x9f6e336d0c4a9e7U,
  0x49000a7fe63217e2U, 0x38dee91d4b2ff9f9U, 0xefc927d602c43008U, 0xcbc9321f33f8f508U,
  0xc8ec1337e1dcfa19U, 0xdcdec01fe39fcaU, 0x26d206f310fdb8dfU, 0xd4dad5d0b126d6fdU,
  0xe11e324db33d0e8cU, 0xe12533f56b2bcf18U, 0xcf50194d247239d7U, 0xfc10933be9e776c8U,
  0xeca27fb62d33bf5bU, 0xc500458dfd92edbfU, 0xe5c8a8c1cfbeb54fU, 0x2c4f2aade1262d38U,
  0xe9e4abeeb70527fdU, 0x19e9150cea4e1dbcU, 0x16340f1ecc15e5f5U, 0xef1b2c239f8c2d2U,
  0x4f5fae80cd1da1fU, 0x90435d4c22d201eU, 0xc9005930ef14efd5U, 0xf22b7f16bc090f3eU,
  0xfc5d14bf50823e9U, 0xfe2bf7d9323a2b2cU, 0xb5dbcfe5daecce2fU, 0xb514191402fcf6f2U,
  0x21093907e4ff4ec7U, 0xf1132100d5b3812dU, 0xaf0a1e193c121110U, 0xf2d22527dc34aa32U,
  0xea1439124340074aU, 0x31611c3276c25b06U, 0x984591f009e6f201U, 0xede71c81434c1309U,
  0xb625d3d13562598aU, 0xd9a9b0befc9807b3U, 0x2cc87bd809b4f93bU, 0xf26ed0334ffe6fcU,
  0x34c9f1ec7fc01ec3U, 0xd61dba0f47dea9c4U, 0xaa2f10b80b796a17U, 0xbac7b3292128073aU,
  0xc849e74cb9baaa2fU, 0x4c16ebccc11edfebU, 0xbcc367cdfcbd01b4U, 0xf6cfc6bde2b8afe0U,
  0x2413275fbca7ea0cU, 0xa9385d4ae1810631U, 0xe7b7bc4ebf99c016U, 0xbdb4a5f6ca205200U,
  0xa03dfe9e08122198U, 0x311f3f953c8d8e50U, 0x52d2284d96dac8f0U, 0xa84beac6572a9ec4U,
  0xe7da2443adf1a2eU, 0xd403b0e6a0ba0d2dU, 0xdaec0597c27f1f22U, 0xe037e39e3f0ed34bU,
  0x4791f13cbdf43401U, 0x37e70c52de383411U, 0x38905397d8b0e859U, 0xd6c2a9bc5d453427U,
  0x26443559042e6f52U, 0x19f817bbce05c4b5U, 0xc363109cdeb35d4U, 0x2ac21a00fa0143ceU,
  0x409401f23528b551U, 0xc9c5690d93d14916U, 0x2f99b3d32f81c6c1U, 0x16b4eb1ee1349957U,
  0x6fd3cb4bd63bcdcbU, 0x3e391d03f814a02eU, 0x812ad9839e21022dU, 0xcf1292b75fdc6847U,
  0x6433411201e71013U, 0x6437105bcbf52109U, 0xfe039d2414dca1dfU, 0xb3dd0dbefe582239U,
  0x4c0a37409222ef38U, 0xc6085f54154e4d0fU, 0xea7f70b62b1f1ad4U, 0x3f34f2ca16d82aa4U,
  0xcbd61dfee9391c27U, 0xb4405b3bba9f180eU, 0xadac19a362d1b417U, 0x1ed9d9c6bfadca27U,
  0xe9dab7ff41ae20dU, 0x33fefdc6bf28f03dU, 0x57c3fabf51516b1cU, 0xc6294cf0bf2b955U,
  0xfa47eed8b216a8bbU, 0xbcf49801cf9e1d0cU, 0x990a25ba39aac160U, 0x48c817bf23ec007eU,
  0xe61c820a7f3a554eU, 0xbce32d12ddb83924U, 0xd9ea21fa46b5e9ebU, 0x2b42cec4f6bf019cU,
  0x2c25e24efd5902a1U, 0x1bab12dbdcb707a2U, 0x2e0f683cd9ed9949U, 0xffbdd5040c44f43bU,
  0xffd9e0bbc1a69920U, 0x97e9324aa61b00b2U, 0x24c8d8951ae95dd4U, 0x9edbfa521ccef416U,
  0x9aa650a94e4e91f1U, 0xf805163d1012c540U, 0x3195d2a909903194U, 0x7e37fecbfd6616eU,
  0x9de2418116962809U, 0x26cbbc00cfa6b946U, 0x57daab9ea62313cdU, 0x19a4403223ee10bfU,
  0xf6394c29f30b3b38U, 0xb9b1f5d1ab3b4fdcU, 0xa4a9cf9fd2e324f1U, 0x9f2121ddf30dcd99U,
  0xd1d8bbdb0f1c6a11U, 0xc3a1107d3632d55U, 0x3866c9e3af010e01U, 0x55c5040a26d2d6acU,
  0xcdc7520f3341f257U, 0xa8e215ff291e814aU, 0x93de29152733aeaaU, 0xf71dfdc3f06105d2U,
  0x3637a8f108a23f36U, 0x11bf23e0eff3f6f0U, 0x42ea6ce7c35ba63cU, 0xfe1fb6bfae2b13f2U,
  0xf406b054fefaf96fU, 0x36abcd7ad1e10e29U, 0xcb1a09c4818e4305U, 0x484d0d2840d83c27U,
  0x1778f46bd4da48f3U, 0x1f479da03999b80fU, 0xce0512d6fd7acbb3U, 0x24fd09a5c4972fdbU,
  0x12734c9c28dcc54U, 0x980d7f49ea262599U, 0x45c218dcdf8306fbU, 0x20dce1083ee7dfadU,
  0xaa40dd313aff20e9U, 0xdd1001da250cf6e8U, 0x59e84d192b4be105U, 0x7c3bfd79eaac10dU,
  0x39c6c9d904f1ea12U, 0xc06262f398144d3U, 0xe8c372c96550bc5dU, 0xc01137d1491be6ecU,
  0xeb0618a5970d4afaU, 0xff03fc81709702acU, 0x335937ac91c3dedfU, 0x13b43f02398b7712U,
  0xea17feda0a4f4bdfU, 0xa50fe0719e433251U, 0xc821e0f52412f288U, 0xe5b91a0e5be5a839U,
  0xb38ef6222e1301adU, 0xb2ec7c2be1ad91bU, 0x3c04903a5a26bed0U, 0xd429b5a8c7e438feU,
  0xbd0b55a06cfc8b3U, 0x512181cbc6eaf105U, 0xabf7a92cb601ff22U, 0xafbaea5bccb9ab4U,
  0x5fc4012dc3b6182dU, 0x24f9f402b8d695e4U, 0x5705b425f05956e1U, 0x500135a437e04eb9U,
  0xcc25a83838ad3048U, 0x9ff62437ab0a8138U, 0xdcdaf93d33ace208U, 0x29e42407a6e6a8f6U,
  0x9ff02ad9a649e5a0U, 0xd43ef5e7c01cc70fU, 0xde53e3fec0afcf93U, 0xd37f0c02d53ff90fU,
  0xb4256120c8bd92dU, 0x8e25c71df96bd7d4U, 0xd9325a170ddca5bbU, 0xd35da25089be1caU,
  0xedde2083dd6c2df4U, 0x63f93f811f0d5a1dU, 0x152692cca955cfd0U, 0x4a6616db06a919e1U,
  0xfa1552f8e622b9cfU, 0xd6bec611eaf8c478U, 0xdc28fedfb1fa2ccfU, 0xf657e1cdf0e2a2d2U,
  0xd91af930b4b243d5U, 0x8813fbe71eb1d384U, 0x32b3c43b8fb35f53U, 0x27023dda28db741dU,
  0x8100a6d510edbc8bU, 0xc7e0d02843eb353dU, 0xb11607434a4659bdU, 0xcec7dddf62bf6bafU,
  0x8ef19317887faa94U, 0x65331de5f75c4641U, 0xac066353411121f9U, 0x224fd99425133635U,
  0xc292791f4a52f8dU, 0xd93243c25299393eU, 0xf31dbda638c68b26U, 0x9b5089b401e70ae9U,
  0x7c234882de406aa3U, 0x2e33e9ad64bfdafbU, 0xd2fd0ad952db0911U, 0xb5c05e9d13268162U,
  0x298f0255a7efd1e5U, 0xca1c49aa2ef94ab9U, 0xb1f900a82b3f966cU, 0xac3e83448e553b05U,
  0x7c6013711dbf733U, 0x5beacbc119c3d236U, 0x2fb3cda1ece3bd52U, 0x2d432c05c8e9f30eU,
  0xb7bffffceb3babd2U, 0xe1c018812bddad01U, 0xad1c439bfdfe3703U, 0x2ba9cbf02bbd28d6U,
  0x19270fd1e3073817U, 0xead4eee4b0f4ebc2U, 0xe03c51e9037fedd2U, 0xcb04c7e353ea0c08U,
  0x23bedcbefbc61517U, 0xf2f7e3010a240369U, 0xcbfbffbc3802ffbfU, 0x1fffcf052334bc55U,
  0xe9cbc73e3141e636U, 0x4efdb3a74af10382U, 0xc0e442813f3af80dU, 0xe3301be157d9d703U,
  0xac0b4122185098dfU, 0xd3914baa2d093c3aU, 0xda1540602f88922U, 0x25d4e2342f21d9a3U,
  0xc7a70d372be2a4ebU, 0x1815ee19dfb4baffU, 0x37e22af70c9923ffU, 0xde22b8bef80a12ceU,
  0x36c920bafe351514U, 0xc82b81cfd007d93eU, 0xa72cf3062e07de2bU, 0x26cb2aaab23622e1U,
  0xe9fd3fc5cd9b7a4U, 0xb6da6dcb29abb9c5U, 0xb5521a0a3a211723U, 0x6dcb2eadfd42c38U,
  0x2bef0ed603d6db29U, 0xb2f5d5a00c200df3U, 0x3d04c425baf7e778U, 0x1d3f33bfe1138142U,
  0xe26c8f3e5e02e01bU, 0x22f11b1d6ef2a6e9U, 0xe861de08c1df2861U, 0xa7aa480d1ee7caebU,
  0xbabd617f11c143daU, 0xb6ea0cb996fd472aU, 0x39c5064d4af3f663U, 0x4efd78fcc94fbbbaU,
  0xdd92e30bd48ebf4aU, 0x53841cad5c2f2224U, 0xb8a3ecb39308c93aU, 0x4ca53381b0970958U,
  0xfc2d729750a30797U, 0xc3fcfb490a27becbU, 0x66bd67a4f594bca3U, 0xeffa4a9e0a0b57c2U,
  0xf1e73525c5cad837U, 0x50dd10bce141f6f3U, 0xb9a8b8f4af60d11cU, 0x812a29d9cedfab07U,
  0x44b8ca02f208fde4U, 0xfbcf18bdcd09d059U, 0x113f6cbe19cc25d5U, 0xe7c568fe1ee3b3ddU,
  0x13863bc22eb00d0cU, 0x3ed8161a9d0fbcbcU, 0x19f537e362d0070eU, 0x4cee02d73f41cc1bU,
  0x45a2b86d469481d4U, 0xdf250731c6db038dU, 0x4a200fc650e01ad9U, 0xe02323dc4b04b94bU,
  0x10c9ae1a544d94bcU, 0x5df40ae70a0b240cU, 0xa34516b2094d2a0aU, 0xc30603aa4b351a46U,
  0xe7fdccb2d4e507c7U, 0xde46521bcce8e54cU, 0x22e5c5407f35c5e6U, 0x1ad3723df3d7384dU,
  0x9712faf5dd3827cbU, 0x64320b45ea02a0c6U, 0x81530939ac1c0008U, 0xe4e0a79d3a1701e2U,
  0x1a402fd5ac8ddb37U, 0x407a4313f0a3510fU, 0x3834d0e92bb7f4faU, 0xefb4ed9e392953c7U,
  0x151b37f205dbd3cU, 0xe8d9cfadf44441b0U, 0xbdf037b7dec6ad3dU, 0xc2bc09fb16b6d1ddU,
  0xca525b59f9e6bea7U, 0xdfe9c0bc0e0e4fd4U, 0x130ce79b51e7ca11U, 0x31d4efbe47f2b332U,
  0xeab7aa97eefaf30bU, 0xb18f2efdc030ba5U, 0xe70bcacc4f201da6U, 0xf606d7dc174d65baU,
  0xabddda7feb36d0ebU, 0xb009e8ddf5a12c24U, 0x1e421c553ff22decU, 0x213be2f8bbc81648U,
  0xbe3bd534f6445cd9U, 0xba11cfa8996ff6a3U, 0x4c04d71334ff193bU, 0xd3d8afbcf4310feaU,
  0x2737a2ca045c086cU, 0x30ece0b3f550de14U, 0x8a8d7a29ea7e281U, 0x20bbc1f9fb2126e8U,
  0xbde2c807ea2b1b7fU, 0xffe9e8e5bfd43dccU, 0xb35829dcba38c5e7U, 0x384100ea3f39ceefU,
  0xdd111c1b90fb0aebU, 0xfab05240a4decde6U, 0x24014ae30deff125U, 0xa35411b65e03f441U,
  0x4ed4bf502323a320U, 0x36816de356b4a631U, 0xbbff67c625770d54U, 0x4ad1aea9be4fe5a1U,
  0xca4eca0b50fd54c3U, 0x3301f8b9573bd939U, 0xcfb8034e69dbb503U, 0x17ab57ee5fbb531dU,
  0x27f2dbe32d39d78bU, 0xf0ccb570ac12ce4U, 0x49fa3aaeb3b28b92U, 0x30d0b3477630773bU,
  0xfd165b49828157e6U, 0x1dce0f0f2d195164U, 0x26e0f2a7b504b05dU, 0xe7d26f3e0af7b74fU,
  0xdfd001f428d7aadaU, 0xf0f1f728d5e8563cU, 0x1e320f20d875e095U, 0x39f0f828030bfcccU,
  0x47d9cb1af722be81U, 0xda4a19ef9d50e84cU, 0xf8245b3e5ae1b710U, 0x4151e422c333414cU,
  0xfe39ab64baf910ceU, 0x5b55d55d42e30848U, 0x254d202f8123c69bU, 0x18abcb55349f4419U,
  0x25c64513f9f37308U, 0x4135fbee208bba9dU, 0xbc5470e532eddad0U, 0x1ee6114b616d93c8U,
  0xa03ff940e70cbafdU, 0xe4c9e3fa052ae9e1U, 0xb52407ed3e29c1d1U, 0xebeaa10901311c1aU,
  0xc6aa03dc0214c02aU, 0xf23481cc31f9cdf4U, 0x85211acdb412eedfU, 0x20b433acd6ec05b5U,
  0xda36e7c32eea7f37U, 0x31350eff250fdadeU, 0xd3123fc7e507cabdU, 0x2d17bfd52fbcdcd9U,
  0x2ae8ea5307c73455U, 0xb4e3f52920c61e3bU, 0xbcd4612f5210f932U, 0x32122de0ff05ef30U,
  0x3e3e4efac9ccb41cU, 0x936cd0f6422fafe3U, 0xeda955c74d3c4042U, 0x96130dc836a779eaU,
  0x505981c5f30f12d5U, 0xd5ee0d00f6ef28f9U, 0x1eaa113dd153edbfU, 0xf7ada7a64ebf9b1aU,
  0x6a9baafd2ba42eebU, 0x3ac9c273f340b54U, 0xec8a4084e1f06931U, 0x39712b32e5d367b1U,
  0x98e928f5502627caU, 0x1ec2e3a9345c9465U, 0x51ee812658e59ac1U, 0xe149f749535381d0U,
  0xb781bfc594ed2e60U, 0x295ce3019a1eace4U, 0x22c69556d3108118U, 0xc2511b049eb96dc5U,
  0x185e16ffe2ee4ec3U, 0x1627c70b101442e0U, 0x63e52986de128b84U, 0x23064bf1e72ab9f3U,
  0x57ffffffd6U, 0xffffffa0ffffffcbU, 0xffffff8dffffffccU, 0xffffffa6ffffffa6U,
  0xffffffe400000016U, 0xffffffaaffffffefU, 0xffffffbe0000000fU, 0x42ffffffcaU,
  0xffffffb10000002cU, 0xffffff81ffffffefU, 0xfffffff2ffffffaeU, 0x30000000cU,
  0xffffffdbffffffe5U, 0xffffffa7ffffffc4U, 0x4a00000001U, 0xfffffffeffffff9bU,
  0xffffffaeffffffeeU, 0xffffffaf00000074U, 0xffffffa9fffffffcU, 0xffffff8effffffdaU,
  0x9fffffffdU, 0xffffffb0ffffff8aU, 0x5ffffffdfU, 0xffffffe20000002cU,
  0xdffffffb1U, 0xffffffcaffffffd7U, 0xffffffa4ffffffb1U, 0xffffffe9ffffffa7U,
  0xffffffd6ffffffedU, 0xffffffa200000016U, 0xffffff36ffffffedU, 0xffffffadffffff8bU,
  0x62710d949106bcaU, 0x3c4415fd2137f330U, 0x35fa041a263be1e1U, 0xd2f905dfd604e91dU,
  0xe3b07f901193beeU, 0x26ebf9141df71af4U, 0x2f464bfe161f3f01U, 0xed1621ca1acc1aefU,
  0x212a32e6f9051006U, 0x260e02ec06011337U, 0x31f02a290e2ef728U, 0xe7171cef1f2400e7U,
  0x1f0415efe72f0e0bU, 0xf9e82ad1f5fddb1bU, 0x1c0e1f04eadb2af1U, 0x2a232939dd1208ecU,
  0xefd51fe22a09f815U, 0xedf011e2f01ee51bU, 0x1606200503f4ffeaU, 0xcd06f4f5e0380f2eU,
  0x50ff70adf34d602U, 0x2221e6141321132cU, 0xf826130311e31b06U, 0x1d0d172c24e6030aU,
  0x11707172fe2ecedU, 0x3cf0dee082a0dedU, 0xa1eecf3261107d2U, 0xd80d1709fef3dd2cU,
  0xcf02de7db360121U, 0x3208ef0d021b51fdU, 0x23e1f410e021e4U, 0xe1e70225fe13f2f5U,
  0xf2fce9270812e6f4U, 0x122e2a333a16072dU, 0xe7d21b131f38dde4U, 0xeb1f10f3e4fc2d4eU,
  0xefc325ccdc1019f2U, 0xf2ca242817ffe5f6U, 0x1ee908f4e622c9e6U, 0xd9ebf1f7ebfcc8f5U,
  0x28ebcadb2deb3718U, 0xf527030311f22316U, 0x12d73b4b021cffffU, 0xba232b08f7fd2612U,
  0xff2308fcff29f1d6U, 0x3e8eadff0e8ebedU, 0xe9e700fcbdf205f6U, 0x180fe509daeffa0aU,
  0xe1480422e325f50dU, 0xe00f4eade0c4a00U, 0xf8f115f42fd0131cU, 0xe7223b0ad6e6e4d7U,
  0x25cd21e8cf120411U, 0xd5f0e7d9090142U, 0xeb42e5d11df1d41eU, 0xa0be6ec2dfdd1f3U,
  0xe9001003cceaecd8U, 0xf2ed23b1e1e6f81aU, 0xfcdf181de2bbe120U, 0x8e4f0ffeecbf835U,
  0xf08e9ed1234ea17U, 0xda240f3df12dbce2U, 0xe51510df37ec2330U, 0xf3161b09d80901f9U,
  0x1506dbf8fdf827fdU, 0x2024ee3041dff9ecU, 0x1fe50931021c112bU, 0xf42fe5f700fb1fdbU,
  0xf3ea06233704d321U, 0xd1ee3a26f8db2af8U, 0x2434db0127e005ddU, 0xe1c6cc371bf6d305U,
  0xe5fcf02b4ecfeb03U, 0x2bd00d2826f5f61fU, 0xfedc142cf604e721U, 0x8e10028192927f0U,
  0x27e405eef920dc02U, 0x7042edaee220e18U, 0xf54bdfce19cbf231U, 0xd11ad32316d61ed2U,
  0x900ffd7f8f10730U, 0x1ee70f5d1e051415U, 0x1930f83c090731d0U, 0xc7e1292dcae14b0eU,
  0xf6f92ae0122ae322U, 0x19050703f619161cU, 0xc6ea1deb45c2dd1dU, 0x1114220a3b16e2ddU,
  0xc028f231dded1636U, 0xc031a0dd81e03d6U, 0x1232f40e3402ebfeU, 0xdcce1028e2e9e5ddU,
  0xd615e3ced0fa12d0U, 0xeef23f6e4f0140aU, 0x506c5d9e4311ad6U, 0xdc13d44ed24bd717U,
  0xc3e6db09def39519U, 0xc2cc0439e0bff3daU, 0xb3dde1ebdace1c1bU, 0x38d7d5f500deea1aU,
  0xe2ff0fdacfdb0a0bU, 0xd61bc5ecf9ffd8faU, 0x6e2f0fed6f5bae2U, 0x18cbf8fc070c0718U,
  0xac1b08ddd5fe02f8U, 0x1f2f13fed4d6d0bbU, 0xf7ce0cf4171ee3f6U, 0xe3e4aa0ad6d92c24U,
  0xc261bf3f4db2111U, 0xfd35ed11fadd2ef8U, 0xfedabe09f0f8f924U, 0x1edbc4f0f3160528U,
  0xf1e9f90e002e182fU, 0xd64616332c3001d1U, 0xe4cbe4eaf2391bdcU, 0x1012e2fceacd24e9U,
  0xd717f609e1fa3013U, 0xe8e3e5fcf3cac1dcU, 0xcacc140ded05db19U, 0x80d17062ef6e7f7U,
  0xfd10e2d908f51cdcU, 0xdf33dedbffedf8d6U, 0xe0f4e8fed9f7e51aU, 0x4d13172225f01ba9U,
  0xf8f7d5f9fe182822U, 0xe502cdfd20fbc0ecU, 0xdc2cef12fbf62ae3U, 0x1adf15f20b131dd6U,
  0xffc10df81bf7d71eU, 0xe7d2f3a2c4f4bff2U, 0x1a1fe5d01610132eU, 0x23f4f52cdfe6e1b6U,
  0xc272934edc90df0U, 0xec2cd4bf19e01414U, 0x2107e30e2edb130aU, 0x3cdedf9ea1035faU,
  0x2107f62f13e4fb09U, 0x14dc08f1ce112dc6U, 0xcef3e1d9fcee2b04U, 0x4b12dd10fae1ef0dU,
  0xd00e4f500f42706U, 0xe9ea0a202f11d20eU, 0x1717f8132907fbd2U, 0xe8e0f2ed1714e1deU,
  0x23c3e9ee24e5f007U, 0x6e8101e3bd3ee01U, 0x18ddffcad517f3e4U, 0xfcaafed11af3e116U,
  0x140513ef45142105U, 0xf02d2704e61b1a04U, 0xbd41bfaf8e7102fU, 0x290e080b07ff212cU,
  0xf4cc150210f347efU, 0xf6fecf21dde5efe7U, 0x2d1d1104d511e0eaU, 0xef14ccf62306d8ccU,
  0x1ff9030227e3192cU, 0x4e40106f81cff19U, 0xe3d520edfe110ce2U, 0xfdf3fadaf0e708f2U,
  0xd1fdf2e9d5131927U, 0x6000aded205001dU, 0xd92deb071f04e8f9U, 0x23f318051203e714U,
  0xf61e15e1e6df2d2bU, 0x9fd81d6d8e91123U, 0xeadaec17dce3f627U, 0xc36f0fef9070bfcU,
  0x1f29280ff0f0d70aU, 0xec43ecb70a1f3c06U, 0x17f9fbf41e12d4daU, 0x1640ea04f9d9ceefU,
  0x1f61df9120c0cfbU, 0xdd1fdf2d32e2fffcU, 0x6f5e90200230001U, 0x80610f6ddf70633U,
  0xf9dc200edc3b2aceU, 0xf108d8e22728ea29U, 0xe5d8e1e7e5fad0e3U, 0x4811fff62710c22fU,
  0xe820e0e51bd242fdU, 0xf82ad6e7d4d40ce3U, 0x1d6edf0c91a3206U, 0x71bda0bcfeb0cf1U,
  0x10ff08de131eefedU, 0xfedf7de0d0ef709U, 0xe6ebfac7c7e0d0c2U, 0x1e70becf9f41419U,
  0x1904311709ee0440U, 0xcbe8d53afd0efc2eU, 0xfae01c18f9ca000cU, 0xe0913bf339e1bbeU,
  0xffffffb400000049U, 0x63ac210c672ec781U, 0xbf52cb1ab92b8d2eU, 0x4d40d10c3b213dbdU,
  0xb908a7c4f83739bbU, 0xd0a56db82be72449U, 0xef2b7f2c200f12e0U, 0x30f4492d45a9fc5eU,
  0xf20ef015debd0781U, 0xfdd8e89dca021ec8U, 0x2f1da219e00152ecU, 0x14b8ec245d030930U,
  0x3d10a35c769d4d04U, 0x3f03a67f930fd84fU, 0xbe1bead1cda6d519U, 0xe70fe32091d4180cU,
  0xd6e8b081e6ac0614U, 0x8d2ad3d81f2dbb26U, 0x449bd83b2cb5665fU, 0x14f9d046b1f211bfU,
  0xb5ecbc295c7f5649U, 0xd9e4f7bdb92ed7b2U, 0xc525e4443befde27U, 0x2ea1b381a3e1df2eU,
  0x7fa7df5628f44616U, 0xdada31120f37fd32U, 0xce10b6e61309fe35U, 0xd1c0333febc6560bU,
  0xc838df12f926d14dU, 0x5fcc4bc604e27f55U, 0xd8494a30bf7521ffU, 0x75b6fda6153520d8U,
  0x689afa5feb3acfe2U, 0xfba77abd9be0c681U, 0x1c48403174fee7bdU, 0x6a315cf3a2e32831U,
  0x547f0e492160eb36U, 0x35ef150693bb2756U, 0x30928c5cd8f1684aU, 0x3c7b13f2bafbd685U,
  0x5dd462c3cad88125U, 0x340d44101b004bdcU, 0xd8227f5dbafd115aU, 0xb9e40d54f26bcda9U,
  0x450a57fb4f3a96ddU, 0xa74b2c085867d765U, 0x16b3f2bdf4026a2aU, 0xa526dd67dd7ff013U,
  0xc11702f9ff292daeU, 0xbd5b34870786a449U, 0xc028be7f10c0dfe9U, 0x6caebc5324f5551aU,
  0xa020249d16c9c32aU, 0xa12095f63c0dc07fU, 0xf49d2038180f18b2U, 0xdbb53fc9fb9539feU,
  0xdad1fed5e729c728U, 0x23592a4b7f52183bU, 0x82dcd5522bcac03U, 0xbf89f23f076235e8U,
  0x812ae4017a00b311U, 0x81ef2b3df5bfce37U, 0x50e217ec16321501U, 0xdbee37b7b7d21bd9U,
  0x42b3ac36f5c19d28U, 0xbbda30cc9e5a55b6U, 0x25041f0deb6d167bU, 0x23330f0620d13ed8U,
  0x4b508fada7ff041U, 0xdee8fb101cd1d929U, 0xdc30df62e71dd4feU, 0xf7d34915dd022f81U,
  0x4f053ec8a4d8c562U, 0x34ee25b4bef76b92U, 0xe7424228d5e8fb68U, 0x3313cc81041aff7fU,
  0xf518d348e9d319d1U, 0x3ac931262b2ef3f6U, 0x431011f91ce6fee9U, 0x6f32e8db073a35e0U,
  0x570c55d1a8ef2f7fU, 0x1003bbdc678cbea5U, 0x341e6de00a8112eeU, 0xb9302c11c7e027e7U,
  0x2b28dde7d536003eU, 0x48452a30f5fd50edU, 0xe0301acccc72c4e8U, 0x28a3a9c7ed3d5dc4U,
  0xe9813a7ff4dafaecU, 0xcfbcec05ea5010beU, 0x1f3eede14e9cf1c2U, 0xcffd2cf90bcd3cc5U,
  0xf3210ce781db2e37U, 0xef2c17d43f140a44U, 0xdf359820faf80d32U, 0x327fcdbbf2e4e5c2U,
  0xda6031be9afb2611U, 0xf8705623cc01f6cdU, 0xed05a29693cebde2U, 0xf10ad45abd16c606U,
  0x81e3e3fd421d5beeU, 0xd51bb1371e663de2U, 0xeffe11054ef137c2U, 0xf200d9d5ec3a7c11U,
  0xcddf4e05257ffae4U, 0x975429fa48dc39caU, 0x50cef0e55b81cf5fU, 0x44c75c13a502e399U,
  0x73ad984b0f425154U, 0x81ff646401165801U, 0xd52a4accc1c41dbeU, 0xf3d46b10fbeda427U,
  0xd08c83d6f20e9deaU, 0xbb813060a674749aU, 0xacf455fcc6d60869U, 0xf1f4034897c2b37bU,
  0xdd505e2007a6bc41U, 0x4fc21a4314145677U, 0xb7d01936017f2438U, 0x190baf44f01d3e5dU,
  0xec4348c227d4ccbaU, 0xb5bc2fcc8c3a4e8U, 0xdc0506f911813eceU, 0x29f9d75aa844c20aU,
  0x7f3c39b629cb20f7U, 0x1bc53fedc5444cc9U, 0x17a74a48a6e10247U, 0xa0aa5c1f75cd10d8U,
  0x214ff4b97a810f15U, 0x1f859df7e1f0cb6U, 0x2011d9261bf55ceaU, 0x99087fc849faf4caU,
  0x259023f3b32b6U, 0xd2e1603565e8faf4U, 0xb25bbf1ca4812514U, 0xfb2b298623d75212U,
  0xe20746cacc9cc657U, 0xf002b72d81093a19U, 0xc1b7ddc43b30da3fU, 0x38200036db2d36b9U,
  0xbdd22d11eae627eaU, 0xfc57e83894b29a50U, 0xa0d8fc81dba4fb46U, 0x29398524649857aU,
  0x9081016e4bff61b9U, 0x4c86f22a5f4eec82U, 0xf081ba35e11ddd2dU, 0xe03e2e193f14f4eaU,
  0x15b5b53c1f1e1743U, 0xcae35df4c7a3b4b3U, 0xbdbf2cd412290fbfU, 0x3419fb4dcc112f3eU,
  0x151b7fb308d20a9eU, 0x1f784b49e01f9053U, 0x5cdbe7b549fbdf17U, 0xc28ffcc93447f31U,
  0xaea2bfa260ce2221U, 0x55370a423705befbU, 0x37f25d012503d48dU, 0x7c9dbfb2810c464cU,
  0xcc1e1aae4cbe5381U, 0x97af290f12c52703U, 0x4d033433bd36ee28U, 0x55dd8cba38bb4000U,
  0xbf90f5e4d935bf52U, 0xef1ace962fb70142U, 0x93ddc31afb097ff9U, 0x6ee1cced3bf3eb91U,
  0x423f836fde098132U, 0xbe687c168f2f085U, 0x16d7dcb705fcc1fcU, 0xf4cae3d2ea0cba9cU,
  0x81f037ecf308c0b8U, 0xbd54f2cf15e81d3U, 0xc947f8975402147cU, 0x3bbd9bd2314578e1U,
  0xc028cee05910d6d7U, 0xd8b8de3bb5f72300U, 0xe100fb30502a21a7U, 0xa2ca301d47df7f6cU,
  0xe79bf136641a5699U, 0xa11c065a0aaf8127U, 0xdf68ecdfccf239f3U, 0x1ae60e0014a8d629U,
  0xc81a573e453f32ceU, 0x317ff7ca43b410c3U, 0xbd05f704e03b29dfU, 0xf419d17f083b4520U,
  0xc70c6229e6022708U, 0xed7ff90c0b1aca14U, 0x8be11003181eff4U, 0xff053e068437cfc5U,
  0xffc0f9c83c27bec8U, 0x6523da061ef61a24U, 0xc40f06e2faa04047U, 0xcc6704dd30d56d29U,
  0x963bf481471a6daaU, 0xa7fdae0c0f7c3b09U, 0x3181d5e9cb9fbc0eU, 0xbfe164b3b5c6d202U,
  0xf4b5b3edefdee2baU, 0xd1b9f010ea263844U, 0x2cf5e081c64125e7U, 0xc08112dbaa3e4450U,
  0xa0d543414635d7c4U, 0xfe2e0d25d3c5cff3U, 0x61c6dced3aff439bU, 0x2c04ba812a60bcc4U,
  0x2e0f151a4b05219U, 0x50eca1d2ba2275c4U, 0xb1452ccf6d445310U, 0xf82781f353e73cc5U,
  0xd38ffc290916dfc7U, 0x9d66eaf941063c3cU, 0xd4bed3d3d726da1eU, 0x1303a3f481214b46U,
  0xfbfcfecf7ecd750U, 0x100000002U, 0x2U, 0x100000000U,
  0xfffffffbfffffffeU, 0x1ffffffffU, 0xfffffffb00000005U, 0x500000001U,
  0xfffffffcffffffffU, 0x300000000U, 0x500000005U, 0x300000005U,
  0x300000005U, 0x100000000U, 0x200000002U, 0xfffffffefffffffaU,
  0xffffffff00000002U, 0x700000001U, 0xfffffffffffffffeU, 0xfffffffdfffffffeU,
  0xfffffffb00000003U, 0x1U, 0x1fffffffcU, 0x100000004U,
  0xfffffffbfffffffeU, 0x4U, 0x500000000U, 0xfffffffcfffffffcU,
  0x1ffffffffU, 0xffffffff00000003U, 0xffffffff00000000U, 0x400000001U,
  0x100000002U, 0xc03a0beffd124257U, 0xc74f5609ae23df6bU, 0x43d835a54f0d9c13U,
  0xac7f05e454b3b307U, 0xb215dba5b8f5c454U, 0xab86380d61571e25U, 0x8d0ef2ac401a0628U,
  0xd48951b8ca27c0b8U, 0x8f28432ce9980f45U, 0x1034c0b4a69c204aU, 0xf0759258c08d2a35U,
  0xe02003b557d9b26cU, 0xbdb0819bbf9ed0eeU, 0xdebdfde7c4082023U, 0x15a287510b0a4746U,
  0xa7ad15ab6bfef41aU, 0x283e46cdaa05fb45U, 0xca47acddabfaf4e8U, 0x5aea529610bd5ac4U,
  0xcfe933096a9c3981U, 0x531b211ac1dd0e2U, 0x278fe70505b8e714U, 0x2a104e5d37e1bd74U,
  0xb8f646a8ecbd4933U, 0x743baa8bae4cc5e8U, 0x5358f1c9b6459b40U, 0xe3f7ad02df09e78eU,
  0xe11ee5eac302a1c9U, 0xec66bdfb3d471db6U, 0xee117fb7b3ec04d2U, 0x2ddea8c82f2f2ddfU,
  0x4ba3ebf4741957edU, 0xb704ed3ec2a8d549U, 0xa219a12dc5f34fbcU, 0xf3094c70171be25eU,
  0x9d27f0baed9e40e8U, 0x271895f3f0a9f6abU, 0x8171f6dee8fe199fU, 0xb0f42a459f442ca8U,
  0xdf70c3ec3623ab6aU, 0xbe08fb131795eb56U, 0x25187f42b323e7a1U, 0xfd2ea8b2041e4a48U,
  0xc107c9f26193ab3cU, 0xe9c634eccb6084bfU, 0xec0017b902c058c2U, 0x64440035581ddbd8U,
  0xf2f0cb42d01c3d0eU, 0xcc5ef1ba2c71f63aU, 0xe066eca0560a6f24U, 0x355711052a77a544U,
  0x68105f4616d7cccfU, 0x2d204711e7d9db91U, 0x981dfc16e83adb02U, 0x7403cf8e24818b0U,
  0x7f52623e2ecb83c0U, 0xe326d617b6db2dfcU, 0xd166271192f54c03U, 0x7035acf0d69ce81dU,
  0x41c4fe20c21a3c5aU, 0xe281d0dd1f70ef7fU, 0x5ea8b5088ad7e858U, 0x138d736c52827bcU,
  0xe5c2efe60cf99434U, 0xb309e57fe36db8bU, 0x6059a2afd8597045U, 0x28bc0f2b14da079aU,
  0xd230262f31c81d05U, 0x32fee813f5d357f5U, 0x3fe24d04be2bfa66U, 0x4f37340accbb3ac9U,
  0xe1fbd7a67f5cb8ebU, 0xeea99f3b47b85e99U, 0xc8f4929dc2ea1d2bU, 0xf92f0ce781eeb303U,
  0xf3b950d970043f19U, 0x1aff44be0be3d40dU, 0x528db0fab537ab5dU, 0x1ac3434659f83eb7U,
  0xecd2e2c3aca26d16U, 0xc6f85d9adf37deacU, 0x9a7ee6b4bcda195U, 0xe9182b72312b7295U,
  0x95ebb46a2b9ab01dU, 0x33efbaa23713b26eU, 0x795bba2e2ffc9050U, 0xff3a3743966de62aU,
  0x6989fb4bbfaf814fU, 0xa03f370df29892e5U, 0xd0ee81b525fea8daU, 0x11c439d699aff19U,
  0xf1edb00d88454ebeU, 0xcf8e8e411e0e334aU, 0xdcc946a6bfe22b4aU, 0xfba2315f1ae65231U,
  0x8b70ec8d59b89d98U, 0x3df2dfbe77491ad2U, 0x205533f2d423562U, 0x2f321cd75de13ef1U,
  0xba03b3ee52e19e2eU, 0x100eab7f5949b145U, 0xbfd3de3f462aca25U, 0x120959e72693c114U,
  0x553c61854d611bbbU, 0x3317bd3dc405bf2aU, 0xfee5d030f1f9c905U, 0x4aa56806f3272ffeU,
  0xff7f2a475bac4d8aU, 0xb23db3520919aee7U, 0xc420162b6798cf08U, 0x9eaaa10838d3ce1aU,
  0xc9f210d96224db0fU, 0xc0f3b7548625cebaU, 0x489a663fe0bb313cU, 0xc1f0bf1295aa5446U,
  0xf0f135d54f52a75aU, 0xfda32c6e0ddb21aU, 0xbdc8d829d92aeb6cU, 0xa3cea1fe3f7fd347U,
  0x59f71e708a17fe1dU, 0x95d45ecdfca54b3fU, 0xefd859b1a80fbe1bU, 0x32425cd5fb2c9e16U,
  0x91f0cf5f07ef3127U, 0x8e62609995122ca4U, 0xa19e523bafbe3ac5U, 0xe258d2df64b282e8U,
  0x81cb099b7bbb300aU, 0xa5d000024acU, 0xffffeb4effffff35U, 0xf2e00000a6eU,
  0x81b000015dfU, 0xffffe296ffffec9fU, 0x2c6fffffee7U, 0x1006fffff7adU,
  0x1b6d00001976U, 0x1873437f4d36d065U, 0xf47751b938153f02U, 0xe2650d13b7d8bf48U,
  0x89e5c9c99e896ab2U, 0xda9f9b9ee10c0569U, 0x7ce2abd5073c3027U, 0xbb9e41af121c329U,
  0x5bd2e6b6223f2b55U, 0xdb2f5b4047a6b51U, 0xef5a7f393aec1f27U, 0xc2fea759057225f3U,
  0xdc03ca62b80ed4a3U, 0x78b24be71aaaa1c9U, 0xea40c0f54dbc9c25U, 0x5a1945375aed40c8U,
  0xaf8bf755aee92eaeU, 0xabbc0381ca7199ceU, 0xe8205e9713c34742U, 0xdce2cdb39db29dfeU,
  0x81aedfef5224f1a0U, 0x24b919a155be930bU, 0xf53df0156b5a0579U, 0x5d65562af829c891U,
  0x9c3640fc0e10aa20U, 0xf1b88ac6b6a660efU, 0x375bc8b42b320a99U, 0x5a3bf5b44d6c73b8U,
  0x9cad12b1dc21080dU, 0x815232f8fdc1c607U, 0xa4242845fbeb8225U, 0xcb69b67c3ab3ffebU,
  0x35dbbcc99af1db5aU, 0xb75929f93e2b2521U, 0x815f1d90be4632eaU, 0x1626b34138f12fa8U,
  0xc3c9da365b069dc6U, 0xddc9e70955f33681U, 0xd853e9e34d483d43U, 0x8ea65cbb52c7562dU,
  0x8fb330488f60c2ecU, 0x38d9c1a5b271ea06U, 0x3cc3fdd6cea4db93U, 0xb56a48210e589ec7U,
  0xce0a53d29b4aaa0bU, 0xd6ee4ed3a2c0eacbU, 0x59e9e5b203c8813dU, 0x3da8da1296c74a07U,
  0xccf250646cec3ee7U, 0x30f4c35e27f301c1U, 0xb5190e0a3eae98b4U, 0xd4d633480001aab1U,
  0x96c0f64f6d1bfc06U, 0xb82ae89f814575abU, 0x371ccbc138a7d095U, 0x813d0969d91d111cU,
  0xd45046b272b64c05U, 0x2bef5524445f1409U, 0x63f2ac6d8fdbb5bU, 0x2dbf30c9230019d2U,
  0x4aee1a524eca9b2bU, 0xd4359cc0fd020fc4U, 0x374269212d4b3806U, 0x148fc691a3e2e768U,
  0x58eaa2bd8bc3815bU, 0x84134b318f9e9cdU, 0xe3a69abcd4d9671U, 0x31135b38101db725U,
  0x631a23ed12f219cbU, 0xb51cfb48422f54daU, 0x7fae113c2721c013U, 0xcaff0b51a9b9c114U,
  0x16b92c1236cfffb6U, 0xf2fed0b73cca1bbbU, 0x4988588a2c4c2279U, 0x9993cd4af05d90f5U,
  0xffb5b1c4bbddf77fU, 0xc325512b28b6ca18U, 0x2ec451b91a095f6dU, 0x3c065674dae372acU,
  0xe1d8c62afb4d2bddU, 0xfb5a61007f3c552aU, 0x3d715e68c637a9cdU, 0xde4f383f1000ab5cU,
  0xe8bf4bd282c6623bU, 0x30ded20cf518c6a4U, 0xf13832a0cdc5c706U, 0x36520d01aec6ad05U,
  0x39f684b94260ee46U, 0x367f4b2bad4f5243U, 0xf45c250ff9fa55aaU, 0x3a81b2a2ee5ca5f2U,
  0xd8090561f6d4e112U, 0xac2c2fdf2cd2fd9aU, 0xb6ebf3a61bdd4f64U, 0xf4f98e0e5fc42aecU,
  0xf29ac20be7100161U, 0xffffe5bafffff461U, 0xe31000013cfU, 0x77f0000125eU,
  0xe8e00001739U, 0xffffe27e00001fb9U, 0xffffea610000049bU, 0xffffd00700000486U,
  0x11f1fffff436U, 0x81504d1f8a534dcbU, 0xc701e2e2c8eb22a5U, 0x7cb6b1109d8f0308U,
  0x10f41828e5d0d77fU, 0x781e853d8d3ac4aU, 0xa8c514b9164e38baU, 0x78373e88cdc588f7U,
  0xdfb784517f232f86U, 0x57f68106ada6330fU, 0x3d262f2bde2e5704U, 0xdb207f94116499e7U,
  0x2a6d50c4b837dae6U, 0x813f4d6b4da7e813U, 0x5909e9b0cdc608bdU, 0x1e21664651d2b273U,
  0x5ae226bedf371581U, 0x8166ca0b48d2aff3U, 0x10072565fc1834eeU, 0x2ff1bcf067956ac0U,
  0x6307b36360565f7fU, 0x61fa7f3acb0e4f3fU, 0xa3d1cb34d4306d61U, 0x964f2413782e081U,
  0xf02961db71b9d3afU, 0xcde8b41428bda41bU, 0x7f5f6238d744c757U, 0xeb19e6c3f774b6cU,
  0x6ebe47b5dbdfb481U, 0xcd0a25b2232242c6U, 0xbb81ebee1910252eU, 0xab7fa8b660de212eU,
  0xddf0346508cf6204U, 0xbb7fb5aeb70f44b6U, 0xf8425a46233dc2efU, 0xcb8198300e2c4c32U,
  0x8ee2ecb53a13f32cU, 0x50b45222cb7f7723U, 0xfdefce1a2042b6b2U, 0x5f4c1236f45e8d59U,
  0x3cba3a448b16a981U, 0xa2b37fc154b3061aU, 0x74484fe6eddcb50dU, 0x81f7af54cc32bc44U,
  0xfcdc4c1bdf934fe6U, 0x81668682a50ee292U, 0x7249d0619b6a4ac8U, 0xdce86aa89c6de068U,
  0x217568811d41eae1U, 0x100678c814569cf0U, 0x3015ac2d81e13e24U, 0x9bbd986ee60223d3U,
  0x2570a319e9927f51U, 0xe290daff7d7f106dU, 0x1d40234775e1e239U, 0xf4490840e418dfaaU,
  0x7606cd7f4511cc5dU, 0x2f7f05a3e1bc3838U, 0xf40d99bd4fafe31aU, 0x48421f041a7fd547U,
  0x55fd14e52cb718fcU, 0xfc07e63f7d475239U, 0x15e04eccec0816eU, 0xff911ce064c08d3U,
  0x158107e52ef49cafU, 0xbb003d197f14b811U, 0x3372a5ea15403daeU, 0xc08e916db83f36baU,
  0x26e8e7c27f4ef6bfU, 0xd539515d811a1258U, 0x2471c083c5c09ab7U, 0xc5cdebbef41060ccU,
  0x1e66357fd6aabceaU, 0x4f1826378ac9cd66U, 0x72a81d7f069e1325U, 0xae0cf6378e011cfeU,
  0xe311a181a58f49e6U, 0xf10581c4f1b15b3dU, 0x47eacd2b65dc3c06U, 0x3df9a11f995535b9U,
  0x1a29a17f9c211bd1U, 0x454bc9f1545a3661U, 0x7f56641ef1c1b5eeU, 0x8d7fc52b0fb0e328U,
  0x6a0ab45f2026d2afU, 0x819430041c31d10aU, 0x24cde6a3d5022d10U, 0xc9d65d506bfa3970U,
  0x1afbd97f16f1bd1dU, 0xd313b2aec6bdd738U, 0xf54a7ff26632d5ffU, 0xcf5aa6caa4f1e01fU,
  0x653631734ada057fU, 0xa71b64e9990c255eU, 0x7fcd3764feef1bfbU, 0x99281537aac8d770U,
  0x7ff61bf92af0eab9U, 0x7f26f1aeaa1b5b52U, 0x370dbdc361a241b5U, 0x3b4981b80b76452cU,
  0x5cc4c59522f4d6b9U, 0x171add5be681d215U, 0xfe1c4ee44b6efebU, 0x104715c031e9d3ebU,
  0xa1343660dfd7fa7fU, 0x4e2b6f9627fb4c7fU, 0x2ebeacb52ac6d6abU, 0xf013488d097fe479U,
  0xc8df655eb40fd788U, 0xd90781b11c9702a6U, 0x55b629983c2b5140U, 0x493ffa9acf653140U,
  0xe7354f7f1089c246U, 0xdbec713608a29881U, 0x2d3c000f0a2dccb0U, 0xb38d389168c8fdcfU,
  0x26114e6aa53b7fc1U, 0x15fb9332207fcb4aU, 0x4ccda2efdec43bfcU, 0x38eefeba551744b0U,
  0x811ff4ac05972610U, 0x4c34a0987f323860U, 0x4467075291c0ddd3U, 0x81e443e5362856f4U,
  0xbde2f4f8d4e89aceU, 0x681dda81b3e479c7U, 0x7bfc84271436a71bU, 0x816d415a483cce2aU,
  0xf0ca513da228201aU, 0x56800000684U, 0x4fe00000fe1U, 0xfffff9dcfffffbb4U,
  0xfffff6000000045cU, 0xffffe7c0fffffb3dU, 0x189ffffe9ffU, 0x114fffff677U,
  0xfffff635000003c2U, 0xce0fffffac0U, 0xfffff8e3fffff587U, 0x5b6fffffebbU,
  0xfffff9d00000071cU, 0x1a1fffff9ddU, 0xffffebb9ffffeaa2U, 0xffffeb70000000faU,
  0xa30fffff15cU, 0xb99fffff729U, 0x7100000888U, 0x16b0fffff1c2U,
  0xfffffe57fffffeddU, 0xfffffcddffffe5a2U, 0xffffeca400000e0dU, 0xffffef6d00000091U,
  0xffffff69fffff0d4U, 0x3e1fffffb61U, 0xfffff4d7000008e4U, 0xfffffbd1fffffef7U,
  0xffffec4700000d51U, 0x7700000427U, 0x842ffffff0eU, 0xd73fffff353U,
  0xffffee7400000080U, 0xae5953beaec1f7bcU, 0xac0fb209c32ab6e1U, 0xaabfdf4c0bf50fffU,
  0xd5f5ae7b8143d162U, 0xe5be448bf831cffdU, 0x930b381fa5e3ca48U, 0x563df55252dfbc9U,
  0x1403720ef1d09abdU, 0x8d0d703fc2690478U, 0x5422df993b260f6aU, 0xf175b2c1ad559e1U,
  0x1e7718af58aea425U, 0xf0948360f07f57ddU, 0xfee517e946501683U, 0xfa9f3be6240bedd1U,
  0x3a4aee5da1810753U, 0xd941c2b2973da411U, 0x9e07676e9e7f4654U, 0x2a502c4b38a12ec6U,
  0x94c6545067ec2242U, 0x26c3ca2df54b2e70U, 0x5598ff54d23a85fcU, 0x4fb3d54be4d64452U,
  0xc573b0a467f25de1U, 0x7117155bd2360bfcU, 0x21bb642be0c50efU, 0x162c4330931acbe0U,
  0x15b939e9c80ffaefU, 0x116ba24a69b272cU, 0x5081c55142e6a8b7U, 0x96c12e080534b006U,
  0x51a3c77412522c20U, 0xdc96ec6a3461fbe0U, 0x2aaaac5598715cfeU, 0x1ddeed912b4d19e3U,
  0x8138fd2ba144104bU, 0xf6fdb1b834e94cf5U, 0xcf14d5eba4068b30U, 0x5e504535df9763bbU,
  0xfc2d638687653beU, 0x3f4be5c9eedef6f0U, 0x6a55cb9944f7aa20U, 0xc761f65903f1a46aU,
  0x12eb467022be90dcU, 0xf4cb0d49e3fbe0cfU, 0x5664055850d71e4aU, 0x99c3d69ae07fc871U,
  0xf4d7345687e4552U, 0xe4d5edcc36642e3bU, 0x2c9352fe63f4cbd0U, 0x3f18afe581951fadU,
  0x231d71f30d38f55bU, 0xa43f65c1589c4d1bU, 0xc4ce2df1119366edU, 0x88f701ffb950a4c3U,
  0x3b4ac21369f79944U, 0x6ad411e02c010730U, 0xe605d64b47f443baU, 0xc8583a52affb60daU,
  0x291d1131b2f22d1eU, 0xe6cc7fa9a973b4e0U, 0xb960034f00378cebU, 0x2b0d09cd56e6d0fbU,
  0x6a261de6cae33162U, 0x224510afe89b9e2bU, 0x348e5a6218337563U, 0x6bd39ac309aff4c5U,
  0x2b023d7ff70a3bd9U, 0xca29b2b15516df77U, 0x51843d446c0cf232U, 0x3246a7460c242eU,
  0x64a4ac73d74ac5cU, 0xfd3a726c9acd1a76U, 0xe1889ac5994296f7U, 0x7f424af1c9b95b75U,
  0xbf2bdc9eacb034d6U, 0x3058efc351784897U, 0xe02a48b607f73e36U, 0x65ac154b2825eb4fU,
  0x24716832bf85ec12U, 0x233926dd22a2d41fU, 0x361923f6bce6250dU, 0x83ca20b2b01972cU,
  0xb0065641d842ccd6U, 0x958148f85fcdbb52U, 0x5822b348e31f00f9U, 0x57d8680e11c2f9dbU,
  0xf4ec32002352d6d0U, 0x83590166237fd02fU, 0x18df5be53c9eff06U, 0x21e6fcee1d099aa9U,
  0x1f4f5bf9f2dda5c5U, 0x13ab453201f85d5cU, 0x2710d729cd1cd956U, 0x2638cde9f57ef1d9U,
  0x7cddb8d70218fd05U, 0x49895ed7b149faafU, 0xa3c87f3bae249862U, 0x19a14a35adcecf59U,
  0xd48c1f467e143e69U, 0x8d2c0163d7e6d3a8U, 0x99533126623a2923U, 0x2c68c9d10a30e900U,
  0x585daf58114b2dc4U, 0x277d27150ca26728U, 0x9215c1448498dbaU, 0x276818ad7d063922U,
  0x5bffb4932edd4d56U, 0xd63c4f254c1f9370U, 0xab657f69f61f904dU, 0x78c7d1d3e3cabae3U,
  0x63e39fce0dd9131cU, 0x3a866ff2bc07eea4U, 0x60424555845c2a9U, 0xc0aa63c528ada37fU,
  0x1a4a620dba6c8d67U, 0xe5346ceb2dbbdcc5U, 0xbb145304c6056164U, 0xcea4f5cba2b2d3e4U,
  0xd0d0cbcb588faaeU, 0x329f3a69ff5eadeaU, 0xd8ab0656a3f9e9cdU, 0x550036d73ef3c9a6U,
  0x39b5b97f06f5b1cbU, 0x9d4cb1d293bb29dU, 0xc1384f4252ba1fc7U, 0xb7bf0fa6c5114172U,
  0xf50d51a82b2b24abU, 0x58354beaf0dcbdbbU, 0x6645af5661010255U, 0x20ff62fde11581ddU,
  0xc3c912258f4c02c2U, 0x3a14fcafc441b7feU, 0x394df97f43fcf00U, 0xd4fcd5ce19e61b9bU,
  0xd4c8bcb7dcb2b7bfU, 0x8e05c1cce0368128U, 0x5cb9160722ca0af5U, 0x65f5ecb51d24c4d5U,
  0x27cac2c6fd593b0aU, 0xd1e636eaef421c29U, 0xf31383a438635fdfU, 0xfceb34b12d22c751U,
  0xd0fe2c95216ebe29U, 0xc8be054c1a7f42b4U, 0x3afb56a5da371db1U, 0xb7c54fd3a2073fc9U,
  0xf12b05d421f6539bU, 0x186151e727bbe8e4U, 0xe5de17441db82aU, 0xf8abcb0f1ebc7d63U,
  0x4ab9c7ccdff4d430U, 0x4c17eb5789a399a9U, 0x4dea8f5de0a003U, 0xb598b7ef6aaaebbbU,
  0xe2b070b2673b5f3fU, 0x9cdb49997d8f640eU, 0xd21d97ea09f704c7U, 0xbdb42843e17f1c21U,
  0x4f964fce8a779657U, 0x1f0507dab574e16aU, 0xda1c2727d3de1ef9U, 0xe59e454fa03d1d71U,
  0x814906f1a92aff01U, 0xaa4ea90d06c6b697U, 0xfddc05ac1c9bd9efU, 0xc690af9138348879U,
  0xec8b07e303a5d34dU, 0x2a1d0bd4bfdaa4fU, 0xd859f0e46ccfd65aU, 0x13975d9331c9435bU,
  0xa3ae435f9b419941U, 0xfc90e7596f6551caU, 0x265f8195b811d1e0U, 0xe7423c5c9674cc0bU,
  0x2645f6fceab3fbdeU, 0x11fdba29e8a1e518U, 0x68ec2c33d6adb29cU, 0x3c20a0ec03f68197U,
  0xabd9d5fe968e3a53U, 0xd8cd04dad3d1d1e1U, 0xcbefc1cc842c128U, 0x512ea8d692b7600aU,
  0xaab0a856164256d0U, 0x6b175357c181264fU, 0x23b2bb8f2119c814U, 0x245b26bf3592b3c3U,
  0xcd5930ee3ec5194fU, 0x93f21ce2a74ef250U, 0x3d5f3edd9d33fd9eU, 0xaf0bdcc5662736bbU,
  0x63e29d5b8dc8e025U, 0x81d2203609dfd8a9U, 0xff4fbce2cc5416f5U, 0x48a94b1f45c44be6U,
  0xbcca37e4250bdac5U, 0x56a6c9ad229d7415U, 0x4f3543fd154dd750U, 0x3fb7fccdba3b3954U,
  0xc3e2fa0659f12332U, 0x3050d2b14455c365U, 0xa441f1efbf22e31bU, 0xe70d2aa8d14bc62aU,
  0x9317046130465161U, 0xcbb2ffb658c00b44U, 0x81cecfc802f4df09U, 0xa9e2f33e0bf19bd1U,
  0x300b4a24f1dae4e3U, 0x14ff0e819a9a2dfbU, 0x33edbdfdda3ee3e5U, 0x94bd37def0f93aaeU,
  0x2cb835fe0919076bU, 0x139b549901f0cdeaU, 0xfeb93d2b98982328U, 0xccdf4d45da51a4f7U,
  0xd889898a6cf1ba79U, 0xb543b1990b46d33bU, 0xc1be0144abb7d5a8U, 0x28b7dfc61bd72df9U,
  0xe54313d340c6cf3bU, 0xea4ffd06b425b9dcU, 0xf0d91e40ea0199daU, 0xb643abd3cccd41dU,
  0xa7e73b0f2dc481f2U, 0xfe30d4709f00b3d5U, 0xe4e1f3fb0004203fU, 0xfb7b3ca561bca513U,
  0xd834ee6cc62110c7U, 0x3e1dc1eaabbc185dU, 0xf67fa23ad62e5cbaU, 0x28f9c594d5398863U,
  0x28d3a51d50a74bc3U, 0x55476c4a6f583e52U, 0xf3f7dc30f1e0a442U, 0xca3aab9ba16090aU,
  0xc9f99c19351328a9U, 0x4fdbb6098763c31aU, 0x152f8c4caae4b2a5U, 0xcf7f7b96d3a62cdU,
  0xbd1365b59a337f02U, 0x33c8e6a5b2c471c1U, 0xd2b197c9f391b184U, 0x3e770e92cdcf446cU,
  0xa40a28473c904130U, 0x384293ff06f26eaU, 0xcc551c412e51924dU, 0xb36eb1ce88f144a7U,
  0xb27fe5c3dcf81e7U, 0x6f17ce0eeff0437cU, 0xa6ab53a644e63f81U, 0x6ddc89a90fe147d0U,
  0x2a5fc93230cb513eU, 0x4d503ac9693f371cU, 0xd1080979453fef68U, 0x4c949aa3aa1cdbaU,
  0x136839042332dbffU, 0xdc1841d0003e6608U, 0x816377c1c4da1756U, 0xf0654515b9f4ba47U,
  0xe36cc5581e91935aU, 0x992eda30c2aa452eU, 0x9e0c637f29969c31U, 0x264f9b59817d0d62U,
  0xc557e90c36068d03U, 0x4142fedb0be6e63dU, 0x63e3e7fff483526U, 0x4cfdd1e1b8daf24fU,
  0x8862a1febc0b3001U, 0x2b3d28fdb05925c9U, 0xe4a8dc35a1c3d2b0U, 0xeaf7c3233a3317fbU,
  0xf60f3de0df4c1f0bU, 0x85a608e4f9a2b333U, 0xa5b54d4e8ea50be5U, 0x973edf561321a276U,
  0xfbbe38e223f6574cU, 0xbec6aeed0995ae7cU, 0x81dae13721fced61U, 0xffd65db394dcdfd5U,
  0xaa15baf09944b959U, 0x4dd2f74f02b1e2ddU, 0x4de0a2c2032003afU, 0xdddacfe5b0a8b023U,
  0xeec3ebc510f81accU, 0xf5ba7f3228e0be43U, 0xdb20d4a1d636ffb1U, 0xa2015e2d4f4a01acU,
  0x48013fa123ce311bU, 0x7fafaa196fb4f23fU, 0x2861dc48fde5fa43U, 0xa3f2fe0b1ce6f7d4U,
  0x8f7b9b108d1c4f54U, 0xb06ddbe010a14481U, 0x3d2b601b5552fb3bU, 0x428958efbd3babf0U,
  0xc6aedb6676f8a3d7U, 0xacc32bdd8906ffc5U, 0x812452d3e6b63b5aU, 0x26c498ca2c425199U,
  0xbbb3211855094c30U, 0x92727d50406f035U, 0x4ec94aa9b123a7b8U, 0x3b1de1263fab49baU,
  0xdf4cfed1dcaf443eU, 0x39f93f0e1fe1ccd9U, 0xcdf923ffc0ffc09fU, 0x42d40fbddfaa02d8U,
  0x393dda26bdadddb1U, 0xd6097381ea4acf42U, 0xd4aed1c2cb07271dU, 0x2713e9b4bb25cbc1U,
  0x7a847bf3c4cebf3U, 0xe35f4d2e4311ad17U, 0x6561dc5297c23bf9U, 0x1db0ed0bb4659de5U,
  0x4881f5221339b534U, 0x5644625563c01649U, 0x27cb0753183bfdf6U, 0xd8470eec4039ee07U,
  0x333a9a61f7fd1aaeU, 0xd344450fc11b0953U, 0x4a1fac57a45e2e9aU, 0x562940dcdd9fa2cfU,
  0x244e6212ff30ee24U, 0x43ea21cff5c00c7fU, 0x91a1a6f73313fe6eU, 0xd7d75d48ce24b242U,
  0x43b6f41e96580310U, 0x12b7c88be71bcebaU, 0xac2442bec1374fdaU, 0x42ef088b331e7848U,
  0x4c7f6b66b8b3372fU, 0x8c76713c457ead25U, 0x8923f8bc8ac771a4U, 0xc92b333dd0c617d5U,
  0xbb6572cbe20f9b3fU, 0x460dbfabc12deb1U, 0x3ed794c8eb8af149U, 0x3c31ae0fe8e79877U,
  0x8fcfdd43fcf50aedU, 0x3799bbc624523f23U, 0x7f392d38934ee31fU, 0xaeb7c6b69b5d4f34U,
  0xf1b9b45ea10b5f60U, 0x22fff6e6fe5ed998U, 0x12359b12c91c27ebU, 0x6e599e493506351U,
  0x7f8ffa58c72c20aeU, 0x29d097f01df6a4d9U, 0xbaf0dfcc66a0f714U, 0x17cd0ec2eaf4695fU,
  0x7db8b8c4efb09130U, 0x32ca0b4e81d06258U, 0x52d145c6e64e1829U, 0x14cbf0730fb5a9a9U,
  0x6ebc3a5abe8e623fU, 0xe8cb6f3aee26ed40U, 0xd0a05104a15181cU, 0x1ac6dd9addac290aU,
  0x5d08dfe5e4eaa6a8U, 0xc908ffb1d98f464dU, 0xf5294ed9c0fc890fU, 0xb05f2a4714b78966U,
  0x2f34304fc2bb0b31U, 0xc681bebc3db9bcdeU, 0xeeced3b0ab07159aU, 0x213d401413b59014U,
  0x374397fbe753d76aU, 0x434bdbaf29e83050U, 0xfa2336b30308256bU, 0xeeb9a4ac81e833dfU,
  0x484ee2ea4dc1cecaU, 0x23a8f1741bdfcd48U, 0x6ad0130626c701b0U, 0xb672440b2d1ca2bU,
  0xdcd006323b1454baU, 0xc5abf6b709222c4fU, 0x3f4acdfc096d2472U, 0xc9a87fbd40ba4c63U,
  0x636b656002470431U, 0x64f1a8acbecaf9f7U, 0x212c30c90bb11e12U, 0x1278100feb981610U,
  0x38e2df27a9465596U, 0x81dbad73101599fbU, 0x6d63338b8ea8919aU, 0x57cfb6783abaff15U,
  0xf194157d24d20068U, 0xf492d6d55242f54aU, 0x8e0baedc25ce2936U, 0xb1ce8f8db4d4da21U,
  0x239723766f8b4c4cU, 0x1035505c2060f164U, 0x6856024603b9bb97U, 0x59445781b5c829U,
  0xb0e5405690a79593U, 0xbbdaaf808cddef5U, 0xa41bed317ea354b0U, 0xb9a4a62509730299U,
  0x7d08dec56fe5904U, 0xb723f1a8da5f3dbbU, 0x17fade9bf429e824U, 0x116ade7f293e151fU,
  0x5834f731bef7399cU, 0x31a7d90c6ec0e316U, 0xcfa16200aad2af41U, 0x462a4e9a5d420241U,
  0xf7624b2e07d828f4U, 0x39f13f2a22504e13U, 0x59e851baedefe24bU, 0x283994a9b93becb4U,
  0xd59d28e3e40ae505U, 0xf24b350dcd4ae369U, 0x4d1df8334ef77fadU, 0xe9374435595ed3c5U,
  0x65dcdb35d92e3e01U, 0x57e0f3125929bf62U, 0x2cc40bd1e6f8b50dU, 0xe4b634c5c0aa4a52U,
  0x8e6fdb8812ec646U, 0x4a59ed53b14d95ceU, 0xb3b953b7e8d50ffcU, 0xe3eff89facb0da5fU,
  0x22cf16441f1f3802U, 0xc53fde3fb2ce1e73U, 0xd74ee66a37e26d81U, 0x9494e1594d02a6efU,
  0x2214445bd63c694eU, 0xb3db7f802a3bde6U, 0xc80d5364573f0af5U, 0x35bd7856507334e4U,
  0xebb81991d441c661U, 0xc282fcb14adffc94U, 0xb1f1a9b7bc69bdfcU, 0xc951484057df27c1U,
  0xa46de34bf66e583cU, 0xbed29b349a0dfb0bU, 0x4fcea73d4ef02394U, 0xcdc034da7f142d45U,
  0x8bfda6463feec97U, 0xa8d29944769dfb21U, 0x6e0f382fdf64cdc4U, 0x1f27cdf3aab2c33fU,
  0xaf321f3d0a679bcdU, 0xc21a21a51c3e81f6U, 0xd9d01c20e0c84249U, 0x24672caa58a6ca42U,
  0xdfe6b227384010d0U, 0x616e58ac5c733badU, 0xfecdabd4ffc1bdefU, 0xb8d6b9a8e24bb45fU,
  0xc3f515233608251cU, 0x6df76bd8d57fc3fdU, 0x6d0de2bf99ac1409U, 0x93b2e943150f0700U,
  0xdee29943a654ac99U, 0x974ed7549b2e4df9U, 0x2cd2e838abd24c58U, 0x24bfbd99eb15aabeU,
  0x8171e6202d219454U, 0xb7fc1d4943a1e3bbU, 0x41976a03f49523f9U, 0xa9be13363f082c94U,
  0xdec5df57992151ceU, 0xbadd6fe9f76db99bU, 0xca554c350f171a6fU, 0x30b12567b90fbb5bU,
  0x6d918fea342f9eb5U, 0xb9092ac145245133U, 0xb05cf3257ffc5deaU, 0xd2c4e4efdc8f6108U,
  0x2d464dac3fdb06e3U, 0xc7ca512d139d3525U, 0x238eb4ae9fa40e08U, 0xe063c33d696fc7c2U,
  0x975b57663df210d3U, 0x8bc6e581f2cda394U, 0xd6980f54910e8257U, 0xc6cf009c332a325aU,
  0xa212dcf4b0df4459U, 0x59e1306ba6ef1ccdU, 0x17de2f5a35117f4aU, 0x1019959643c88e27U,
  0xe8ad611f2921afdbU, 0xa2e8bbd9dc4af70cU, 0xda33a7da5141e8f8U, 0x5213f844adbe1fbdU,
  0x594e3bc6affa54efU, 0x35e87f56dba1d1e2U, 0x2bd5ace7d61508faU, 0xbb7daec8c36c8843U,
  0x4ecb031e32d60130U, 0x54e1fe14496f9da8U, 0x52258368bd525413U, 0xec5a46b9fc5e48d0U,
  0x7ee253ba37f0e44U, 0xf50d81dbf9633c4bU, 0x93b46390fec291e4U, 0x97b1c4d26b2f30a3U,
  0x4945b94e356fd82cU, 0x1f39836cd549a875U, 0xb702828e4507ce1fU, 0x53147a22b3522e09U,
  0x126b05cef30e4dd7U, 0xcddbdae7dabac28dU, 0x3ad947afea01763fU, 0x8ef9a54cfed831f7U,
  0xff3b516995b58a86U, 0xab40b3ffc64a7fcfU, 0x7e49276e51e54031U, 0x231c19ec1d0410f6U,
  0xd51797a5af53651aU, 0xcffffffe8U, 0xfffffffe00000009U, 0xffffffe50000000dU,
  0xfffffffffffffffdU, 0xfffffff1fffffffaU, 0xfffffff6fffffffbU, 0x7ffffffdfU,
  0xfffffff3ffffffecU, 0x6ffffffe4U, 0xfffffffafffffffaU, 0xffffffe9fffffff5U,
  0x1ffffffe5U, 0xfffffff9U, 0xfffffff0fffffff7U, 0xfffffff4ffffffe4U,
  0xffffffedffffffeeU, 0x10fffffff9U, 0xffffffe700000012U, 0x7fffffff7U,
  0xfffffff2fffffff6U, 0xffffffddfffffff1U, 0xfffffff400000004U, 0xffffffe8ffffffe3U,
  0xffffffedffffffeeU, 0xfffffffa00000006U, 0xfffffff700000005U, 0xfffffff7fffffff6U,
  0xffffffed00000015U, 0xfffffff9ffffffe8U, 0xffffffff7U, 0xffffffeeffffffeeU,
  0xffffffe9fffffff6U, 0x26bf310ebe52e50fU, 0x2211bfeedb2b5d10U, 0x678d54bd24c62743U,
  0xcba010f3f5fedadfU, 0x4cabee810baa3329U, 0x41bbdaa38a226eeU, 0x376a9f4d2341baa8U,
  0x9dfe3fde9d5c1069U, 0x81e5e836f43fc9ccU, 0x8656edfce3399bc1U, 0x194244c54c3cf4f1U,
  0xe3e1f6e0090eccceU, 0xaec4064b3122ae9dU, 0x38571ac7475628b2U, 0x521654d9abd538b4U,
  0x5340da88cf6ff6cfU, 0x9bb9bb31a1f4b2b4U, 0xecc00001bb46fbf5U, 0x18e108e2230c81fdU,
  0xc0e1d83307feed52U, 0xdab31dd1dcbc0ec1U, 0x43b0c3fc9211715U, 0xc5e22e2dcc45a1e6U,
  0xbe124606fcb448acU, 0xa507d824f3b1c6a4U, 0xe90b49c110ef28ddU, 0xd0e9379cb8ead7bdU,
  0x190755acebee6747U, 0x1856f50115a2e0d0U, 0xcb7fa9b34652d602U, 0xffdc9c45d2e30454U,
  0xe641647253e66c0U, 0x1e042eca2bd4d8d6U, 0x1e55cb29d7b9e455U, 0x43c5c40dcb7f2cd6U,
  0xd23859f2ecf503f5U, 0x1be4036333fb47f5U, 0x1621d12ef75061fdU, 0x17d1de2dd0c7fdeeU,
  0x254e0d280eeb4ec5U, 0xf6ebe7a5e03668f4U, 0x62669ad0cd2acbafU, 0xc63a9cdaf8d45f81U,
  0x47388ee73036b557U, 0x302ab94cbb3a57cfU, 0x3ac0a3a22cf964ccU, 0x58b3352c4c10172dU,
  0xf41a4b4bb005d1e1U, 0x3d387740cdc8b601U, 0x3abcd00a38fb70faU, 0x897f2c61566a3469U,
  0x125c741b3a2fe6eU, 0xe30745fbcf10955bU, 0x9cebe9659ef37290U, 0xfb89092d7a058abU,
  0x8277fd2819a4cd05U, 0x63816045a4b09a9dU, 0x1be8b9ab0403a145U, 0x2347aeddad4a993aU,
  0x370d46c313ec4d05U, 0x3506c29df7cb493fU, 0x66e29523eb88ea16U, 0xb18c06434dd85ef1U,
  0x2232ce5db5c2a8e3U, 0x293eb5e9a9e6b608U, 0xe5561756da57b75aU, 0xd5f9d360e9ed039eU,
  0x532bd405baf120daU, 0x30bd81f0daa4f823U, 0xedf606bab251d148U, 0x15d10a2b2229ffbbU,
  0x30f74d35c6c61debU, 0x3ac5cc1b1ffb4e5cU, 0xa6a53cc713690315U, 0xfe5a3f3d32f5cfabU,
  0x3adedff0631b6114U, 0xc4ae5256617ff3baU, 0x6673bb42cfc4754eU, 0xdbe4f025f5101002U,
  0xf8dfc769f0511110U, 0xe9f3190e38ffa547U, 0x5343ba61b304915U, 0x2ef202a33b81a418U,
  0xefc1af42d59aba29U, 0x371a19f4affee1c3U, 0xf1efda3917d64b1aU, 0xcb02af9b18159a9U,
  0x43e03045bf459f9eU, 0x5397a223b735aa62U, 0x98143a4b0c33cbffU, 0x5f1d42b7d5387a28U,
  0x934b0a60599e517U, 0x397652c206de08ddU, 0x241c08279bbd5681U, 0xa275356c33c6ab2bU,
  0x21166d3f2b48c357U, 0x4818bdee6cbddc4U, 0xb9c2b356358f1fa8U, 0x54152bcfd0c2ac6U,
  0x9165b32b42130fbdU, 0x549a7d108bfb54bU, 0x1406ca1499e7f915U, 0x1c30ded2c1f85ab1U,
  0x5922f3e6fee8aa15U, 0xfe521fc9c9e2eee6U, 0xd5b05e5404a6d414U, 0x2996ce443aa01128U,
  0xceff4fe626180020U, 0xc80cc4898192d028U, 0x9118edd9e73edd06U, 0xe94cfc868920be34U,
  0xb2d3f936c52e3fcdU, 0x505a40fc47150784U, 0x623cf57f11619f1U, 0x9a10e1c1c71f0057U,
  0x63ee10b2b045fa89U, 0xc61528aaa620455bU, 0xc54aeba6e50961d7U, 0x15a46d964542f11aU,
  0xcfcbe759453a7f4dU, 0xc6221d31c422ea46U, 0xd4d5e5d122df0aaU, 0xa00eb64d7424d738U,
  0x38eef3bbfce1071bU, 0x54d2e738f97f9edeU, 0xa8d81dde0d0ec6a5U, 0x3e253bc62827bd75U,
  0x34edc3a7ca43f3b3U, 0xffffe4bbfffff746U, 0xffffed1d00000ad3U, 0x1c00ffffe93bU,
  0x2381fffffa93U, 0xffffbafd00002eccU, 0xffffe00900002873U, 0x2d3c00003108U,
  0xfffffea7ffffee0eU, 0x3ba2eba38df7fdfU, 0x4d8c2949c2da3c2aU, 0xe5fb5152034851a0U,
  0xd0f4eeac43c11fddU, 0xa29d544c1150aeceU, 0xc0926817dc17863bU, 0xa0abe44e1cd1cec0U,
  0xeef1d1c44964575fU, 0x9ab08eab805c606U, 0xfde67f1adabf5242U, 0xe514dba7341cf907U,
  0xb0297923c6cecde0U, 0x22f115ff45ee98e9U, 0x2ef90a30f8e12213U, 0x56c76563dc83ff38U,
  0xf70ddff165f0f5c0U, 0x43cfb4f7ddf6258U, 0x8498cb3a84ab3881U, 0xadc064ba7a2dd101U,
  0x81d5b8e1c549fc12U, 0xfd8373efcbb953e3U, 0x4a58b1585f54d548U, 0xa448e54e292c61cfU,
  0xef1f1738bb56631dU, 0x2042d8a8b69f27bdU, 0xd5384841c311e8acU, 0xddd69b9ab3d7dbcbU,
  0xb6c620635a3423e1U, 0x81ac99cca1a30c04U, 0xdabe04c7b6f3013aU, 0x6bd51b9c24c7c9f9U,
  0x3ced560c0dc7da26U, 0xf653f3119fc5b81cU, 0x41aa7bc4121894eaU, 0x59a8ec4a9038d01cU,
  0xd61fee97dad281f6U, 0xc55e377576cc2b21U, 0x7f19c2e051fe0715U, 0xe9b7cc5f4f9c528aU,
  0x6f6ff38b1d023eedU, 0xf9e513a252ef1212U, 0x301382ba9dc211e2U, 0x4c38f8b639b5f895U,
  0xbaafa7ecdce89aefU, 0xc2278e035e5de229U, 0xde45c4fb382d4201U, 0xf7e2a4305c7f0db7U,
  0x23d7cf1ceaae428aU, 0x3b810ecc179521cbU, 0xa714fbb35f4e35d7U, 0x54e40132ce126afU,
  0x1bd04b3fe54ac76eU, 0xff2a441bd88aa4b7U, 0x516f4034edc3347bU, 0x18022017eec00421U,
  0xf7384981320fda31U, 0x43b9b0c14fb9d821U, 0xdc92b99171ada08U, 0x20b04bacb3f0d23fU,
  0xc01f139a144beec9U, 0x502ee233de2ef24cU, 0xe805f349b212b4bdU, 0x368ca60b2066d1b7U,
  0x679f68816aa7ac93U, 0xb934e7b56e2adca9U, 0x1960f598b5b97820U, 0x8c22ad5d4ac74201U,
  0xbc8cd40ffa1f237U, 0x3f6c60f206c77129U, 0xac3381024f28da31U, 0xf3dfa51102183e55U,
  0x312298b7bd27e4dcU, 0x4c46cfae0fe99694U, 0x5da1d6d31424370U, 0xe3d31d9f9b20befU,
  0xdaf289ccad2a16bbU, 0x31accbadbe93228eU, 0x81ce9d4fb53ea82bU, 0x552091085867e033U,
  0xa48ea7f33441c2eU, 0x8ea4c4d685e0b688U, 0xb3bc0c3703d454eeU, 0x756b2f7d683ff20bU,
  0x93032c1be066f115U, 0x3ed4da39e47fec20U, 0x6be9c99c016055e4U, 0xdce53ce9ef4a0df0U,
  0x6ac698329bc2acdeU, 0x33f7eb0515b82253U, 0xa25eebaac34a5adcU, 0x5e09aa32e190e926U,
  0xffdb7ff4bfdbac14U, 0x3c8f00d8e97a2ee9U, 0xc6826535d22725c9U, 0xadf8b0cb90578559U,
  0xa7c2b10ab6786a7eU, 0x71400000067U, 0xffffe853fffff947U, 0x1cfd00003abdU,
  0x1a67fffff677U, 0x1200ffffe6f6U, 0xffffffc8000012faU, 0xffffeb0e000028a2U,
  0x10530000015bU, 0xc64b3295bf12be18U, 0xc753bf417f10251eU, 0x332f0c160c3fb47fU,
  0x9928d11dbddf3fe3U, 0x6bfc60b017e381e4U, 0xa35443f1e7ca9026U, 0xdccfda92484f81c3U,
  0x9b5c16c7c8ba96ccU, 0xbe477f0c0e495232U, 0xf406b2af9dcb7b51U, 0x524b17c21b2a19f1U,
  0x23cf75dd140ecf81U, 0x567f9f8fa666c122U, 0x26d29d7d7f18e10U, 0x2e5be0931bb1756fU,
  0x4717db3440147f35U, 0xdc1445e23bc9e940U, 0x7f2ecf0179d63ff1U, 0x719fa3ea5d4bf859U,
  0xd45a810bce4a26b0U, 0x7f23aaa2f805e80aU, 0xee852422cdd2afc2U, 0x231c591ee5cfa567U,
  0x6a67d2f87fd5c3d5U, 0x1540ffe50d8137c5U, 0xdf6190ccf7ac3fdeU, 0xe4f75dc9da2332e4U,
  0x3288b081e2005c0cU, 0x6172832078e17f89U, 0xafe460371ed951a3U, 0x534fe8142d49ff3aU,
  0x9d45e12f7fea7ac9U, 0x2ad40bf543b5d3c6U, 0x7fec4f2fffa39664U, 0x259f44c1bc1b3bddU,
  0x7bc8d4cd47f9ec6U, 0x1048d8220327997fU, 0x3301f52adce431d7U, 0xe025cf32b415ba47U,
  0xebab582bc081ca59U, 0x6f4c2905d87f0683U, 0x11c6d81238311016U, 0x42bc2d1745b85ef7U,
  0x4f042c685f819adfU, 0x7fe0c6035eec8beaU, 0x2ca5d3f7325135c4U, 0xa5c4c7fe5b22df14U,
  0x141d02087f0d25bbU, 0x13d4aa7ffe2a0d10U, 0xf7f00bc0a356aedfU, 0x52f22837e6350a37U,
  0xb120de81d8f8f83bU, 0xaaf48c0228814d36U, 0xbb87eb5419f03a08U, 0x2337f467badd5baaU,
  0x16f6af477f36bbe2U, 0x53342090b6a6cd47U, 0x3363efdfaffd297fU, 0xb17c1e0d7f4f65c3U,
  0xa324969f170f2ccaU, 0x64aef74bce99cab0U, 0x2a810e1a688f8f15U, 0x5133245cef37f0aU,
  0xe6060fcb03f0311aU, 0x6de7a62e2ba7053cU, 0x59d44c397f194d5aU, 0x72b87a548b0f14bdU,
  0x35ce7f6b720c0bb3U, 0xb4c42cd9cec602f8U, 0x551205f10581a706U, 0xe34b212f7f25feb8U,
  0x140b0ad5fe042156U, 0xa947457fa121d82eU, 0xbe17a9bec7ac2661U, 0xdc30506add9fb67fU,
  0xb9217d5b2d9ca759U, 0x95abd80e68e3a881U, 0x74d8d059009906a7U, 0xddde5076ec39d327U,
  0x2cce160c387fd18cU, 0x9b434251c3fa2f00U, 0x22c0817c6871db6aU, 0xf2c681f5a71b62c3U,
  0xeb25d1fdb84c2d5aU, 0xb9beb13d05f52febU, 0x5c1e2bf7377f1f37U, 0x7f428bbfd1ec1bd1U,
  0xa65cda1fd59017f5U, 0x4bcab07f4977c349U, 0x242d4de80b0ed93dU, 0x2bb981232c3d9abcU,
  0x96c4410973fad6e0U, 0x5a00facde6754158U, 0xb4f20646a6f481ffU, 0x757117d7bcf94b4dU,
  0x3906ad8125eae503U, 0xebf933c642b0087fU, 0x95c0804fe2ffad5U, 0xd076b803c8e62c30U,
  0x5c07f3beca2d2c6U, 0x151f19e8edf1a139U, 0x81f6c7ca4f2ec02eU, 0xdedbac3f0b38139U,
  0x82501f25421528efU, 0xbf0cf23a66813bbdU, 0x13df3637e0c4cec1U, 0xf9f93a3e3ac4106eU,
  0x835cc57fe734795bU, 0xdea2627c21522bafU, 0xaca4c17f9dcc64ceU, 0xaff9105776cf815dU,
  0xa365ddbe56b2f99U, 0xf0010d81100bfcc7U, 0x35d0543a0da9d2d4U, 0x9bec6816a40e461U,
  0x58a4745ce865dacbU, 0x2f8123144316fa3aU, 0x5d55329e7e1da08U, 0xde559b09dea0a444U,
  0x8f7f72f12e10cf6eU, 0x4257c299101c480cU, 0x95614af82618057fU, 0x37ac9cd24f37f05U,
  0x43fc61b1fc606a0eU, 0x7f0baf462eb0e25aU, 0xad74fe61c13c0f1U, 0x5849eb3787407fc4U,
  0x67cacdf8f002f13aU, 0xfffff9bbfffff83aU, 0x2240000004c7U, 0xfffff718fffff754U,
  0xffffe14f000005d3U, 0xfffffca5ffffeefaU, 0xffffee28000010d1U, 0xcc200000b58U,
  0xffffe1f7ffffeebaU, 0xb52fffffcedU, 0xb71fffff696U, 0xffffeed5ffffeda1U,
  0xfffffd20fffffc22U, 0xfffffd2700000725U, 0xfffff1c700000d6bU, 0xfffffd9ffffffab5U,
  0xfffff42600000a72U, 0xffffe1edffffdb80U, 0xffffedbe00001438U, 0xffffee51000007cdU,
  0xfffff27f0000188eU, 0x925ffffeceaU, 0x98dfffff057U, 0x951ffffe5aeU,
  0xfffff6f3fffffdf5U, 0x43afffff685U, 0x6b000000890U, 0xffffe33b000007e0U,
  0xfffff52b000001a4U, 0xfffff72e0000099eU, 0xfffffc59fffff7c6U, 0xffffe798ffffebdfU,
  0xfffff22cfffff2d0U, 0xd381cfbd3c069229U, 0xe9e91d341921d318U, 0xf50507a710240c1dU,
  0x1db113bd9fbef3f2U, 0xd02f44095d112217U, 0x4152aeda090ae5d8U, 0x2cd73847d78b9dddU,
  0x7b4e6f0dfc6ec28U, 0x61509833f2978112U, 0xa3160f4d3ff34524U, 0x84b8c854ff460549U,
  0xd30abeabb6b9246dU, 0x1b723e40eb03a3d4U, 0x94224f2c39c7f5f1U, 0x1b0bfa5bf4309096U,
  0xff3ba5a0a4f7b53fU, 0xec341f57fe15bbadU, 0x15ddfee12061ed47U, 0x24475d171618a971U,
  0x49d93400412bc1fdU, 0x931d8f11c29e81b1U, 0xcefc1953304523f9U, 0x25be55d80bdb2e46U,
  0x2efb5a06a14905f6U, 0xcbdabe343cbf0e2aU, 0xeca1d23ee539e1ccU, 0x81e2c7301b013733U,
  0xe2d321ba36b72abcU, 0xf316c74dabcb2210U, 0xd59c1dd2e0ae3609U, 0xc12dfcc7b9b9dfc0U,
  0xe80fd5371816191cU, 0xc24f2b4a4cc9dc36U, 0x92cbe9f2b5c5d654U, 0xb0e2e30834322dd4U,
  0xa4143d5030d3a7dfU, 0xdbc44c559f1f5bd2U, 0x81c7d9dc3419c10cU, 0xa250cdec520feac8U,
  0x26ebf141bd9d16dcU, 0xb39c03caaee9401U, 0xffd58136aae9ef45U, 0x244d5141d7ba9bcfU,
  0xf5c6c23be30ae718U, 0x5edc35f024d617beU, 0xdd072a0f20a740d1U, 0x33dbbbeaffba029cU,
  0x1a9dd7da09de182aU, 0xbc8196d90b0efc4eU, 0x4e00ac2aacc6392cU, 0xb72aab133ff22ac5U,
  0x25cf0a0707bc38f1U, 0xc257a82fefc91c07U, 0xb58547d254d8f2b6U, 0xb72e4740bee7c7edU,
  0xd29e7186b0b2000U, 0xfa50f94335ee135U, 0xe0d26bb40db0bba8U, 0x34eefffc2daaa69fU,
  0xf5dc12ca2d8c12c3U, 0xd62e435bc65657a5U, 0x568142a1072e21f2U, 0xf5add809b4ae2845U,
  0x4a0dfe3818f0b23fU, 0x38f162e4e6dacda3U, 0x814007ecc22aceddU, 0x54d15fc2b7cf9636U,
  0x4e8f4092afb8c5e7U, 0xe4c7514d22af1718U, 0xeabb121e4bda27b4U, 0xbfc736ddf1eae863U,
  0xf6ce0ed1a2c047e0U, 0xec1d9acce3c63cb8U, 0xe4b3e6020efffad4U, 0xec2bdf2ccd1e2ca2U,
  0xd3a12f31f853ee5fU, 0xc9d9259a3cf6c619U, 0x6c39a2727f34d30U, 0xab2132d453bfd9bfU,
  0x562fe351f5699181U, 0xfdd41614f0f42497U, 0xd5a2f13a3d3aa500U, 0x3851b019d018276bU,
  0x816f40bee21c24f4U, 0x64e0b427b31f52fU, 0xfdf7b326de56dd92U, 0x348a84bd2aab8e21U,
  0x1deffbc5c9a0da49U, 0xa70b5985c05cc01dU, 0xf446f1bb04821afaU, 0x540b9436c8ece244U,
  0x6f13b222e0efaec0U, 0x95251afce1f319f2U, 0xb240a2eaef35ff08U, 0x182bf35c37bf9bd3U,
  0x5d53fd8df646e081U, 0x506daa49a02cf67fU, 0xb5581d2fa8b3c111U, 0xaf2295cb03e5dc35U,
  0x62a50ee9c3482fb7U, 0xec7555c9f27d63c3U, 0x38e03a91aacf428U, 0x5aaeb2aa28554104U,
  0xd0dde0ec299d25f4U, 0xcfc03e55d049104bU, 0x10c603d021fc362dU, 0x2b12095b2b070feeU,
  0xa82016b92bc4b0b2U, 0xeabf1a3cfc2a24d5U, 0x27cdba3bb51c55f8U, 0xf63fdfc8bfe68119U,
  0xc0ec84f6c3ea2998U, 0x470043ccbe9f1235U, 0x32e8fe25c1fe3f0bU, 0xe8c5683bf8c3a3bdU,
  0x2dda10ad51ad10c6U, 0x2ecd5bfe1f2bcbaeU, 0x2c65583a81277bf0U, 0x47e441bb5b8839bfU,
  0x9f28342359b0c5d4U, 0x9f141b8d0beadb67U, 0x2d12c0aec4df52ceU, 0x9ceff122740cab92U,
  0xd316d3ece3afd410U, 0x595a24cff613e4a6U, 0x5d16dcf798269d11U, 0x6901590936933e7fU,
  0x5925d304decd1b26U, 0xb80ded4e3e301612U, 0xaabc439ad9a1a51cU, 0x3020d43289a809b3U,
  0xce600ec404a90622U, 0xe61ff5adea0a445dU, 0xb5e8b9c884624425U, 0xb6d52d812308ac9cU,
  0xad93d0647c141e4U, 0x11b338e8c1e53021U, 0x194ae6d0bebc5f1eU, 0x1c35433ef6bece21U,
  0x19d3c2107ff1dfc1U, 0x16dab5a544fc20ecU, 0x33ee4bd1c7a50be2U, 0x10fec53dc3df2904U,
  0xfe02ff28f3be121cU, 0xc8d012fc2016814aU, 0xa84800d8cf53d658U, 0xb8a11c2105b6d80cU,
  0xee521402331ea3a4U, 0x1ab7ca3ccdffd2a4U, 0xc12f444644fe3ed4U, 0x1bbd50b7a1e4acddU,
  0xdc3eafc65881f46U, 0xf5b639df34c54a28U, 0x46a8ec0dc4046b5fU, 0x2e5c8d235d2f844U,
  0xbcb8b3439ec99d23U, 0x2b1c287147e89274U, 0x5f61162ea3c31cbU, 0xc7a700cf4d0382cdU,
  0x1417811fc3f7cfe2U, 0xb39f3029f55bc6d1U, 0x9f8d2f81cc99e715U, 0x454ca535f6b4ff25U,
  0xb6a4deb514ba8cd2U, 0xbb28a91231f2ea41U, 0x69b0d7b9a7a8035bU, 0x8b4e6b6caf36b4e4U,
  0x13f9da1ef6d99a37U, 0x31bcc8c8ba07c11bU, 0x112342a01e1822fbU, 0xfd2813d3e4dfca0cU,
  0x2eefc00bd223ebb3U, 0xfcd544baf4c504beU, 0x2829d25595b9f481U, 0xf400f454de08c6b6U,
  0x38d9c2f091d6cdd6U, 0x599aeaf9eaeed0aU, 0xbd33036bbda4ff3U, 0x2bd31903372edacaU,
  0xb22e81425fd3a2b5U, 0x1929cf442433963bU, 0xd2c035fde4e0f8dcU, 0x9b0aaab10910fbccU,
  0x47fb90b0e0360044U, 0xa63bf9681dd97e0U, 0x2420b35c0f078fefU, 0x3437ee2bfa01f407U,
  0x9f54cde200630b0eU, 0x63c42a13c165f6dfU, 0xc3fac5b3fcf26ec2U, 0xf4d417d1b6dba3b4U,
  0xd10cc321e71310eeU, 0xc838f83a32d12015U, 0x7fd54e03d20bc48U, 0xdbc82743f687262fU,
  0xb81e159debc5d201U, 0xc8b24bd354a620b8U, 0xf3d42cb5afed2ab5U, 0xeecac4d1fbac819bU,
  0x282b07aeb3c5f5a5U, 0x48105a551b8d2U, 0xa838c03ac0cc0a98U, 0x6b3efba7258467U,
  0x4ebb630d2662afabU, 0xff1e1fdf0665bd05U, 0xb058139d2833feebU, 0xaba791d75653b486U,
  0x232845d1c4e310f0U, 0x7d3071d19db5205U, 0xc3093334bc91e07fU, 0x2b9540e2431833c8U,
  0x600d32b9a9c725c9U, 0x43d60e4a3cc8a640U, 0xe3ebc103c19661e8U, 0x2e95404fb5f2409cU,
  0x2dc3c1f5410d9626U, 0xd28ee015378e1ddaU, 0x45f8aac393d02257U, 0x9e6140f5589cd464U,
  0xd31bbd6ea8523e3bU, 0x5d93d4232a1eb324U, 0x9e3a8116ff1946b9U, 0x6e9dce4401080ca8U,
  0x8f92b5c7c555627U, 0x24d330d2d2a723a4U, 0xc8c438d925593104U, 0xe6f208ddfccec314U,
  0xdb1fa84181e12d3bU, 0xc2bbcb0103cad54cU, 0xe43de33e18e51d34U, 0xe3c1cc4accdde25aU,
  0x4aad4a62e7c3193aU, 0x32fd3ff806e9d23aU, 0xee182149ef101a70U, 0x90bf6ffdd1fc6eeU,
  0x62abe9330c22ab3fU, 0x32e81c492a94eccU, 0xcbf7d3edd7f12c2aU, 0xf23121ab16b24db6U,
  0xa6c2b4f0bbe0cbf6U, 0x49b6c0494bef6135U, 0x62d61f4266605ec9U, 0xe2ebf7bf0caaf0e3U,
  0xf40e925ed9812d2eU, 0x55029b15e7f6c01eU, 0x5cbf0845aef0c15dU, 0x25d8dcd2b440fa1cU,
  0xd41ff8abcffaf91eU, 0xfbd5f8415badaea6U, 0xff2ad4e44dd9e9c5U, 0xe5cf3bebd8ec26b8U,
  0xc77ffc07d237edefU, 0xc199034cedd7f80fU, 0xceb5e503cf1ec49cU, 0xb7fef1853e429e31U,
  0xefb5f30bd60c3454U, 0x35114ae7c40ed502U, 0x42c8eb637be00b3U, 0xbdb7d84da8c9a438U,
  0x4bfbeba73236b6c8U, 0xe729fad7124981a1U, 0xf73bbbc323f9992bU, 0x14a2cd4d1fdd3dd1U,
  0xb741cc05be0a9040U, 0x5a275f00b2cec8e6U, 0xbfa8d8394fa9eab0U, 0xd4d833d1320be95dU,
  0xdec897ecf9e616bcU, 0x45ed3ceaa1cb89c0U, 0x490927b1251aa281U, 0x8d15205c113e5506U,
  0xf9ed0201c2ac0c5U, 0xeb37f8b384563727U, 0xc3eef9f5e7ded8beU, 0xb09552fedeeb129U,
  0xb01f81f8afb90c47U, 0xabfeada8af36fce9U, 0x5542cc46bae75e17U, 0xee16bfac37c0df14U,
  0x44de2433b39bf9baU, 0xc8aaf8d529ffd0f7U, 0xe12d0cf527d3d428U, 0xd4e8a43cef9defebU,
  0x41f1f7ff183ddc1U, 0xb831decdeab6dde6U, 0x23e0531249d2284fU, 0xf8c462f8accaf9f1U,
  0x29df2adc3630f9e0U, 0xb9f35a37e82fe828U, 0x4b1608eb1d6fc5d3U, 0x158a202e64234e99U,
  0xc51702b1ec8ff108U, 0x6bfaabd1e321026U, 0xc342f5f5dc8fb660U, 0xb7e84926fd6a2db9U,
  0x371253f4b047a681U, 0xfb43edb3ee059d0eU, 0xbe441a11bae7ab7fU, 0x8a3af924fee5fd27U,
  0xe4ffbf064cc393adU, 0xa85629cee413ad3aU, 0xcb7eb4239e15ef7U, 0xcceb4a2bf3dae6c2U,
  0xd6310f1dbf464740U, 0xd2f9f7cf12120a4dU, 0x3a43e93973af92dfU, 0xd3ce17a696584a38U,
  0x8193f0dedb99e13dU, 0xc762f294b3dd4c33U, 0x23ffbe06947befaaU, 0x995c1f67ac8fd620U,
  0x6331f4a193221fdU, 0x98e151302b260d1U, 0xb408d6cd031486bfU, 0x436a7221da04b15U,
  0x8d3dc7ad03b70dc6U, 0xfc202d9ca88c81a9U, 0xad293eed1fc3b4fbU, 0xb269bd99fd53f16U,
  0x362688aacd4efbecU, 0x2b073481f5ee5da4U, 0xa5a219ae3da3a2e6U, 0xdd9b42f8b7bb14b7U,
  0xee10beb9531c2a25U, 0xdbe827021eef9bd3U, 0xa3ae13021b1ac70aU, 0xb0c535fd4bab0a25U,
  0x3c0a52621252f3b1U, 0xb58124fb6b2f4e99U, 0x3760c3cdc6fab20cU, 0xb2f8672395f0dae7U,
  0x2d39cfcf0d052c6fU, 0x50a9e1f9d053899dU, 0xaeff95c9cd0743c2U, 0x3bbc27590252212aU,
  0xcd49679f8dfae553U, 0xcceb1afbc51c0d3eU, 0x99cd34c9703641cdU, 0x5e9ffcc81afec0fU,
  0xa245e24d2d41d30eU, 0xc10b232dab26de0eU, 0x3cd8c88eac29f42cU, 0x4f0da6edfa05c8dfU,
  0xe62e1affd643e64bU, 0xa4aec999ad57cc81U, 0x24bafa2d8c0e32bdU, 0xf048061dfb0c1591U,
  0x3768a64613ca07f5U, 0xabdf66ffcff0272eU, 0x4137144651be464dU, 0x17ec53df1a200f9fU,
  0x53330853acd19621U, 0x46489340d013411U, 0x5736604639962c09U, 0xa34a6451e89cf706U,
  0xb499b7b34c64f3a2U, 0x360cbd1d4d7fd844U, 0x3534ff4adf37cc92U, 0x3965dc1d4a332448U,
  0x9af50bdf68611924U, 0x3cfe0eea035b4742U, 0xe01c2dfeefe9b80bU, 0x5336fe1e28d3ea0aU,
  0x29034c0e66aae110U, 0xa34e131920dd01d3U, 0xed96104fdafd6953U, 0xdaa02bcec4810324U,
  0xf5cc33b0f90fe1d8U, 0x81ee213f618ecfcU, 0x9e00f9fd1accf008U, 0xefe03fc411bb12aU,
  0xff3ddb0d81e130d5U, 0x15ade6d6f60f06eeU, 0x12dd211c072e24c1U, 0xdfa7f4b7d939c1efU,
  0x29dc2502dbc8c904U, 0xc0f33b27e4ebf21dU, 0x31eeba0e52c4c3edU, 0x3a0d62341ad02d4cU,
  0x1f166e9aef044e0eU, 0xae379db23e5f4e54U, 0x81ae3a240a0aa1a8U, 0xda362e15630a662bU,
  0x24b4d75d581ff620U, 0x4f062cb538b5b5a4U, 0xf42bf5924cf0ce24U, 0x5e83010c43c5819fU,
  0xc929fa3be05ade1eU, 0xe1c6f6dff92844e9U, 0x544ba158ccb544b0U, 0x5d12156707d02d52U,
  0xa7f720b2a3d7af8eU, 0x54c283ae45b8e4bbU, 0xd127c8191d5bcbacU, 0x261b3cdd6727e1e0U,
  0xb0ab1e6065aa9bceU, 0x113307efcfe2c5e2U, 0xabb2981363e6f4b2U, 0x7fe4a0fd653312d6U,
  0x3ccae03e4544b9f5U, 0x95ec838480e5243U, 0x13c681ae71a4cbc7U, 0xade4c01db9ef2167U,
  0xd50cfda405900652U, 0x50579442e0ed3beeU, 0xc070d946dc71d54U, 0x41a1ce30c23a2b0bU,
  0x1a542dc4935579b0U, 0x15ebf1e7cbcc44fcU, 0xed3d82feddd3decdU, 0xe65d45da60c8afefU,
  0xe25b098d10561ad2U, 0xfc708cb5593771c2U, 0xfc389ce42cd8a2eaU, 0xd09c596ff6d2ea74U,
  0xe4f862812c0f3cc2U, 0x3e999acbdf57d0ecU, 0x24bc2192e13f8151U, 0x9acfc70cf381dc3dU,
  0x18d32304519c2ff8U, 0xa3925e54f7226a7U, 0xc3ccd0a8e40bc537U, 0xc2ced97410110ddaU,
  0x123f3b180111db2dU, 0xd21555ef3cab3402U, 0xbe9cec3705299217U, 0x3ddaf15f1098f014U,
  0x2d3609c5b60dbc0fU, 0x473e91270bfcadd0U, 0x941ee13c8e25e1bdU, 0x81b9520320d529f2U,
  0xb54edbdaa0084dddU, 0x81ab0b10749973bU, 0x5b333ebb3947c50aU, 0xc95c041da34c30e2U,
  0x3e1d3a5bd41234c2U, 0xb94305c26d6f4c5U, 0x40a9dcf30fb52e52U, 0x21210a5e36d9f981U,
  0xb8428ffcf504c445U, 0xfe3c94c4a14fdae8U, 0x81afbec255900d34U, 0x514b9dafdc28ce19U,
  0x60e959e605a8149dU, 0x38e5e9f081cc0ed4U, 0xb1921c55985651a4U, 0x5aa83d3b7d54beaU,
  0x4e3896d8fccce65bU, 0xa664ae155388ec00U, 0x7f2855f9a70266b4U, 0xd928bb130252321aU,
  0x4a322d219dae4a27U, 0xb41d9992b45a22d7U, 0xa4b2f91a4ecc721cU, 0xd6f685023c39c142U,
  0xa5dbd8619f9e1afeU, 0x3ef8cf1dac31daccU, 0xcb0c56d1f5b2f5d1U, 0xa93f0959ec25f42bU,
  0x32004d5d38214acbU, 0xef26c03aaa054433U, 0xc008d1c02ef5d31bU, 0x51fde7c98143d618U,
  0x22be168d2cc3bbbbU, 0xa43e1b044a444f00U, 0x65df9bd1f4420992U, 0x16a70c5de5fd158eU,
  0x49e3cff70adb32c7U, 0x816a410306ce0913U, 0x5487f0f110442d17U, 0xef0dff34bab114c5U,
  0x9eda9e9870f20600U, 0x14be0cc1b4da1b2eU, 0xf6e832beb4260e7fU, 0x2502b424eb492945U,
  0x34def0393d09fbe2U, 0xcbdbf62955e1533aU, 0xfaae921cb2eed5deU, 0x438129ebb9c8d0beU,
  0x429f364bb29e224cU, 0xb6afe398e60ddeb8U, 0x22c0e3cb41341cc3U, 0x36b633693470665eU,
  0xb7fd4b3dfabe0c52U, 0x2ff3cfb3ef76ac6cU, 0x2df930ce5ea4a120U, 0xf6ed7fbae2b2b1f5U,
  0x5e44df48d5546ff4U, 0xb3e82abe10fecb17U, 0x420881a3f425cbb5U, 0xe9be44a9c4a9dbfbU,
  0xe2ab4fcf0a0428beU, 0xf83c2ba8fdb7db26U, 0x36e74d245dfab3d9U, 0xef26f90b3713c611U,
  0x43ff041866c8a3cbU, 0x675741c19f66c972U, 0xdf6052f6d460558bU, 0xd8672ee84d9752f7U,
  0x1da6f3d26ae05349U, 0x72fcab0b7e1a1121U, 0xb2e39a98cd3f5944U, 0x778d9f8a7732408dU,
  0xb1a54a7e4fcaad81U, 0x12fc94ff07b7edbdU, 0xd841c23bf5bdc31bU, 0xd2b57df60f2bc523U,
  0xe12bbc1c532bdbe0U, 0x5bb6bb505dcaa3bfU, 0x5ba61fe4aea4e5bbU, 0xb730df0bb7528157U,
  0xb2b518ce28f5e123U, 0xffffffd8ffffffc9U, 0xffffffddffffffdfU, 0x7U,
  0xfffffff600000014U, 0xffffffee00000021U, 0xffffffdfffffffedU, 0xfffffff5fffffffaU,
  0xffffffedffffffe9U, 0xffffffe80000000fU, 0x23ffffffe5U, 0x3ffffffe0U,
  0xfffffffeffffffe0U, 0xffffffdd00000014U, 0xffffffda00000001U, 0xfffffff200000003U,
  0x19ffffffdcU, 0xfffffff9ffffffe8U, 0xffffffe7fffffffeU, 0xffffffea0000000bU,
  0xfffffff100000010U, 0xffffffffU, 0xffffffcefffffff8U, 0xffffffd8fffffff5U,
  0xffffffdefffffffcU, 0x200000014U, 0xffffffd2fffffffaU, 0xfffffff40000000cU,
  0xffffffddfffffffcU, 0x10fffffff8U, 0xffffffea00000002U, 0xffffffebfffffffbU,
  0xfffffffbffffffecU, 0xf4ba48f68fba50a4U, 0xd30f344fafc11acaU, 0x3f34def8d66b7f59U,
  0x5524b8df09cca242U, 0xdfd9d8c702d1f2acU, 0xfbb32fbfd9f79d12U, 0x7dcd30314cdae22U,
  0xd64554083678f11eU, 0xf546aeec15c0f927U, 0x4b49483128af812bU, 0x5157e8a13221da72U,
  0x4707cdbaaa95d690U, 0x7d81e63cf74d07f1U, 0x5d11984847e3b7c6U, 0x589c04b3b48ebd1bU,
  0xd8b5ef861a161539U, 0x9d10093695af570dU, 0x40b406490eb511f3U, 0x22170859e60136cdU,
  0x20345500dcfa463aU, 0x26ec7f5f1138d4d8U, 0xe9e3b3acdc402cadU, 0xfe9a59ec46c18b3U,
  0xbd7c4c9f566e856U, 0x8be2c8a411fa1678U, 0x81de22c5b1ebaf0cU, 0xa8a20320263039ebU,
  0xaf2d4f32ee65f48U, 0xffaa259f60f711b9U, 0x8888420fa0e70930U, 0xeabee8cd55e620d2U,
  0xb0938dff59c6be1fU, 0xd2ec8b54343e8a9U, 0x38b644e9ab70fc93U, 0x41ff3d6bd2e3cdffU,
  0xf9410925ecea1c49U, 0xe5c3d6bebdea1506U, 0xcb0244e5b3152d81U, 0x2c9cfe2a0e9e94afU,
  0x5a32a5ea22c590e7U, 0x9bbbb92662d2aec3U, 0xf87f42c8eb6b4d45U, 0xacf361fc50132321U,
  0x69b9db71d665c143U, 0xff5ea645667ad32dU, 0x787e363d980b9e36U, 0x621922169940e82aU,
  0x9df73f1424ff4b3fU, 0x416d2c18cdc8eda5U, 0xd2c3ed3d16c60007U, 0x15770abd29a9d8d0U,
  0x6f52eebe590a488eU, 0x590a7ad295bb79bU, 0x111d91e45d49e6ecU, 0xcc19c881f7a0283dU,
  0xa5a685023cebebfcU, 0xf9bcde21c8cce3efU, 0xf223dff13db608c4U, 0x36e7f5fa18ce3a2aU,
  0x152bf4f8b22439e5U, 0x261c3427bdc1ffefU, 0xa8f7ffc92af9e8e3U, 0x42ae47e92d0e2cd5U,
  0x7f21fe11f54c49b2U, 0x271b81f1302fd12aU, 0x480df0fef5951530U, 0x3e6558332812428cU,
  0x5eb2cc8352b0550U, 0x1e3bdb54014323aU, 0x1111fc45fb937e5U, 0x2ab2a0b273e97b8U,
  0x17342abda5a22b44U, 0xd9c20bd5ee3dcd2bU, 0x5084f6573d3d5879U, 0x4d258c0e0a103412U,
  0xcd3900b41ff6d4d9U, 0xb10956b879523140U, 0x551c0c1eda28bc16U, 0xd43dd9d57fabf50cU,
  0x137ef3ab4c63ea1U, 0xbb12aa250e64ae5U, 0xe1f913331a8a44aU, 0xeeff06b4a755a55eU,
  0xcd1b030043a1015dU, 0x283b2e53282c2c18U, 0xffe7d5bcf71a3e3bU, 0x1fa5012550e3c058U,
  0xb214bb9e81f10740U, 0xeb3dbe57c1dbe838U, 0xf404cbfc101df614U, 0xc761f8e29cd3f342U,
  0x26bb98b00d434ddbU, 0x50d09e7bf238febU, 0xade783fad6e43f0dU, 0xc198d0dbd7ebf09fU,
  0x813fb418c1c24eddU, 0x514b5a43c99d4afbU, 0xb231f715b2a05b96U, 0xa2d96c87fb14b79U,
  0xec29920837f9629aU, 0xdc96db4bb72456b2U, 0xbce7221ee355ed3aU, 0xba25e323439cbb86U,
  0xca3def24cc0dc5a2U, 0xe00ae1b425ccfcc8U, 0xba5eb6f007fe3525U, 0x26c8ab45b914f481U,
  0x54f9cf9b08a6afa8U, 0xb91cdd0925422561U, 0x3dbc15f0b731130dU, 0xf4a3c2fd58e10040U,
  0xc0eb39fcebc802d3U, 0xb5e35836eaa35e4bU, 0x4932bd32ee023091U, 0x255dbc245a5693e3U,
  0xc588b174c33b8111U, 0xdb962dc9edbd2a58U, 0x446a1cd5062ce326U, 0xe01a101456e50f1aU,
  0xffd5e0a3c0130907U, 0xa8f59d1107c1f3f4U, 0x81e8fc20ffdba7d7U, 0x1af6ded5312415f1U,
  0x3c4f37c740fdc023U, 0x1313d89a0f2311bU, 0x36c549a734af3bcfU, 0xda0a20a5a0fecb9cU,
  0xac33aeed2e9c8b04U, 0xdad4a9a4914cd9dU, 0x6e21600c5c522babU, 0x540198d1e28e7f87U,
  0xb7d009d2d7bee282U, 0x7bd87859cb3b026eU, 0xca9850695811c634U, 0xcadd55c7202c3bcaU,
  0x96222524179646abU, 0x200aaed59aa73829U, 0x6afbfffd2ab9b6e8U, 0x65ea05772b2d9cc3U,
  0x45eef217c79c8115U, 0x968a3e200ae7fc06U, 0x40c6340b9b4a470fU, 0x53445e0c12c0c7bfU,
  0x68624b3760e46a2dU, 0xfe3606e5d2eaf434U, 0x9ff0b18ca84407c3U, 0x1e1e4b99dcc3b653U,
  0x365acd14ec130decU, 0x2537c55eb4bdc24cU, 0x90cce3babb4159dfU, 0x6e883816acb3837U,
  0x2fd9d2aedd38d386U, 0x7c6211ba7d76cd15U, 0xa4c1acf79ea84051U, 0xe3141a09e043a16eU,
  0xd8ab41541ff2c570U, 0xb5dcfc142bcecddeU, 0x227a587f216e22f8U, 0x2abe46938e4e53a8U,
  0x5739f8f3aade56dfU, 0x2d1dbcc0881cc41U, 0x419949c31737a5c2U, 0xc34424984bc8a12fU,
  0x57be1d1df4e7fc3fU, 0x59efb4c49c491f10U, 0x571346fee711ee9cU, 0x2efdfe4795b3dc3bU,
  0xd49fed640f192969U, 0x21f3c5ec6de7ef13U, 0xbcffd8f2c4fda871U, 0xeb138143becb123cU,
  0x42fdd708ddeac2e8U, 0x1fcaf5b9ab33acbaU, 0x22f9fbaea724cbbaU, 0x3d5be8fb562f29b4U,
  0xadb632f74ad7cfecU, 0xdc37e1d55da0c420U, 0x59c457bd02fbb119U, 0x2ab10431ed2472caU,
  0xe2580881209297a2U, 0xb1ee2db7fb42ea5dU, 0xd83fabf7982258b0U, 0xba03063db14f5e0aU,
  0xeeb0f902433b2cd9U, 0xd20a9205845cd10U, 0x4bc1a513ff89598U, 0xc194444771715710U,
  0xa7cd29da58158139U, 0xe2fdad42f06d5c85U, 0xadb06958c6e32910U, 0xb70e46eed3bbdc74U,
  0xf40bfad9c9da1833U, 0xdd4011de413bff68U, 0x3d59fd1b5442acadU, 0x94944c2726f431c9U,
  0x31d7fc033137ab1eU, 0x35f02e0ec47f38f3U, 0x6133b55232dccfdU, 0x1446b027014ad1bbU,
  0xa9be4b64e7a439f1U, 0x1fca01cde3e1f2b5U, 0xd4f2fdd6e8c6df08U, 0x4035eee4c3043a3dU,
  0x36bf9f26003e17adU, 0x6d533c6dee53112U, 0x2728d4150f1d2713U, 0xd334dd22ecbfcf49U,
  0xd3d8bab481c24de3U, 0xdc58e7ed2a163c1bU, 0x432395403ae3dc4cU, 0x5a4a22bcc1202ae3U,
  0xdc0f0efdf2d2182fU, 0xd8dc26ed4b97240cU, 0xc91d813eee49ecc0U, 0x160e0ebd1d4ddb0aU,
  0xd1d7200530e7be4eU, 0xcdb2eda39a5c98bcU, 0xec554a1d36be0f34U, 0xd1d9dadee0405c09U,
  0xec26db351e5c081aU, 0xb9a7499a2c91eb1eU, 0x3681cf96c361dd21U, 0x2ae5c80caaf737c6U,
  0xd207dca24960ac31U, 0x6f26e4650e763df6U, 0x3632c56651e84662U, 0x8515f386366d99f2U,
  0x2a9f01f0c0bcd43eU, 0x56e348c117b5d8e1U, 0xb6cb7f314149ec61U, 0xc31178bb4bd9d6d2U,
  0x305e245f374157e9U, 0x47fef311bd035e42U, 0x45263400c35a5bb6U, 0x5c123dd9f336dce2U,
  0x861ad75c16811321U, 0x29f0cbb8eb44edf7U, 0xe9f6d559d2c92d30U, 0xa93ddfdac55a3e15U,
  0x474058f823b21837U, 0xf1632caeea5c5d47U, 0xe3f2342194e808f8U, 0xefd5964a431553deU,
  0xc1d0da67b7e9d8fcU, 0x9c223dfd7fb72d79U, 0xe9171a5fba291539U, 0x114bb388e4acb6f6U,
  0xf598f1ad86226c1aU, 0x31d732289ec71e52U, 0xe5c24d2d049d93dcU, 0xfc10f820cf050e9fU,
  0x812633c6a9d01df2U, 0x27d920c694cfa70cU, 0x3efcab17dbbfd322U, 0xfd0dbc1f2b26a8baU,
  0x5445af2e4de624dcU, 0xdcfa14d42bb8cf02U, 0xd81b4bb4fc4ad4adU, 0xbd3844220c2a0026U,
  0x4711334bb0385eb4U, 0xffe420c02f974d0aU, 0x814cad4317d5d2d1U, 0x3d0ad2d0f2f435ccU,
  0xbde81afa312836f7U, 0x191a8a4287054245U, 0x779c23ade8bb4ef7U, 0x4b45ed2120583ea3U,
  0xf2d17fc54af7e630U, 0xca8a7bd05414ab28U, 0x29c5879c6137bc5eU, 0xcc2bb4a34fd75349U,
  0x9016169b2c1d21f6U, 0xfe9d7d3fab9d03dU, 0x5d0bded7b505fe25U, 0x3cd08aefe0f84cf4U,
  0xb4e8408f4ec23c81U, 0x26f84abc35e6e53bU, 0x464914fcf84c87dbU, 0xa9833ce0f0a563eU,
  0xd65cfc5134cdcac8U, 0x62223c2bd7fc27cbU, 0xb9fe1928f3814a36U, 0x58b909f4fb409818U,
  0xf2c60830a9baa8c9U, 0x248fc9dff4bbbeffU, 0x33f0b41422e8fdc7U, 0xd2dabf27ce0b3301U,
  0x1222aec6821014a4U, 0x14682e0029c99ac9U, 0xece398ad0fc3bbcfU, 0xa9fbfd9ff2d36422U,
  0x94022dee4d30bb21U, 0xa3019d396d1e6c4U, 0x292a4a11a381e901U, 0x5ba7aecb87fb17c0U,
  0x3033e6951bf84e22U, 0xea8d30a72724d232U, 0x4cb423b04f5ff618U, 0x77a12f381a01abfcU,
  0x420a47e150590aa1U, 0xac8353ec5cb6c10eU, 0x173127ef37a8fab1U, 0x28e94ab217f7feaaU,
  0x7fbb1dcb730316e7U, 0x86b848e13339233aU, 0xd30eb1581e1cf9bbU, 0xc8eb0ae1d3e5f929U,
  0x21d681f43e1c5624U, 0xebd0dcfbdbd8ea3aU, 0x471d1af541b2df36U, 0x30252ec7ad91fbe3U,
  0xc8d53f1c02be9adbU, 0x9ecfc3f3ad028c0bU, 0x9986ce81bcd16653U, 0xddae4a96a58fd40aU,
  0x5928ca243639e632U, 0x4f63ae4ababb1a3cU, 0x43b36db9537e5d5U, 0x533e131aafea90beU,
  0xf0c34afb265a64e1U, 0x2ed7601498aa1812U, 0x18a11b40dbcd2d7fU, 0x412cb6b4b7c1adccU,
  0xf8bbefd1f5e1f37aU, 0x1e26c509371c2728U, 0xb3dd55fb9736b447U, 0x2064e308c04efc19U,
  0xf8ba0bc772fd28fdU, 0x7c03509aaf1cf1eU, 0xc642bee4a01120f2U, 0x2f052bb1ac0d4d0U,
  0x991c0e050e02dd42U, 0x22291cd3fa40caebU, 0xb19b0303acf1b6e8U, 0xc334b5d6c7811d1aU,
  0xdffd0baae13e14e6U, 0xa055b52c31132daeU, 0x41363254dcc64f31U, 0x61f12e0a8e217edU,
  0xc3df0173812e29bcU, 0x46c30356c0ca3ac1U, 0xfaf7d9ca3096de58U, 0xa1bd2e1b55ee0627U,
  0xf213254dc4ff1d62U, 0x4de42ae03428d5d6U, 0x7f4939243014f314U, 0xa4b305d3f1d444eU,
  0x70e3d2063c5d1c2fU, 0x5e4d4d8a762041cU, 0x4dda20c140bc5f43U, 0xf5d5d36f5f55a2f1U,
  0x13f7506b9595eff2U, 0x1f7ddaf065998c09U, 0xf48126e0b1efc23aU, 0xceacf9aef8ff45ccU,
  0x83eb20bba1af52fbU, 0x37c1e9d1f2caf6b9U, 0x59995ab75c9ae2c4U, 0xec0f4e2d1af20c0dU,
  0xae349e5dcb5bf6dfU, 0x12cfe8d7fdc8eddbU, 0xe5ee425908d9a1c9U, 0x32e02d44c6c843d9U,
  0x69c87a0269c107b1U, 0xf6651a087fc0aac9U, 0xe42bf64d38424244U, 0xa9c412d131e0f8b4U,
  0x270f6aa97dfe3ee8U, 0xfeca812f3fcb19edU, 0xfb272e4629280a3eU, 0x15fcd6368cf20055U,
  0xfe1d3e5eeb32cc02U, 0xdbb11bfd0b083167U, 0x5856f220ba4d7627U, 0xdfdaf33f43e9f1beU,
  0x95e4bda5dcbb590cU, 0x1c90f5a35462f174U, 0x2f51e19405945b8dU, 0xf7527fb5e902a29eU,
  0x99bb0fdb74fadca8U, 0xb430586075f4592dU, 0x68019f31590602b0U, 0x79bf746ffb94ff1U,
  0xde75e2de75a8d30fU, 0xe0ce43fc1d3e981U, 0xc0df3b11d1fbbb7U, 0xf7a4cfb9213b27ccU,
  0x50de470ac322e607U, 0xf4872a312416d323U, 0xb44a26f9e44a1535U, 0xc6af19f5c43fd2d0U,
  0xd1b62af24baf3deeU, 0x628505dffb10fc6U, 0xa46fcf32fc0ae1faU, 0xc5c6392fa1605132U,
  0x684a3e0bf5c90b6dU, 0x19fffe329c7fad62U, 0x5ed670f392ae0a83U, 0x4bec3d44a9c59f97U,
  0x23c82c21fb0d5135U, 0xf31b72b3350fc6cU, 0xe8d2c5101ed86f42U, 0x4cbd9b312ae7ccfeU,
  0xc3e4e2d1255b2326U, 0x19435b3e9749a83fU, 0x88bee7c4e9bddb59U, 0xadfee4836b540f81U,
  0xb98ac9ef1eb44255U, 0x9ec331ece48fe00aU, 0xafed85d431c3051fU, 0x82bcba0c1f1d0f41U,
  0x784781da0c2db618U, 0xba060dc3b81bccd8U, 0x3bd045edd82ccfc8U, 0xcb1acaa1f5cbfa2eU,
  0x3131fce19168f2abU, 0x404772d2ffe2fb02U, 0xd10c2fa7ff0f69d5U, 0x551e010646099760U,
  0x404a0299193d7a4bU, 0x330aa85bb18b37edU, 0xe6290858fc81b0e5U, 0xe1e5e80f5a5820f0U,
  0x4cfbfadd04115226U, 0xf3b8d3df18e8ed03U, 0x2b9d5d1250fd5ccU, 0xe5e2fad319b418e0U,
  0xf7c9e6eaefcf1ae4U, 0x1821cfcef0bfeccdU, 0xd01713f0b681b2daU, 0x27fee316cff5b9ceU,
  0xded7c4c8e9c8efbfU, 0x8218bc27183ef60aU, 0x2d931d52c3c0e3aU, 0xebd319cffdaddd17U,
  0x210d380a333eb1d3U, 0xb54bfb4f72c40dcU, 0xe4e1dd2b01eb802U, 0x2518f0ef8112bcfbU,
  0x1bbaf54901affb36U, 0x64febc5ee6cbb756U, 0x452c1ec63e2a0afaU, 0x7fddcf82cbb560e6U,
  0x4711f7ec19121b47U, 0xac1a040487a33aedU, 0x265a2fea132f3e25U, 0xd70c142755b294d9U,
  0xc5abdfec6e91d009U, 0xd6b835d9b026c4deU, 0xd4ae14e4120d120bU, 0xe7ed0210ec190b0aU,
  0x20e73581fe2fd8cdU, 0x280bd0d6e320ae41U, 0xb8c62ee3c13dad00U, 0xeaf6e0273d271ad2U,
  0xc824b60dba0027afU, 0xbd13ebb9e419f0a2U, 0x3712ded2e8cd3b2bU, 0xbdb41adf0305ccbcU,
  0xcb990af2c9423ff3U, 0x63ef0ebd100101a2U, 0xe4e7dc1f38aece24U, 0x81d413f0350815e8U,
  0xa6db4af8001499e1U, 0xda07baad11345242U, 0x5e92eb6340b011b6U, 0xf0acd840f7c6ccf4U,
  0x2ae4364ecf23f028U, 0xe1897f85c442b747U, 0x329f01c7466a37a9U, 0x22bfee39cb414213U,
  0x2055c85c1acdc5f2U, 0x9d92dc2d77f1dbedU, 0xb55b1e93d297fd5U, 0xfc132f32e4717dbcU,
  0x7e9a54fb6ae8f94eU, 0xae53a19ddd0f635U, 0xb4d6f4d3d0137a2fU, 0x105a424d4e089637U,
  0xc9e741a5679e85eaU, 0x6d39fa54f7fcff15U, 0x2a1a23acb812932U, 0xa5544451d0b5027U,
  0xfc895b89e49a8e09U, 0x76644db40150a42bU, 0x3882b6bbe8361802U, 0x2be4dc3cd28a9a1aU,
  0xbeb40925fc93bc27U, 0xec438d4debbbc2d5U, 0x13ed7f3523fb1f0aU, 0x2918490c16cf3dc4U,
  0xb602cd3a1148eee9U, 0x32e2204ccb4b0f21U, 0xda1ae9d411f68ec3U, 0x5db9e8da05f6d523U,
  0x26b849b43db2ce26U, 0x51472cd2fe209126U, 0x6d019d0951cc3ea2U, 0x69be505cde32f111U,
  0xe7302271ac515514U, 0x938db13385751e6U, 0x3949a38bbe620fd8U, 0x68b042e732aea1f9U,
  0xf8eb0781b6a313e4U, 0xd8476d16af03b7d5U, 0xde3a04c56204522cU, 0x275a9a004b51c2c4U,
  0xf539cb7f07d26718U, 0x9735e2122cd137c8U, 0xd159c496f35ec385U, 0xd15c0563842ebf2U,
  0x3aec92f354092eefU, 0x48fffffff3U, 0x10fffffffeU, 0x24ffffffebU,
  0x26ffffffe8U, 0xffffffdeffffffddU, 0xffffffd7ffffffefU, 0xffffffbc00000002U,
  0xffffffd7ffffffe3U, 0x22ffffffcaU, 0xffffffa900000002U, 0xffffffd0fffffff5U,
  0x31ffffffd0U, 0xcffffffd2U, 0xffffffc1ffffffebU, 0xffffffee00000014U,
  0xffffffeafffffffaU, 0xfffffff000000008U, 0xdffffffa2U, 0xffffffc7ffffffe1U,
  0x1fffffffcfU, 0x2100000068U, 0xffffffedffffffe6U, 0x4b0000001eU,
  0xffffffdb00000007U, 0x18ffffffe3U, 0xffffffc400000003U, 0x5fffffff9U,
  0xffffff9d00000006U, 0xfffffffcffffffdcU, 0xffffffbbffffffe7U, 0x31fffffff7U,
  0x45ffffffcfU, 0x4f04260bad3b4024U, 0x20a5020536c7ef3eU, 0xc8b8e83b81ae220dU,
  0xcbaf072cbebf7e44U, 0x521ea7bffbccf43cU, 0xe52c9ae90edc510fU, 0x3f2aecdad9eb379bU,
  0xb5a5cf11072638fcU, 0xc2604c6463dada4U, 0x894dc7d6da08fe4aU, 0xa96534a9300d50a3U,
  0x4d8737ad4e472145U, 0x569194aadc16514eU, 0x8ba637ce4d3e532cU, 0xe99504d8f9b5d1c0U,
  0xca2c812be7be24f9U, 0x141c2d5adc36de54U, 0x27ebb042a7e8c5f8U, 0x352a91f9e7b54ecfU,
  0xa9fa05b2764a0d01U, 0x4cfe24cccbdbdb0U, 0x8eb3b8e50894e802U, 0x5149500811f489ecU,
  0x7f0d3b0b460f51fdU, 0x360f3f95d6680a82U, 0x36c8b7b5ad48f5a1U, 0xefe084913381f4f8U,
  0x548fb304a5516f0U, 0x47407db6fdd19dfU, 0xe6f4b5022164594cU, 0xb182d8500267200bU,
  0xb3063b8ac3ea4bddU, 0xd13fbd1bccdbfa26U, 0xd56aa31629bfa99aU, 0x18f237f739540302U,
  0xd229d9131014be36U, 0x14f216e70bdbe4a1U, 0x8cb96bb6432e9ccfU, 0x28582139ad81e3f2U,
  0xde0dfbd62f52a051U, 0xffd8217b8cf9f99U, 0xf0ebfe059781d364U, 0x494a3ee1c591becU,
  0xb2dd242685e43c3dU, 0xb3a105aa3a626aedU, 0x52dc3783edb2ddbeU, 0x72ffadbe2e510c9cU,
  0x115868c5cf7ad61U, 0xac05a34d47af663dU, 0x605fb90456c25e1cU, 0xc70034f6f704c232U,
  0x9bf8a998bd4c7fc6U, 0x532136cbd71bdbb7U, 0xb1e10a624033a10bU, 0xf4c333071dba1e6eU,
  0x68020ffd08e94519U, 0xa0815c6a04fee336U, 0xd33d0bb2383b92a7U, 0x415455976e19ba10U,
  0x284d735fd64547b5U, 0x21edde0d65cfd00cU, 0x1c3456fbb406f2e8U, 0x213c30c0b7683c07U,
  0x148d6c44ce3b5311U, 0xbba53cbe0436f8b9U, 0x63053b8bd5b5b31eU, 0xd5a737bcbcecddc7U,
  0x1dc546f3f4420debU, 0xbb1414f8fec943b2U, 0x129efe53b75925d3U, 0xcdf0a48f01221a33U,
  0x314cab811336b645U, 0x7e00e2c7de1a0e08U, 0xc49dce78ff815701U, 0xd5ec5254eebfa1b9U,
  0x4146a4928edccfd9U, 0xc1d089212d0a0159U, 0x21a2b99ee6ccf5cU, 0x45b84329e1bb4ca7U,
  0x243a9af23a0dd128U, 0x39f14d65e03b3f28U, 0xca390979c10fb857U, 0xca0a310eaee6a247U,
  0xfef7a0131233ed34U, 0x5849b204055fe602U, 0xb7d7280b59c0aa28U, 0x35b2057fe79ab59fU,
  0x9d512435e9efb655U, 0x95f8e9065a0e896dU, 0x22fa00147f8a6cbbU, 0x463e0d3dd4873b45U,
  0x3b7cd197f62033b3U, 0xdbd84457303fc68dU, 0x3d02208e3775d6c2U, 0x6bc39e2914cc14c1U,
  0xc75de24bc8d8e79fU, 0x9a6f51d7b19897b8U, 0xc44fe530254a7f0dU, 0xdf0415e559fe2d02U,
  0xfb355d0bd329fcd5U, 0x236fb5f39a1d04caU, 0xab5ee540a49485aU, 0x4d5dfc744d31448U,
  0x3da52cfe5125ca13U, 0x1c1629f7bf491b57U, 0x323ddfea42264d10U, 0x6bb058ddb441ba31U,
  0x1cdeef55e6bbe60bU, 0x73571efebf4d54c0U, 0x7fb9fa442526c1f7U, 0x1ae93f083c52a11cU,
  0xf4ae0e139efc13ecU, 0xfba34a81e42cec60U, 0xa716c198dc153b4dU, 0xff6dccad6b33e0e5U,
  0xfed1f10020bd2241U, 0x1dcd0008539b395cU, 0x9c02e40cbbf237ceU, 0xfe422c95ddc8b8d7U,
  0xccbe9e6021e520a8U, 0xb2affc8845c8e9b1U, 0x4ed2fc1a36be3bc2U, 0x3e7fad70e334d6a4U,
  0x36dd7a0d11e9a76cU, 0xe94a8866f294cdc0U, 0xa76cbfe09dd32227U, 0xcbac289b16a6e91fU,
  0xabc1fda1200fca6U, 0x117a00000e45U, 0x720fffff18bU, 0x472c00001c4cU,
  0xfffff1e5ffffeabeU, 0x3001000016b6U, 0xfffff325ffffef75U, 0xffffd900fffffa95U,
  0x398afffffc6bU,
};


ai_handle g_tinyfallnet_qat_weights_table[1 + 2] = {
  AI_HANDLE_PTR(AI_MAGIC_MARKER),
  AI_HANDLE_PTR(s_tinyfallnet_qat_weights_array_u64),
  AI_HANDLE_PTR(AI_MAGIC_MARKER),
};

